<unk>	0
<s>	0
</s>	0
he	-0
▁t	-1
▁a	-2
▁s	-3
▁w	-4
nd	-5
▁the	-6
ed	-7
▁and	-8
▁to	-9
▁b	-10
in	-11
▁h	-12
▁wa	-13
re	-14
ou	-15
▁f	-16
it	-17
▁T	-18
▁l	-19
▁c	-20
▁d	-21
er	-22
▁he	-23
▁m	-24
▁p	-25
▁was	-26
om	-27
▁o	-28
ay	-29
▁The	-30
ar	-31
is	-32
ing	-33
il	-34
▁g	-35
id	-36
▁S	-37
at	-38
en	-39
▁n	-40
▁sa	-41
▁ha	-42
an	-43
im	-44
or	-45
on	-46
▁it	-47
▁th	-48
▁H	-49
ll	-50
▁"	-51
le	-52
▁her	-53
ot	-54
et	-55
▁She	-56
ir	-57
▁He	-58
▁They	-59
es	-60
▁in	-61
ver	-62
ut	-63
ow	-64
ck	-65
▁L	-66
▁e	-67
▁u	-68
ld	-69
▁y	-70
oo	-71
▁said	-72
ig	-73
ily	-74
▁r	-75
▁be	-76
▁I	-77
am	-78
▁st	-79
ce	-80
ke	-81
▁she	-82
ve	-83
pp	-84
ith	-85
▁with	-86
▁O	-87
▁On	-88
▁on	-89
▁Lily	-90
▁you	-91
▁of	-92
ked	-93
ri	-94
▁so	-95
nt	-96
▁his	-97
▁pl	-98
ad	-99
▁B	-100
very	-101
▁day	-102
▁that	-103
▁up	-104
▁play	-105
▁had	-106
st	-107
▁they	-108
▁we	-109
▁mom	-110
▁M	-111
▁for	-112
el	-113
un	-114
ould	-115
my	-116
▁li	-117
ch	-118
ent	-119
▁happ	-120
▁want	-121
itt	-122
▁sh	-123
out	-124
her	-125
▁do	-126
ly	-127
▁not	-128
ome	-129
se	-130
▁very	-131
ound	-132
end	-133
all	-134
▁wh	-135
ime	-136
ittle	-137
▁k	-138
▁time	-139
▁little	-140
al	-141
▁there	-142
▁A	-143
▁ne	-144
ht	-145
▁re	-146
▁It	-147
▁happy	-148
▁sm	-149
▁big	-150
▁is	-151
▁but	-152
ack	-153
▁an	-154
▁saw	-155
riend	-156
."	-157
▁friend	-158
ry	-159
▁as	-160
ra	-161
ide	-162
▁One	-163
ake	-164
!"	-165
ug	-166
▁Tim	-167
▁loo	-168
ved	-169
ter	-170
▁were	-171
ore	-172
▁Once	-173
▁lo	-174
▁J	-175
ec	-176
▁him	-177
▁too	-178
▁go	-179
▁bo	-180
▁se	-181
irl	-182
▁are	-183
▁j	-184
ard	-185
▁wanted	-186
ill	-187
▁girl	-188
▁upon	-189
▁them	-190
▁out	-191
▁Tom	-192
▁at	-193
ur	-194
ind	-195
▁their	-196
fu	-197
▁sp	-198
▁Ben	-199
way	-200
▁smil	-201
▁did	-202
▁could	-203
hen	-204
▁have	-205
ain	-206
art	-207
▁ex	-208
hed	-209
rom	-210
▁went	-211
▁ar	-212
ic	-213
▁can	-214
▁W	-215
lp	-216
ful	-217
ood	-218
?"	-219
hing	-220
▁friends	-221
▁nam	-222
▁But	-223
ight	-224
▁all	-225
▁help	-226
▁kn	-227
um	-228
one	-229
ark	-230
▁back	-231
▁say	-232
You	-233
▁fun	-234
▁cl	-235
are	-236
▁no	-237
▁le	-238
▁Timmy	-239
op	-240
▁smiled	-241
▁sc	-242
▁named	-243
▁al	-244
oug	-245
▁loved	-246
side	-247
elt	-248
▁man	-249
▁asked	-250
ick	-251
▁toy	-252
▁like	-253
▁fe	-254
▁felt	-255
▁looked	-256
▁some	-257
▁around	-258
▁see	-259
▁me	-260
ame	-261
omet	-262
▁ro	-263
▁br	-264
ure	-265
▁bir	-266
get	-267
ice	-268
▁boy	-269
▁would	-270
▁start	-271
ong	-272
ss	-273
▁bird	-274
▁somet	-275
▁fa	-276
dd	-277
ings	-278
▁ag	-279
▁wor	-280
▁what	-281
▁Mom	-282
ade	-283
▁make	-284
king	-285
,"	-286
ie	-287
own	-288
▁tre	-289
▁ran	-290
gether	-291
▁You	-292
▁away	-293
ag	-294
ared	-295
▁says	-296
▁started	-297
oud	-298
if	-299
▁made	-300
▁car	-301
▁something	-302
▁together	-303
ited	-304
ther	-305
▁park	-306
▁co	-307
▁sad	-308
▁other	-309
▁new	-310
▁E	-311
▁exc	-312
▁put	-313
▁from	-314
▁pr	-315
ell	-316
▁la	-317
▁hug	-318
ble	-319
▁mu	-320
ook	-321
ach	-322
▁again	-323
▁home	-324
▁when	-325
▁F	-326
▁good	-327
hat	-328
ep	-329
▁who	-330
est	-331
ried	-332
▁found	-333
▁fl	-334
▁then	-335
▁ch	-336
▁dec	-337
pped	-338
▁wal	-339
as	-340
▁D	-341
▁get	-342
qu	-343
▁playing	-344
ought	-345
pl	-346
ally	-347
▁sw	-348
▁Su	-349
ous	-350
nn	-351
▁things	-352
▁excited	-353
▁liked	-354
▁got	-355
uck	-356
ro	-357
▁Sam	-358
ided	-359
▁decided	-360
▁bl	-361
ave	-362
▁came	-363
▁every	-364
ara	-365
▁your	-366
ax	-367
▁v	-368
▁scared	-369
▁Ann	-370
ust	-371
▁one	-372
▁dog	-373
▁down	-374
ouse	-375
ny	-376
▁find	-377
▁care	-378
▁bec	-379
ist	-380
▁than	-381
▁feel	-382
ap	-383
▁dad	-384
▁Sara	-385
▁ab	-386
▁my	-387
▁look	-388
▁ke	-389
▁Anna	-390
our	-391
▁will	-392
arn	-393
▁gr	-394
nder	-395
▁Max	-396
▁gra	-397
ways	-398
ess	-399
▁didn	-400
▁po	-401
fe	-402
▁always	-403
▁took	-404
▁about	-405
ant	-406
bb	-407
▁lot	-408
▁mommy	-409
▁toys	-410
▁kne	-411
ers	-412
ise	-413
▁So	-414
▁bu	-415
ite	-416
▁outside	-417
▁tree	-418
▁thought	-419
▁ball	-420
▁more	-421
eci	-422
ened	-423
ched	-424
▁ta	-425
▁old	-426
▁ho	-427
▁learn	-428
ret	-429
▁int	-430
ged	-431
▁When	-432
▁pu	-433
▁know	-434
▁Jo	-435
▁laug	-436
▁take	-437
ecial	-438
▁special	-439
▁sor	-440
▁cat	-441
dden	-442
▁knew	-443
ive	-444
▁Her	-445
ia	-446
▁pe	-447
▁any	-448
ddenly	-449
▁tr	-450
fter	-451
▁how	-452
au	-453
ma	-454
▁show	-455
ink	-456
▁sorry	-457
▁tw	-458
▁much	-459
▁Jack	-460
ish	-461
▁run	-462
and	-463
▁Every	-464
▁hand	-465
▁sl	-466
ven	-467
▁house	-468
▁or	-469
▁op	-470
▁sk	-471
▁mo	-472
▁clo	-473
▁sun	-474
▁into	-475
▁tried	-476
▁inside	-477
ate	-478
▁told	-479
▁water	-480
▁this	-481
▁en	-482
ank	-483
▁if	-484
▁proud	-485
ump	-486
▁qu	-487
▁over	-488
▁couldn	-489
dy	-490
▁gave	-491
▁heard	-492
▁never	-493
by	-494
▁each	-495
ace	-496
▁room	-497
ty	-498
▁expl	-499
here	-500
▁eat	-501
▁Suddenly	-502
▁We	-503
other	-504
ause	-505
▁pick	-506
ion	-507
▁pret	-508
▁played	-509
ge	-510
etter	-511
▁Then	-512
▁just	-513
ak	-514
▁Mia	-515
▁hugged	-516
▁gre	-517
▁off	-518
▁com	-519
▁wat	-520
oth	-521
▁box	-522
▁nice	-523
▁From	-524
ue	-525
▁str	-526
▁because	-527
▁need	-528
▁His	-529
ile	-530
▁many	-531
▁And	-532
▁fo	-533
uc	-534
▁jo	-535
▁bear	-536
▁small	-537
iz	-538
ving	-539
▁long	-540
ine	-541
gry	-542
sed	-543
imal	-544
ort	-545
▁animal	-546
▁sn	-547
ough	-548
▁try	-549
▁unt	-550
ild	-551
sel	-552
urt	-553
▁C	-554
▁until	-555
▁kind	-556
▁learned	-557
▁im	-558
▁â	-559
▁love	-560
▁better	-561
ft	-562
▁flow	-563
▁call	-564
▁don	-565
▁end	-566
▁ad	-567
▁best	-568
vent	-569
Yes	-570
ars	-571
urp	-572
ady	-573
em	-574
ream	-575
aut	-576
urn	-577
▁cle	-578
ves	-579
arden	-580
▁garden	-581
▁fast	-582
▁cu	-583
▁careful	-584
ber	-585
lly	-586
▁beaut	-587
▁even	-588
pt	-589
▁bra	-590
ies	-591
▁thanked	-592
▁fi	-593
▁che	-594
▁laughed	-595
▁sky	-596
▁by	-597
▁jump	-598
▁gl	-599
ase	-600
▁te	-601
▁loud	-602
self	-603
Th	-604
iny	-605
▁way	-606
wn	-607
▁beauti	-608
▁come	-609
lew	-610
▁list	-611
▁wo	-612
▁beautiful	-613
▁hard	-614
▁lots	-615
▁ra	-616
▁still	-617
▁fam	-618
▁animals	-619
▁hurt	-620
▁under	-621
▁P	-622
▁Joh	-623
ect	-624
▁stay	-625
ning	-626
▁let	-627
ct	-628
▁both	-629
sh	-630
hes	-631
be	-632
▁safe	-633
ool	-634
ree	-635
▁col	-636
▁two	-637
▁bad	-638
It	-639
▁book	-640
▁imp	-641
ople	-642
▁rem	-643
ane	-644
▁As	-645
▁lived	-646
kay	-647
ock	-648
ucy	-649
▁walked	-650
ast	-651
▁su	-652
urpr	-653
▁Lucy	-654
▁brave	-655
▁should	-656
▁its	-657
ob	-658
ished	-659
▁angry	-660
▁surpr	-661
▁family	-662
ress	-663
igh	-664
▁people	-665
▁flew	-666
▁called	-667
No	-668
▁red	-669
▁After	-670
▁stor	-671
ip	-672
▁soon	-673
▁fin	-674
Let	-675
led	-676
▁kept	-677
▁fore	-678
fore	-679
▁dan	-680
▁share	-681
▁fly	-682
xt	-683
▁John	-684
ised	-685
▁Mommy	-686
dded	-687
▁pic	-688
▁door	-689
▁going	-690
▁G	-691
▁pretty	-692
▁keep	-693
▁Dad	-694
▁now	-695
▁rock	-696
▁clean	-697
▁dra	-698
ary	-699
▁advent	-700
ummy	-701
▁noise	-702
▁opened	-703
▁shiny	-704
age	-705
▁explore	-706
▁wind	-707
▁doll	-708
▁cry	-709
▁con	-710
▁ide	-711
▁before	-712
ied	-713
illy	-714
▁real	-715
▁sto	-716
so	-717
What	-718
▁ground	-719
▁also	-720
les	-721
▁turn	-722
TM	-723
▁ey	-724
▁far	-725
▁idea	-726
▁fr	-727
▁Sp	-728
▁nodded	-729
▁color	-730
▁war	-731
▁feeling	-732
▁un	-733
▁picked	-734
imb	-735
oy	-736
th	-737
▁next	-738
▁walking	-739
thing	-740
▁Bob	-741
ture	-742
▁climb	-743
▁has	-744
▁ma	-745
▁thr	-746
▁while	-747
eet	-748
▁bed	-749
▁adventure	-750
▁smile	-751
kes	-752
That	-753
aybe	-754
iced	-755
ger	-756
Thank	-757
ious	-758
▁being	-759
▁dif	-760
▁wr	-761
▁clos	-762
▁food	-763
joy	-764
ted	-765
▁give	-766
▁picture	-767
▁N	-768
▁think	-769
▁looking	-770
▁del	-771
ff	-772
ac	-773
▁truck	-774
▁wait	-775
▁eyes	-776
ught	-777
▁tow	-778
ting	-779
▁repl	-780
▁bro	-781
▁stopped	-782
▁listen	-783
▁after	-784
▁R	-785
▁bre	-786
▁own	-787
▁vo	-788
▁walk	-789
ember	-790
▁wonder	-791
▁great	-792
▁Spot	-793
▁hands	-794
▁shout	-795
▁head	-796
▁enjoy	-797
▁import	-798
▁flowers	-799
▁ever	-800
▁Sue	-801
▁noticed	-802
▁blue	-803
▁forest	-804
bbit	-805
ized	-806
▁app	-807
irst	-808
▁near	-809
▁quick	-810
▁dis	-811
▁de	-812
able	-813
▁important	-814
▁remember	-815
▁fish	-816
llow	-817
▁sound	-818
oon	-819
▁slide	-820
▁us	-821
maz	-822
▁replied	-823
▁amaz	-824
▁ac	-825
lease	-826
▁work	-827
▁watch	-828
▁rain	-829
▁showed	-830
▁rabbit	-831
▁okay	-832
gan	-833
▁tal	-834
bye	-835
fere	-836
bbed	-837
▁ask	-838
▁ru	-839
▁differe	-840
▁mean	-841
▁Sarah	-842
▁right	-843
▁tou	-844
▁ye	-845
day	-846
▁watched	-847
▁bright	-848
▁follow	-849
▁everyone	-850
▁strong	-851
We	-852
▁squ	-853
▁stick	-854
▁use	-855
▁been	-856
▁mor	-857
▁voice	-858
▁tra	-859
ered	-860
▁quickly	-861
ath	-862
▁our	-863
▁where	-864
▁yell	-865
▁Jane	-866
▁different	-867
▁child	-868
▁curi	-869
▁boat	-870
ng	-871
▁sure	-872
▁became	-873
▁goodbye	-874
▁face	-875
▁place	-876
ange	-877
▁hop	-878
▁Th	-879
▁high	-880
▁am	-881
Look	-882
aught	-883
▁closer	-884
▁store	-885
▁warm	-886
▁does	-887
▁cr	-888
▁dress	-889
unny	-890
▁curious	-891
▁mag	-892
ila	-893
▁Joe	-894
▁cook	-895
▁bel	-896
▁forg	-897
▁tell	-898
▁fav	-899
ndma	-900
ass	-901
ount	-902
co	-903
▁three	-904
leep	-905
▁night	-906
▁open	-907
▁cake	-908
more	-909
▁here	-910
▁anymore	-911
▁block	-912
▁Lila	-913
▁first	-914
itc	-915
ull	-916
▁pull	-917
iss	-918
ached	-919
ired	-920
▁butter	-921
▁z	-922
imes	-923
orn	-924
▁sweet	-925
▁pain	-926
▁kid	-927
▁grabbed	-928
Can	-929
▁In	-930
isy	-931
▁only	-932
▁mon	-933
▁lea	-934
▁fell	-935
▁ba	-936
▁cont	-937
▁Everyone	-938
▁birds	-939
▁jumped	-940
▁glad	-941
▁bit	-942
▁sand	-943
itchen	-944
▁kitchen	-945
▁That	-946
▁helped	-947
▁sees	-948
▁fire	-949
▁per	-950
▁flo	-951
▁stop	-952
▁happened	-953
▁sing	-954
▁grass	-955
▁bunny	-956
▁shouted	-957
▁story	-958
▁Let	-959
▁tri	-960
nts	-961
▁dr	-962
air	-963
▁Do	-964
▁reached	-965
ppy	-966
▁beh	-967
▁realized	-968
▁yummy	-969
▁brother	-970
Mom	-971
▁lady	-972
▁Tommy	-973
▁mum	-974
ey	-975
▁having	-976
▁prin	-977
ins	-978
▁favor	-979
▁mess	-980
▁favorite	-981
▁draw	-982
▁cre	-983
▁rest	-984
▁through	-985
▁game	-986
▁hat	-987
▁ate	-988
▁less	-989
▁underst	-990
akes	-991
▁soft	-992
▁pare	-993
zy	-994
▁thing	-995
▁really	-996
ather	-997
▁ready	-998
▁began	-999
where	-1000
▁pretend	-1001
▁Can	-1002
▁world	-1003
▁looks	-1004
ken	-1005
▁himself	-1006
▁magic	-1007
fully	-1008
▁pap	-1009
▁done	-1010
▁butterf	-1011
▁making	-1012
▁cut	-1013
▁coming	-1014
▁duck	-1015
ater	-1016
▁pond	-1017
▁kids	-1018
▁waved	-1019
▁why	-1020
▁prom	-1021
▁fro	-1022
▁tired	-1023
▁fix	-1024
ster	-1025
▁mouse	-1026
▁worry	-1027
olly	-1028
▁part	-1029
▁cars	-1030
▁ste	-1031
▁delic	-1032
▁name	-1033
▁flower	-1034
ign	-1035
▁Fin	-1036
▁fill	-1037
Wow	-1038
aisy	-1039
▁touch	-1040
eddy	-1041
▁funny	-1042
▁catch	-1043
bo	-1044
▁used	-1045
▁Sally	-1046
▁seen	-1047
▁hair	-1048
▁tast	-1049
ient	-1050
▁top	-1051
▁parents	-1052
rel	-1053
▁another	-1054
▁hold	-1055
▁hopped	-1056
▁cried	-1057
iver	-1058
oney	-1059
mer	-1060
▁doing	-1061
▁cool	-1062
▁blocks	-1063
".	-1064
▁surprise	-1065
▁light	-1066
hy	-1067
▁green	-1068
▁thank	-1069
▁lesson	-1070
ation	-1071
▁read	-1072
▁floor	-1073
▁din	-1074
▁gi	-1075
▁wood	-1076
▁dri	-1077
Don	-1078
ards	-1079
▁full	-1080
▁trees	-1081
▁running	-1082
▁window	-1083
▁worked	-1084
▁years	-1085
▁cra	-1086
▁-	-1087
▁dro	-1088
▁dark	-1089
▁behind	-1090
▁likes	-1091
▁smell	-1092
▁spot	-1093
▁wished	-1094
▁paper	-1095
ued	-1096
▁yellow	-1097
andy	-1098
▁bow	-1099
ren	-1100
▁swim	-1101
▁happily	-1102
▁bag	-1103
▁sat	-1104
ul	-1105
▁sho	-1106
▁sleep	-1107
aring	-1108
▁Daisy	-1109
▁surprised	-1110
ely	-1111
us	-1112
▁Em	-1113
▁frog	-1114
▁butterfly	-1115
ike	-1116
▁swing	-1117
▁set	-1118
▁carefully	-1119
TMs	-1120
▁slow	-1121
▁remembered	-1122
▁Jim	-1123
▁lost	-1124
▁Benny	-1125
▁cold	-1126
▁held	-1127
uff	-1128
ello	-1129
Hello	-1130
▁hole	-1131
▁ice	-1132
▁laugh	-1133
rew	-1134
▁K	-1135
▁At	-1136
▁needed	-1137
▁buy	-1138
▁perf	-1139
▁left	-1140
ons	-1141
▁move	-1142
reed	-1143
cess	-1144
▁anything	-1145
▁dream	-1146
▁tall	-1147
▁enjoyed	-1148
▁wrong	-1149
▁Billy	-1150
▁arri	-1151
▁hear	-1152
▁Now	-1153
▁fair	-1154
▁air	-1155
▁followed	-1156
▁There	-1157
▁Finally	-1158
▁books	-1159
ross	-1160
▁el	-1161
▁To	-1162
▁children	-1163
▁bus	-1164
▁hun	-1165
▁delicious	-1166
▁table	-1167
▁Gra	-1168
▁finished	-1169
▁contin	-1170
▁friendly	-1171
▁dir	-1172
▁hot	-1173
▁snow	-1174
▁Molly	-1175
▁herself	-1176
ds	-1177
lf	-1178
▁hill	-1179
ens	-1180
▁understand	-1181
▁please	-1182
▁close	-1183
ined	-1184
▁Amy	-1185
▁hid	-1186
sp	-1187
▁arrived	-1188
▁cast	-1189
▁else	-1190
▁arm	-1191
▁baby	-1192
▁wonderful	-1193
▁might	-1194
▁gent	-1195
▁tight	-1196
▁forgot	-1197
ield	-1198
▁bug	-1199
▁colors	-1200
▁rel	-1201
▁build	-1202
▁broken	-1203
▁able	-1204
▁gone	-1205
av	-1206
ner	-1207
▁yes	-1208
▁Jen	-1209
atter	-1210
▁song	-1211
ich	-1212
▁wall	-1213
▁squir	-1214
▁filled	-1215
▁agreed	-1216
▁someone	-1217
▁gu	-1218
▁continued	-1219
room	-1220
▁creat	-1221
asure	-1222
▁count	-1223
▁wants	-1224
▁squirrel	-1225
▁pink	-1226
▁leaves	-1227
ask	-1228
▁This	-1229
▁enough	-1230
▁lion	-1231
ama	-1232
ee	-1233
▁morning	-1234
▁vis	-1235
▁moment	-1236
▁finally	-1237
▁getting	-1238
▁stayed	-1239
▁cookies	-1240
▁break	-1241
shed	-1242
app	-1243
▁poin	-1244
ance	-1245
▁beach	-1246
▁Maybe	-1247
▁few	-1248
▁scary	-1249
▁fight	-1250
▁sometimes	-1251
row	-1252
ash	-1253
ries	-1254
ced	-1255
red	-1256
▁What	-1257
▁turned	-1258
▁hungry	-1259
▁fall	-1260
▁dinner	-1261
gon	-1262
▁mother	-1263
▁grandma	-1264
▁ju	-1265
▁wet	-1266
▁amazing	-1267
apped	-1268
▁trying	-1269
▁cream	-1270
▁daddy	-1271
▁perfect	-1272
▁pi	-1273
▁makes	-1274
▁castle	-1275
▁others	-1276
▁climbed	-1277
key	-1278
oup	-1279
▁pictures	-1280
icy	-1281
▁comp	-1282
amp	-1283
▁talk	-1284
▁met	-1285
▁mus	-1286
ere	-1287
▁white	-1288
oom	-1289
▁listened	-1290
▁smiles	-1291
man	-1292
▁fur	-1293
▁balloon	-1294
▁clot	-1295
oring	-1296
▁alone	-1297
▁Jill	-1298
▁clothes	-1299
▁pol	-1300
lc	-1301
▁tail	-1302
▁joy	-1303
ated	-1304
rot	-1305
▁puppy	-1306
▁spl	-1307
ence	-1308
▁mar	-1309
▁wasn	-1310
▁brought	-1311
▁deep	-1312
▁everything	-1313
▁pet	-1314
▁sear	-1315
Oh	-1316
▁strange	-1317
ister	-1318
ctor	-1319
▁spark	-1320
der	-1321
▁sit	-1322
▁woods	-1323
▁grow	-1324
▁pulled	-1325
ling	-1326
▁sail	-1327
ott	-1328
▁won	-1329
▁plan	-1330
▁ride	-1331
eter	-1332
▁asks	-1333
▁fox	-1334
▁pie	-1335
▁danger	-1336
▁treat	-1337
uffy	-1338
▁roll	-1339
▁visit	-1340
▁leave	-1341
os	-1342
med	-1343
▁pat	-1344
ucky	-1345
This	-1346
▁music	-1347
▁amazed	-1348
▁waited	-1349
▁Soon	-1350
▁teddy	-1351
▁hide	-1352
me	-1353
But	-1354
ang	-1355
ever	-1356
▁towards	-1357
ower	-1358
▁field	-1359
▁land	-1360
▁pre	-1361
▁flying	-1362
zz	-1363
▁All	-1364
▁pen	-1365
▁silly	-1366
▁shared	-1367
▁runs	-1368
ained	-1369
▁owner	-1370
▁cloud	-1371
ape	-1372
▁living	-1373
ugg	-1374
▁Daddy	-1375
▁qui	-1376
ames	-1377
▁job	-1378
▁promised	-1379
▁belie	-1380
igg	-1381
▁moral	-1382
▁side	-1383
gs	-1384
orm	-1385
ol	-1386
▁lake	-1387
▁thinks	-1388
▁Mama	-1389
cket	-1390
Maybe	-1391
ope	-1392
▁paint	-1393
▁sec	-1394
thy	-1395
▁sister	-1396
▁Mary	-1397
ually	-1398
▁party	-1399
▁quiet	-1400
ises	-1401
Okay	-1402
▁must	-1403
cle	-1404
▁race	-1405
avy	-1406
▁money	-1407
▁wear	-1408
sw	-1409
▁worried	-1410
ased	-1411
▁answ	-1412
unch	-1413
▁slowly	-1414
▁pot	-1415
eces	-1416
▁colorful	-1417
▁faster	-1418
▁grate	-1419
▁ow	-1420
▁dance	-1421
▁pieces	-1422
▁bran	-1423
▁bott	-1424
▁welc	-1425
▁broke	-1426
▁cup	-1427
ix	-1428
▁grateful	-1429
▁gif	-1430
▁such	-1431
▁bigger	-1432
ze	-1433
▁train	-1434
ph	-1435
fort	-1436
▁snack	-1437
▁cho	-1438
▁Fl	-1439
▁reach	-1440
▁Mr	-1441
▁blank	-1442
▁monster	-1443
▁pro	-1444
▁plant	-1445
▁join	-1446
▁river	-1447
▁black	-1448
less	-1449
▁win	-1450
▁candy	-1451
ire	-1452
▁blanket	-1453
▁scream	-1454
uit	-1455
▁treasure	-1456
ear	-1457
▁magical	-1458
▁ve	-1459
▁princess	-1460
▁ele	-1461
▁smart	-1462
▁stu	-1463
▁bike	-1464
▁dangerous	-1465
▁Just	-1466
▁sign	-1467
▁dragon	-1468
OK	-1469
▁across	-1470
▁monkey	-1471
▁bar	-1472
▁most	-1473
▁everywhere	-1474
▁helping	-1475
▁nap	-1476
▁farmer	-1477
outh	-1478
▁em	-1479
▁mouth	-1480
Why	-1481
set	-1482
▁disapp	-1483
▁Jimmy	-1484
▁pa	-1485
▁words	-1486
▁je	-1487
ipped	-1488
Sure	-1489
▁stre	-1490
ored	-1491
▁tower	-1492
ming	-1493
eared	-1494
▁threw	-1495
Hi	-1496
▁stepped	-1497
▁heavy	-1498
▁dolls	-1499
▁pass	-1500
▁bite	-1501
de	-1502
▁bowl	-1503
▁dirty	-1504
▁twins	-1505
▁same	-1506
▁crying	-1507
▁bee	-1508
▁spr	-1509
TMt	-1510
▁doctor	-1511
ident	-1512
▁Grandma	-1513
▁acc	-1514
▁believe	-1515
▁wouldn	-1516
▁bath	-1517
▁heal	-1518
Mommy	-1519
chool	-1520
▁hig	-1521
bble	-1522
▁closed	-1523
▁carrot	-1524
▁Mum	-1525
▁heart	-1526
▁stuck	-1527
cked	-1528
▁cour	-1529
The	-1530
▁fruit	-1531
▁buck	-1532
▁min	-1533
▁att	-1534
▁teac	-1535
▁school	-1536
▁brown	-1537
▁hoped	-1538
asket	-1539
iting	-1540
▁suddenly	-1541
▁basket	-1542
▁feels	-1543
▁mix	-1544
▁Emma	-1545
▁chair	-1546
▁eating	-1547
▁town	-1548
▁course	-1549
▁cray	-1550
▁clapped	-1551
▁coll	-1552
▁gentle	-1553
▁fairy	-1554
pping	-1555
▁butt	-1556
▁pack	-1557
ventually	-1558
▁stand	-1559
ier	-1560
▁drove	-1561
ors	-1562
▁pushed	-1563
br	-1564
issed	-1565
▁welcome	-1566
ts	-1567
▁swings	-1568
▁without	-1569
▁Inside	-1570
▁higher	-1571
▁today	-1572
▁neigh	-1573
▁pocket	-1574
orrow	-1575
▁hit	-1576
▁teacher	-1577
▁neighb	-1578
▁pers	-1579
ord	-1580
▁smo	-1581
▁games	-1582
ourn	-1583
▁piece	-1584
ract	-1585
▁cheered	-1586
▁wings	-1587
▁forget	-1588
▁ben	-1589
▁explained	-1590
▁journ	-1591
▁yard	-1592
▁longer	-1593
▁free	-1594
ible	-1595
▁corn	-1596
▁accident	-1597
ead	-1598
ho	-1599
▁dry	-1600
▁along	-1601
umb	-1602
ment	-1603
▁Their	-1604
cy	-1605
▁noises	-1606
itting	-1607
▁neck	-1608
▁sang	-1609
▁inst	-1610
▁late	-1611
▁happen	-1612
▁throw	-1613
▁hugs	-1614
▁young	-1615
▁turns	-1616
▁stories	-1617
vel	-1618
▁shoes	-1619
phant	-1620
▁lon	-1621
▁miss	-1622
▁adventures	-1623
▁singing	-1624
▁trou	-1625
▁well	-1626
▁sea	-1627
▁lunch	-1628
▁apple	-1629
▁upset	-1630
▁lonely	-1631
▁key	-1632
ches	-1633
▁belong	-1634
bby	-1635
oun	-1636
▁dist	-1637
▁secret	-1638
▁street	-1639
▁plac	-1640
▁elephant	-1641
▁tom	-1642
▁wish	-1643
▁fence	-1644
▁mine	-1645
ountain	-1646
▁mat	-1647
ek	-1648
▁shap	-1649
▁shook	-1650
▁exploring	-1651
▁moved	-1652
▁purp	-1653
▁year	-1654
aughty	-1655
▁nearby	-1656
▁naughty	-1657
▁star	-1658
▁soup	-1659
▁shop	-1660
▁wise	-1661
▁Sammy	-1662
▁stars	-1663
▁owl	-1664
▁bring	-1665
fused	-1666
▁jar	-1667
bow	-1668
ocked	-1669
▁Fluffy	-1670
▁inv	-1671
▁exp	-1672
▁Tw	-1673
▁whe	-1674
yard	-1675
▁caught	-1676
ward	-1677
Do	-1678
▁backyard	-1679
▁seemed	-1680
ail	-1681
▁es	-1682
▁relie	-1683
▁dropped	-1684
▁ph	-1685
▁rocks	-1686
aughter	-1687
llo	-1688
▁3	-1689
▁drink	-1690
▁bucket	-1691
▁des	-1692
adow	-1693
ces	-1694
▁purple	-1695
▁swam	-1696
▁farm	-1697
▁resp	-1698
▁Thank	-1699
▁taking	-1700
▁mail	-1701
▁orange	-1702
▁though	-1703
ions	-1704
sy	-1705
▁shapes	-1706
▁past	-1707
col	-1708
▁cow	-1709
▁woke	-1710
▁bench	-1711
▁sounds	-1712
▁af	-1713
ung	-1714
ity	-1715
▁wondered	-1716
▁busy	-1717
▁fit	-1718
▁tiny	-1719
▁ob	-1720
▁Later	-1721
▁nose	-1722
▁sitting	-1723
▁nest	-1724
▁rainbow	-1725
ese	-1726
▁daughter	-1727
▁takes	-1728
▁mark	-1729
▁mad	-1730
fish	-1731
▁cou	-1732
▁kite	-1733
to	-1734
read	-1735
▁holding	-1736
▁nothing	-1737
Lily	-1738
▁comes	-1739
▁juice	-1740
▁arms	-1741
thday	-1742
▁pig	-1743
og	-1744
▁coat	-1745
ining	-1746
▁cir	-1747
▁With	-1748
▁branch	-1749
raid	-1750
▁relieved	-1751
pper	-1752
▁afraid	-1753
▁Ell	-1754
cing	-1755
ose	-1756
idge	-1757
▁driver	-1758
▁mil	-1759
▁forever	-1760
▁Al	-1761
vered	-1762
▁spoon	-1763
▁cute	-1764
▁carry	-1765
▁gift	-1766
▁sick	-1767
▁boun	-1768
ale	-1769
▁lift	-1770
sting	-1771
▁peace	-1772
▁promise	-1773
Of	-1774
ours	-1775
▁huge	-1776
▁act	-1777
▁touched	-1778
▁Jenny	-1779
▁patient	-1780
unt	-1781
▁king	-1782
▁round	-1783
cer	-1784
sc	-1785
▁hello	-1786
▁Come	-1787
▁birthday	-1788
▁fing	-1789
▁letter	-1790
▁grab	-1791
▁intere	-1792
▁exciting	-1793
let	-1794
▁sunny	-1795
▁cheese	-1796
▁Tweet	-1797
eth	-1798
▁onto	-1799
▁bush	-1800
▁laughing	-1801
▁days	-1802
board	-1803
▁journey	-1804
▁gigg	-1805
▁band	-1806
▁creature	-1807
▁disco	-1808
▁Wh	-1809
ittens	-1810
▁bread	-1811
Hey	-1812
arp	-1813
▁ret	-1814
ped	-1815
▁imag	-1816
shine	-1817
▁life	-1818
▁kick	-1819
gged	-1820
▁hope	-1821
▁power	-1822
▁craw	-1823
▁shell	-1824
▁cozy	-1825
▁swimming	-1826
▁inc	-1827
▁bottle	-1828
▁mist	-1829
▁sharp	-1830
▁Emily	-1831
▁wra	-1832
▁suc	-1833
▁comfort	-1834
gg	-1835
ness	-1836
▁instead	-1837
▁whist	-1838
▁milk	-1839
▁watching	-1840
▁return	-1841
▁ear	-1842
▁spin	-1843
alm	-1844
▁accidentally	-1845
▁eas	-1846
▁sunshine	-1847
ten	-1848
▁cave	-1849
pa	-1850
▁Ch	-1851
▁spo	-1852
▁puts	-1853
▁lucky	-1854
▁talked	-1855
▁honey	-1856
▁pudd	-1857
▁pointed	-1858
▁gives	-1859
▁collect	-1860
▁gather	-1861
itch	-1862
▁road	-1863
▁ent	-1864
▁smiling	-1865
▁bought	-1866
▁anyone	-1867
▁hor	-1868
▁searched	-1869
▁later	-1870
▁ce	-1871
▁fan	-1872
▁sandw	-1873
ball	-1874
round	-1875
itten	-1876
▁apples	-1877
els	-1878
blem	-1879
irt	-1880
▁problem	-1881
▁meet	-1882
ize	-1883
▁mach	-1884
▁wom	-1885
▁loves	-1886
▁interesting	-1887
œI	-1888
Good	-1889
▁woman	-1890
▁plane	-1891
▁kiss	-1892
▁pres	-1893
▁healthy	-1894
eb	-1895
▁pile	-1896
▁tasty	-1897
▁ducks	-1898
▁vill	-1899
▁wide	-1900
ove	-1901
ont	-1902
amed	-1903
ub	-1904
aur	-1905
▁adm	-1906
▁eag	-1907
▁spid	-1908
▁clever	-1909
▁crayons	-1910
▁prot	-1911
▁matter	-1912
▁trouble	-1913
erly	-1914
ndpa	-1915
▁zoom	-1916
▁clouds	-1917
owed	-1918
▁storm	-1919
▁person	-1920
▁path	-1921
cks	-1922
▁pill	-1923
▁feather	-1924
▁rope	-1925
▁pop	-1926
▁shining	-1927
▁protect	-1928
▁smelled	-1929
▁front	-1930
▁hon	-1931
▁button	-1932
▁How	-1933
▁pract	-1934
▁spotted	-1935
▁screamed	-1936
▁zoo	-1937
▁minut	-1938
▁present	-1939
▁Jake	-1940
Come	-1941
▁ap	-1942
▁mud	-1943
▁val	-1944
▁respect	-1945
▁Somet	-1946
▁saf	-1947
▁danced	-1948
▁cheer	-1949
▁organ	-1950
▁par	-1951
▁quest	-1952
ond	-1953
▁appeared	-1954
▁which	-1955
▁puzz	-1956
▁seat	-1957
▁teach	-1958
▁myster	-1959
▁snowman	-1960
isa	-1961
▁snake	-1962
▁thin	-1963
▁St	-1964
ert	-1965
▁wild	-1966
▁asleep	-1967
▁lovely	-1968
▁sur	-1969
▁answer	-1970
epend	-1971
▁Together	-1972
▁wearing	-1973
▁Mittens	-1974
▁gently	-1975
▁neighbor	-1976
oose	-1977
▁bark	-1978
▁horse	-1979
▁giant	-1980
▁places	-1981
▁goes	-1982
▁Re	-1983
▁whole	-1984
▁search	-1985
▁splas	-1986
up	-1987
▁corner	-1988
▁impress	-1989
ular	-1990
▁dirt	-1991
▁med	-1992
▁shr	-1993
een	-1994
▁tries	-1995
▁Lisa	-1996
▁trip	-1997
▁confused	-1998
▁live	-1999
▁mind	-2000
▁di	-2001
ato	-2002
▁rolled	-2003
▁card	-2004
▁slid	-2005
▁tasted	-2006
nic	-2007
cean	-2008
▁Le	-2009
▁ash	-2010
▁ocean	-2011
▁supp	-2012
▁forgive	-2013
▁picnic	-2014
▁Go	-2015
▁ca	-2016
▁rude	-2017
▁machine	-2018
▁spent	-2019
▁drive	-2020
▁teeth	-2021
▁ser	-2022
ssed	-2023
itty	-2024
▁phone	-2025
▁oven	-2026
▁pan	-2027
▁pour	-2028
▁last	-2029
la	-2030
▁calm	-2031
▁pretended	-2032
▁delight	-2033
▁cookie	-2034
▁furry	-2035
▁spider	-2036
izz	-2037
▁feet	-2038
▁faces	-2039
unk	-2040
▁lay	-2041
▁worm	-2042
▁ring	-2043
▁rec	-2044
umber	-2045
▁Be	-2046
▁helpful	-2047
▁lad	-2048
▁Peter	-2049
▁eventually	-2050
▁wip	-2051
▁chick	-2052
▁wave	-2053
▁mountain	-2054
▁sal	-2055
▁ban	-2056
▁emb	-2057
▁talking	-2058
ones	-2059
▁rob	-2060
Tom	-2061
▁fold	-2062
▁shy	-2063
▁cart	-2064
▁tomorrow	-2065
▁sel	-2066
▁chocol	-2067
▁tid	-2068
▁spread	-2069
▁village	-2070
arge	-2071
ife	-2072
▁remind	-2073
▁ign	-2074
▁bubble	-2075
▁tun	-2076
▁coin	-2077
▁foot	-2078
▁couch	-2079
▁write	-2080
▁push	-2081
▁ladder	-2082
▁building	-2083
▁fighting	-2084
▁smooth	-2085
▁Sometimes	-2086
▁Little	-2087
▁treats	-2088
▁wore	-2089
▁chased	-2090
▁tool	-2091
ighed	-2092
▁blew	-2093
▁stret	-2094
lex	-2095
arra	-2096
▁bugs	-2097
per	-2098
▁embarra	-2099
▁hiding	-2100
▁pool	-2101
▁'	-2102
▁cross	-2103
My	-2104
▁waiting	-2105
oph	-2106
▁knee	-2107
▁robot	-2108
▁neckl	-2109
▁step	-2110
▁Teddy	-2111
▁puddle	-2112
mo	-2113
▁finish	-2114
▁shelf	-2115
▁bell	-2116
▁coo	-2117
not	-2118
als	-2119
▁songs	-2120
▁stir	-2121
ator	-2122
▁whenever	-2123
▁selfish	-2124
▁ant	-2125
▁maybe	-2126
▁Mummy	-2127
▁cannot	-2128
▁string	-2129
▁stra	-2130
▁Sus	-2131
▁chocolate	-2132
▁Everywhere	-2133
ult	-2134
▁sol	-2135
▁taste	-2136
▁spe	-2137
▁rep	-2138
▁hum	-2139
▁ple	-2140
▁large	-2141
▁paw	-2142
▁net	-2143
box	-2144
▁sack	-2145
▁leaf	-2146
▁scar	-2147
▁fixed	-2148
lebr	-2149
▁barked	-2150
▁tidy	-2151
umpy	-2152
▁banan	-2153
▁wash	-2154
▁spray	-2155
▁stone	-2156
▁Bu	-2157
▁celebr	-2158
old	-2159
▁gen	-2160
▁cloth	-2161
Please	-2162
▁crab	-2163
▁peaceful	-2164
▁colour	-2165
▁Johnn	-2166
ungle	-2167
▁Please	-2168
oin	-2169
▁hel	-2170
ush	-2171
ird	-2172
▁missed	-2173
▁deter	-2174
▁jungle	-2175
iger	-2176
arm	-2177
St	-2178
▁landed	-2179
▁determ	-2180
▁forward	-2181
▁Johnny	-2182
▁embarrassed	-2183
▁Some	-2184
▁necklace	-2185
▁honest	-2186
▁jumping	-2187
airs	-2188
elly	-2189
▁bat	-2190
▁decor	-2191
▁Alice	-2192
dge	-2193
▁trust	-2194
▁hears	-2195
▁moon	-2196
orry	-2197
▁sticks	-2198
▁TV	-2199
▁shirt	-2200
▁creative	-2201
▁sharing	-2202
aking	-2203
▁tea	-2204
most	-2205
▁knocked	-2206
▁carrots	-2207
▁disappoin	-2208
▁success	-2209
▁Don	-2210
▁meadow	-2211
ying	-2212
▁Even	-2213
getable	-2214
▁whis	-2215
▁stood	-2216
▁gener	-2217
▁vegetable	-2218
▁While	-2219
▁bal	-2220
▁meant	-2221
▁legs	-2222
▁tightly	-2223
▁breath	-2224
▁plate	-2225
▁almost	-2226
▁ashamed	-2227
ned	-2228
▁Z	-2229
▁emp	-2230
▁sour	-2231
▁gray	-2232
dle	-2233
▁grew	-2234
▁tells	-2235
▁empty	-2236
▁pillow	-2237
ground	-2238
▁Bo	-2239
ony	-2240
▁gas	-2241
▁splash	-2242
▁whistle	-2243
ian	-2244
▁understood	-2245
▁sheep	-2246
▁ber	-2247
▁carried	-2248
den	-2249
▁yelled	-2250
▁Why	-2251
▁lem	-2252
ustr	-2253
arl	-2254
▁nods	-2255
vous	-2256
▁save	-2257
▁police	-2258
▁disappointed	-2259
▁snacks	-2260
▁hours	-2261
▁nut	-2262
ital	-2263
▁jew	-2264
▁these	-2265
hin	-2266
ork	-2267
▁hosp	-2268
ets	-2269
▁sparkly	-2270
▁gold	-2271
Where	-2272
erp	-2273
▁hospital	-2274
▁kitten	-2275
▁ship	-2276
▁pay	-2277
ina	-2278
▁bored	-2279
urse	-2280
▁line	-2281
▁generous	-2282
▁frustr	-2283
▁test	-2284
▁hidden	-2285
▁Leo	-2286
▁taught	-2287
▁standing	-2288
▁rad	-2289
▁scarf	-2290
iff	-2291
▁chew	-2292
▁returned	-2293
▁minutes	-2294
▁pizz	-2295
▁knowing	-2296
▁group	-2297
▁hur	-2298
▁plants	-2299
▁easy	-2300
▁blow	-2301
▁bedroom	-2302
▁polite	-2303
▁Rex	-2304
▁mysterious	-2305
▁waves	-2306
▁glass	-2307
▁sighed	-2308
▁shore	-2309
▁pri	-2310
▁seed	-2311
▁wolf	-2312
▁Mark	-2313
▁seek	-2314
▁determined	-2315
kin	-2316
Stop	-2317
▁puzzle	-2318
▁powerful	-2319
▁thankful	-2320
fl	-2321
▁class	-2322
▁Br	-2323
▁ner	-2324
▁pir	-2325
▁sandwich	-2326
▁fig	-2327
▁sleepy	-2328
▁prince	-2329
▁passed	-2330
▁drew	-2331
▁Bl	-2332
▁Susie	-2333
▁finger	-2334
▁jelly	-2335
▁pizza	-2336
▁nervous	-2337
▁frustrated	-2338
▁spicy	-2339
▁gun	-2340
▁spoil	-2341
▁match	-2342
▁fancy	-2343
▁messy	-2344
osaur	-2345
work	-2346
▁gate	-2347
▁bridge	-2348
▁lock	-2349
▁kissed	-2350
▁tick	-2351
aul	-2352
▁closet	-2353
▁fear	-2354
▁reg	-2355
af	-2356
▁feed	-2357
▁mot	-2358
▁sold	-2359
▁wis	-2360
▁gathered	-2361
▁av	-2362
▁excite	-2363
▁poor	-2364
▁circ	-2365
ote	-2366
▁hang	-2367
erpill	-2368
▁caterpill	-2369
▁esc	-2370
▁flag	-2371
oop	-2372
▁pin	-2373
▁grumpy	-2374
▁van	-2375
iddle	-2376
ella	-2377
▁dinosaur	-2378
▁yourself	-2379
ano	-2380
issors	-2381
uce	-2382
▁answered	-2383
▁cries	-2384
Are	-2385
▁often	-2386
itter	-2387
▁twirl	-2388
selves	-2389
▁chest	-2390
sist	-2391
▁scissors	-2392
▁hopping	-2393
▁tears	-2394
pack	-2395
gly	-2396
Sorry	-2397
mb	-2398
▁mummy	-2399
Ben	-2400
▁Dan	-2401
▁Today	-2402
▁ugly	-2403
▁burn	-2404
▁cand	-2405
ensive	-2406
▁deer	-2407
▁drop	-2408
illed	-2409
▁fil	-2410
▁excitement	-2411
era	-2412
izzy	-2413
▁caterpillar	-2414
▁lit	-2415
▁working	-2416
▁middle	-2417
▁expensive	-2418
▁scr	-2419
▁saved	-2420
▁taken	-2421
▁ok	-2422
▁true	-2423
▁wagged	-2424
▁ones	-2425
▁pleased	-2426
▁crown	-2427
▁spend	-2428
▁boring	-2429
▁picks	-2430
▁leg	-2431
que	-2432
oof	-2433
ugar	-2434
▁vase	-2435
▁tent	-2436
▁asking	-2437
body	-2438
ual	-2439
▁brush	-2440
▁tie	-2441
▁Bobby	-2442
ates	-2443
▁vegetables	-2444
ecially	-2445
▁giggled	-2446
▁boss	-2447
ete	-2448
Who	-2449
▁mistake	-2450
▁cage	-2451
ser	-2452
▁gets	-2453
light	-2454
▁rocket	-2455
▁cap	-2456
▁mir	-2457
▁comfortable	-2458
▁sugar	-2459
▁eld	-2460
▁stuff	-2461
▁packed	-2462
▁dancing	-2463
pecially	-2464
▁especially	-2465
▁wander	-2466
▁clown	-2467
▁medic	-2468
▁number	-2469
▁press	-2470
▁sight	-2471
▁knight	-2472
ggs	-2473
ots	-2474
▁fruits	-2475
iness	-2476
▁Eventually	-2477
▁eggs	-2478
▁lying	-2479
▁drum	-2480
▁pus	-2481
▁fake	-2482
▁dest	-2483
ror	-2484
▁medicine	-2485
▁walks	-2486
▁distance	-2487
aged	-2488
▁glue	-2489
▁Mandy	-2490
▁splashed	-2491
▁No	-2492
▁sweetie	-2493
▁U	-2494
▁bake	-2495
▁flut	-2496
▁bone	-2497
▁Blue	-2498
▁drawing	-2499
▁moving	-2500
▁Kitty	-2501
▁disappeared	-2502
▁week	-2503
▁OK	-2504
▁lead	-2505
▁smelly	-2506
▁clap	-2507
▁lemon	-2508
▁become	-2509
▁change	-2510
▁pray	-2511
▁feathers	-2512
ha	-2513
▁moms	-2514
▁lose	-2515
▁If	-2516
▁mov	-2517
▁licked	-2518
▁calling	-2519
▁twist	-2520
▁dogs	-2521
▁bathroom	-2522
▁Pete	-2523
▁playground	-2524
ory	-2525
yal	-2526
▁Fred	-2527
▁fis	-2528
▁lazy	-2529
▁roar	-2530
▁elderly	-2531
▁weak	-2532
▁incred	-2533
▁cri	-2534
▁gar	-2535
?".	-2536
▁body	-2537
Now	-2538
▁horn	-2539
▁exam	-2540
▁crack	-2541
▁questions	-2542
▁add	-2543
▁wrote	-2544
▁yog	-2545
▁yours	-2546
▁noisy	-2547
▁father	-2548
▁mirror	-2549
uggest	-2550
▁mic	-2551
▁nod	-2552
▁suggest	-2553
ating	-2554
elp	-2555
eez	-2556
▁fluffy	-2557
▁skipped	-2558
▁ed	-2559
▁wheel	-2560
▁eager	-2561
▁loyal	-2562
▁lamp	-2563
▁dish	-2564
▁ext	-2565
▁clear	-2566
▁famous	-2567
▁Ellie	-2568
land	-2569
▁End	-2570
▁dig	-2571
▁ruined	-2572
▁stones	-2573
ination	-2574
▁rich	-2575
▁rare	-2576
▁ord	-2577
▁tape	-2578
▁sell	-2579
▁drank	-2580
▁content	-2581
▁figure	-2582
▁queen	-2583
▁march	-2584
▁incredible	-2585
▁glow	-2586
▁map	-2587
▁shows	-2588
▁rid	-2589
ti	-2590
▁check	-2591
▁juicy	-2592
▁soap	-2593
▁covered	-2594
▁ind	-2595
▁balls	-2596
▁sailed	-2597
▁relax	-2598
▁aw	-2599
▁shoot	-2600
illi	-2601
hip	-2602
▁team	-2603
ately	-2604
▁measure	-2605
▁decide	-2606
▁realised	-2607
umbled	-2608
▁discovered	-2609
▁coins	-2610
▁needs	-2611
▁borrow	-2612
▁swan	-2613
▁straw	-2614
▁Ella	-2615
fic	-2616
▁adventur	-2617
cept	-2618
Help	-2619
▁cleaned	-2620
▁branches	-2621
▁towel	-2622
▁boys	-2623
▁extra	-2624
▁ham	-2625
asing	-2626
imp	-2627
▁Mar	-2628
Well	-2629
▁board	-2630
▁Bella	-2631
Be	-2632
▁chicken	-2633
▁barn	-2634
▁mod	-2635
▁tiger	-2636
▁motor	-2637
▁tag	-2638
▁adventurous	-2639
▁joke	-2640
▁diffic	-2641
▁offered	-2642
▁fine	-2643
keep	-2644
▁balance	-2645
▁Brown	-2646
▁lifted	-2647
ique	-2648
▁bubbles	-2649
▁colourful	-2650
▁frown	-2651
▁Rose	-2652
▁turt	-2653
▁eye	-2654
▁thick	-2655
▁difficult	-2656
▁bottom	-2657
▁track	-2658
▁toug	-2659
alous	-2660
▁organized	-2661
▁cover	-2662
▁happening	-2663
▁unique	-2664
rag	-2665
▁jealous	-2666
▁dolp	-2667
▁hose	-2668
port	-2669
▁knife	-2670
▁weird	-2671
▁island	-2672
▁Bobo	-2673
cil	-2674
▁garage	-2675
▁Mrs	-2676
▁fright	-2677
▁managed	-2678
imed	-2679
▁hurts	-2680
▁pencil	-2681
▁once	-2682
▁word	-2683
ject	-2684
▁crawled	-2685
▁cost	-2686
▁learning	-2687
▁arg	-2688
▁circle	-2689
▁saying	-2690
▁Dave	-2691
▁kindness	-2692
ured	-2693
Me	-2694
▁berries	-2695
▁tough	-2696
olog	-2697
▁Mike	-2698
▁Fr	-2699
▁mighty	-2700
▁balloons	-2701
▁pointing	-2702
▁bald	-2703
▁chase	-2704
▁favour	-2705
ready	-2706
▁wand	-2707
ddy	-2708
▁ter	-2709
lies	-2710
keeper	-2711
▁shake	-2712
iv	-2713
▁jewel	-2714
▁louder	-2715
ipper	-2716
▁added	-2717
ages	-2718
▁batter	-2719
▁sil	-2720
▁hunt	-2721
▁guit	-2722
▁harder	-2723
▁guess	-2724
▁apolog	-2725
▁unus	-2726
▁edge	-2727
head	-2728
▁already	-2729
▁four	-2730
▁Tweety	-2731
▁ang	-2732
▁spun	-2733
▁favourite	-2734
▁fool	-2735
▁norm	-2736
▁whale	-2737
ipp	-2738
▁unusual	-2739
▁libr	-2740
▁valu	-2741
rage	-2742
alk	-2743
▁enjoying	-2744
▁dizzy	-2745
▁Grandpa	-2746
aw	-2747
▁hats	-2748
▁pump	-2749
▁belonged	-2750
▁grace	-2751
▁wrapped	-2752
▁cheerful	-2753
▁smoke	-2754
uggled	-2755
▁impressed	-2756
▁strawber	-2757
▁trucks	-2758
▁record	-2759
▁giving	-2760
▁sword	-2761
▁market	-2762
▁grown	-2763
▁ref	-2764
▁laughs	-2765
▁trunk	-2766
▁normal	-2767
anged	-2768
▁grand	-2769
▁hero	-2770
▁ears	-2771
▁guitar	-2772
▁loudly	-2773
ola	-2774
illiant	-2775
▁harm	-2776
▁turtle	-2777
▁banana	-2778
▁proudly	-2779
▁boxes	-2780
▁scare	-2781
ature	-2782
▁Soph	-2783
ilt	-2784
▁brilliant	-2785
▁choose	-2786
▁brothers	-2787
ery	-2788
▁circles	-2789
▁whisp	-2790
▁terri	-2791
Here	-2792
▁bossy	-2793
Tim	-2794
▁dreamed	-2795
▁against	-2796
▁escape	-2797
ym	-2798
▁goat	-2799
▁invited	-2800
▁skin	-2801
▁cab	-2802
▁helps	-2803
gy	-2804
cient	-2805
▁compet	-2806
▁pil	-2807
ipe	-2808
▁painting	-2809
▁means	-2810
▁melt	-2811
▁frightened	-2812
▁accept	-2813
fast	-2814
▁pee	-2815
▁flash	-2816
▁safely	-2817
▁depend	-2818
▁buttons	-2819
▁slipped	-2820
▁design	-2821
▁stubb	-2822
▁birdie	-2823
▁jack	-2824
▁wrap	-2825
▁cabin	-2826
▁valuable	-2827
▁crayon	-2828
▁wake	-2829
▁stream	-2830
▁walls	-2831
▁happiness	-2832
ouses	-2833
▁breakfast	-2834
▁log	-2835
erry	-2836
▁ancient	-2837
edient	-2838
▁study	-2839
▁successful	-2840
▁clay	-2841
emo	-2842
orge	-2843
▁knows	-2844
▁foolish	-2845
▁Lola	-2846
▁toast	-2847
▁My	-2848
▁falls	-2849
ye	-2850
▁fridge	-2851
▁lean	-2852
▁Nemo	-2853
▁stubborn	-2854
▁unl	-2855
▁nicely	-2856
atch	-2857
apping	-2858
▁shape	-2859
omed	-2860
▁fier	-2861
▁Ge	-2862
▁cudd	-2863
▁rough	-2864
▁dreams	-2865
▁movie	-2866
▁space	-2867
▁houses	-2868
▁city	-2869
▁nosy	-2870
▁bloom	-2871
▁delicate	-2872
▁obedient	-2873
▁fierce	-2874
▁office	-2875
▁tomato	-2876
▁fat	-2877
▁grandpa	-2878
ado	-2879
az	-2880
laimed	-2881
▁icy	-2882
▁competit	-2883
▁suggested	-2884
▁shark	-2885
▁dead	-2886
▁notice	-2887
▁wagon	-2888
pes	-2889
▁exclaimed	-2890
▁mem	-2891
▁kinds	-2892
▁mixed	-2893
▁wiped	-2894
▁cher	-2895
▁useful	-2896
ext	-2897
▁poured	-2898
▁shells	-2899
uth	-2900
œLet	-2901
▁stri	-2902
▁lights	-2903
▁locked	-2904
▁sounded	-2905
▁tools	-2906
▁thu	-2907
▁stove	-2908
▁excitedly	-2909
▁explored	-2910
▁aunt	-2911
wards	-2912
▁egg	-2913
▁frag	-2914
▁rose	-2915
!".	-2916
▁son	-2917
oppy	-2918
▁shadow	-2919
▁times	-2920
▁cro	-2921
▁enc	-2922
▁bags	-2923
▁fountain	-2924
ention	-2925
oot	-2926
▁themselves	-2927
▁George	-2928
▁stumbled	-2929
▁bushes	-2930
ache	-2931
▁weal	-2932
dom	-2933
▁low	-2934
arry	-2935
▁showing	-2936
▁spoiled	-2937
rell	-2938
▁fingers	-2939
▁perform	-2940
▁lab	-2941
▁above	-2942
vice	-2943
▁thoughtful	-2944
▁resc	-2945
▁Ducky	-2946
▁independ	-2947
kn	-2948
▁smaller	-2949
▁dough	-2950
▁witch	-2951
na	-2952
▁fragile	-2953
▁dependable	-2954
▁raced	-2955
▁jog	-2956
ray	-2957
▁Whenever	-2958
arth	-2959
▁playful	-2960
inal	-2961
▁seem	-2962
▁helm	-2963
▁spinning	-2964
▁eng	-2965
▁tele	-2966
corn	-2967
▁clock	-2968
▁brightly	-2969
ines	-2970
▁print	-2971
▁rode	-2972
▁stretch	-2973
▁parrot	-2974
ormous	-2975
▁delighted	-2976
▁built	-2977
▁admired	-2978
▁law	-2979
▁enormous	-2980
▁Cl	-2981
▁Sn	-2982
▁kicked	-2983
▁roof	-2984
▁counted	-2985
▁jam	-2986
▁swe	-2987
▁rat	-2988
▁practice	-2989
reen	-2990
▁orig	-2991
▁ways	-2992
▁changed	-2993
▁shone	-2994
▁sunfl	-2995
▁cop	-2996
▁reminded	-2997
▁twig	-2998
▁acorn	-2999
ither	-3000
▁cam	-3001
ience	-3002
▁sniff	-3003
▁zip	-3004
eeze	-3005
▁hammer	-3006
▁independent	-3007
▁Your	-3008
▁Bill	-3009
▁using	-3010
▁bitter	-3011
▁handed	-3012
▁whispered	-3013
▁hoop	-3014
known	-3015
▁Toby	-3016
mbrell	-3017
▁chose	-3018
▁chir	-3019
anut	-3020
▁loll	-3021
▁jolly	-3022
▁cone	-3023
▁umbrell	-3024
▁tunn	-3025
▁solve	-3026
▁stronger	-3027
▁bees	-3028
▁serious	-3029
ipop	-3030
▁original	-3031
▁steal	-3032
▁tummy	-3033
▁beak	-3034
▁brace	-3035
▁terrible	-3036
œYes	-3037
▁mis	-3038
▁popcorn	-3039
▁fre	-3040
▁lollipop	-3041
▁painted	-3042
▁boats	-3043
▁allowed	-3044
▁hairy	-3045
ict	-3046
▁moder	-3047
iable	-3048
▁sauce	-3049
▁cleaning	-3050
▁unknown	-3051
▁leaving	-3052
▁dust	-3053
▁gasped	-3054
▁finding	-3055
▁joined	-3056
▁guard	-3057
▁salad	-3058
▁potato	-3059
het	-3060
▁bean	-3061
▁pumpkin	-3062
iew	-3063
▁picking	-3064
▁clum	-3065
inary	-3066
▁dove	-3067
anger	-3068
▁bump	-3069
▁half	-3070
▁sink	-3071
amond	-3072
▁costum	-3073
uring	-3074
▁Joey	-3075
▁yet	-3076
robe	-3077
▁metal	-3078
▁tank	-3079
▁bounce	-3080
▁reliable	-3081
▁post	-3082
▁tor	-3083
▁view	-3084
▁doesn	-3085
▁those	-3086
▁forth	-3087
aghet	-3088
aghetti	-3089
▁diamond	-3090
▁dolphin	-3091
▁advice	-3092
com	-3093
▁hay	-3094
▁barber	-3095
▁modern	-3096
pid	-3097
▁Kim	-3098
▁rubb	-3099
▁stamp	-3100
▁thinking	-3101
▁gem	-3102
▁ing	-3103
▁holds	-3104
gu	-3105
ebra	-3106
▁pirate	-3107
ugged	-3108
▁marble	-3109
▁create	-3110
How	-3111
▁regular	-3112
▁Pe	-3113
redient	-3114
▁ingredient	-3115
▁clumsy	-3116
▁sleeping	-3117
▁searching	-3118
▁stairs	-3119
▁wealthy	-3120
▁yarn	-3121
See	-3122
▁rushed	-3123
▁stupid	-3124
▁prep	-3125
ilty	-3126
▁telling	-3127
▁spaghetti	-3128
▁guilty	-3129
▁cheap	-3130
▁peanut	-3131
▁goose	-3132
▁char	-3133
œWhat	-3134
▁Ro	-3135
cu	-3136
▁rub	-3137
▁magn	-3138
ations	-3139
▁flex	-3140
▁Polly	-3141
▁compass	-3142
▁opens	-3143
▁mask	-3144
▁patch	-3145
▁stat	-3146
▁arrow	-3147
▁zebra	-3148
▁engine	-3149
▁Andy	-3150
▁Sophie	-3151
io	-3152
▁thunder	-3153
▁knock	-3154
▁square	-3155
▁Ba	-3156
illa	-3157
eezed	-3158
irsty	-3159
▁angel	-3160
▁Bear	-3161
▁cur	-3162
▁graceful	-3163
▁camera	-3164
▁umbrella	-3165
cod	-3166
▁driving	-3167
▁bull	-3168
▁crazy	-3169
▁shiver	-3170
▁washed	-3171
▁carrying	-3172
▁stage	-3173
isk	-3174
▁popular	-3175
▁beet	-3176
▁dull	-3177
umbers	-3178
œIt	-3179
▁missing	-3180
▁Alex	-3181
▁sparkled	-3182
▁friendship	-3183
▁truth	-3184
shion	-3185
▁meal	-3186
▁seeds	-3187
fa	-3188
Go	-3189
▁flexible	-3190
▁impressive	-3191
▁sne	-3192
▁tied	-3193
▁pebble	-3194
time	-3195
▁careless	-3196
▁library	-3197
▁imagined	-3198
▁comb	-3199
▁fresh	-3200
▁deliver	-3201
▁nature	-3202
▁shel	-3203
▁ending	-3204
▁destro	-3205
▁patter	-3206
▁jacket	-3207
▁persist	-3208
▁reward	-3209
▁handle	-3210
ision	-3211
▁rubbed	-3212
▁ingredients	-3213
▁dreaming	-3214
▁shocked	-3215
ric	-3216
▁prize	-3217
oomy	-3218
▁sudden	-3219
▁crocod	-3220
▁load	-3221
▁enth	-3222
ief	-3223
ibb	-3224
▁pige	-3225
▁pattern	-3226
▁compassion	-3227
▁envel	-3228
▁Next	-3229
▁flashlight	-3230
▁thirsty	-3231
▁sadly	-3232
▁encou	-3233
▁stranger	-3234
arsh	-3235
ince	-3236
▁enthus	-3237
▁wheels	-3238
▁desk	-3239
œLetâ	-3240
ement	-3241
Re	-3242
▁reading	-3243
▁wire	-3244
▁discover	-3245
▁early	-3246
▁mailbox	-3247
▁fork	-3248
▁suit	-3249
▁Charl	-3250
▁numbers	-3251
▁tem	-3252
▁peeked	-3253
▁penny	-3254
▁butterflies	-3255
awn	-3256
▁cryst	-3257
▁spilled	-3258
▁bracelet	-3259
▁torn	-3260
▁rug	-3261
▁gum	-3262
▁stops	-3263
loo	-3264
▁Paul	-3265
▁rece	-3266
▁env	-3267
▁comput	-3268
▁ahead	-3269
▁spring	-3270
bled	-3271
▁order	-3272
▁towers	-3273
comfort	-3274
▁sorts	-3275
▁object	-3276
ellig	-3277
▁wing	-3278
▁bent	-3279
▁anx	-3280
▁cere	-3281
▁surf	-3282
oe	-3283
▁pengu	-3284
▁earth	-3285
▁intellig	-3286
▁warned	-3287
▁windows	-3288
▁spoke	-3289
▁pow	-3290
▁pup	-3291
gest	-3292
▁humble	-3293
There	-3294
▁uncomfort	-3295
▁avo	-3296
▁note	-3297
▁pant	-3298
▁uncomfortable	-3299
▁placed	-3300
Yay	-3301
iches	-3302
▁sunflower	-3303
▁pale	-3304
▁travel	-3305
▁super	-3306
▁badly	-3307
▁older	-3308
▁slides	-3309
▁anxious	-3310
ikes	-3311
▁biggest	-3312
▁scale	-3313
▁compl	-3314
▁couldnâ	-3315
▁stack	-3316
▁flute	-3317
▁trap	-3318
▁statue	-3319
▁scoot	-3320
▁counting	-3321
▁growing	-3322
▁cooking	-3323
Ow	-3324
▁complet	-3325
▁liz	-3326
▁tunnel	-3327
▁beetle	-3328
▁celebrate	-3329
host	-3330
▁mel	-3331
▁cupboard	-3332
▁Here	-3333
▁mush	-3334
They	-3335
▁sofa	-3336
▁nail	-3337
▁harmless	-3338
▁scatter	-3339
▁Pat	-3340
▁beauty	-3341
▁mole	-3342
▁deaf	-3343
▁value	-3344
▁nurse	-3345
▁perm	-3346
▁er	-3347
▁shut	-3348
▁persistent	-3349
▁jumps	-3350
▁crocodile	-3351
▁hung	-3352
▁ghost	-3353
▁gifted	-3354
▁refused	-3355
▁charming	-3356
▁trick	-3357
▁Give	-3358
▁neat	-3359
▁names	-3360
▁courage	-3361
opus	-3362
▁yawn	-3363
▁flour	-3364
ctopus	-3365
▁crane	-3366
▁curt	-3367
▁pretending	-3368
cream	-3369
▁pony	-3370
▁cereal	-3371
▁base	-3372
▁sandwiches	-3373
▁Hen	-3374
ices	-3375
▁raven	-3376
▁snuggled	-3377
▁curtain	-3378
▁destroy	-3379
▁support	-3380
▁tur	-3381
▁ordinary	-3382
▁Un	-3383
▁chasing	-3384
▁univer	-3385
▁Look	-3386
aid	-3387
▁question	-3388
▁envelope	-3389
aches	-3390
▁drawer	-3391
▁triang	-3392
▁vi	-3393
▁camp	-3394
▁sett	-3395
ud	-3396
▁computer	-3397
▁octopus	-3398
▁attract	-3399
▁rules	-3400
▁crawl	-3401
▁lively	-3402
▁send	-3403
▁gloomy	-3404
▁cartoon	-3405
▁uncle	-3406
ips	-3407
▁intelligent	-3408
▁may	-3409
▁piano	-3410
▁speed	-3411
▁package	-3412
▁blueber	-3413
▁shaking	-3414
▁fu	-3415
▁helmet	-3416
▁crystal	-3417
▁needle	-3418
▁mushroom	-3419
▁turkey	-3420
▁collar	-3421
He	-3422
▁parade	-3423
▁creatures	-3424
stri	-3425
heart	-3426
œThat	-3427
▁hurry	-3428
▁twirled	-3429
▁phot	-3430
▁lizard	-3431
erable	-3432
aff	-3433
orant	-3434
ubby	-3435
▁alert	-3436
▁miserable	-3437
▁thief	-3438
gust	-3439
und	-3440
▁station	-3441
▁soldier	-3442
▁hunter	-3443
▁Grace	-3444
▁pepper	-3445
ceed	-3446
▁task	-3447
▁Will	-3448
▁anywhere	-3449
▁dug	-3450
▁disgust	-3451
▁bicy	-3452
▁fireman	-3453
▁ener	-3454
cut	-3455
▁Henry	-3456
▁carp	-3457
iest	-3458
▁Before	-3459
ses	-3460
▁wishes	-3461
▁seal	-3462
▁resist	-3463
▁led	-3464
▁vide	-3465
▁beep	-3466
▁ignorant	-3467
▁bandage	-3468
▁stickers	-3469
coa	-3470
▁Brownie	-3471
▁Charlie	-3472
▁screen	-3473
▁radio	-3474
▁bounced	-3475
▁helpless	-3476
▁Annie	-3477
tter	-3478
▁trash	-3479
Give	-3480
▁second	-3481
▁leash	-3482
▁repe	-3483
▁practiced	-3484
▁muff	-3485
▁shine	-3486
▁chance	-3487
▁letters	-3488
▁attractive	-3489
▁mill	-3490
▁impat	-3491
▁cricket	-3492
▁stirred	-3493
▁jeep	-3494
▁stretched	-3495
▁nobody	-3496
urb	-3497
▁pasta	-3498
▁thread	-3499
▁cube	-3500
▁pand	-3501
▁chubby	-3502
▁tooth	-3503
ummer	-3504
▁Sh	-3505
▁pigeon	-3506
▁jet	-3507
▁gir	-3508
▁compassionate	-3509
ccol	-3510
If	-3511
▁club	-3512
ccoli	-3513
ne	-3514
▁trump	-3515
▁disturb	-3516
orable	-3517
▁decorate	-3518
▁Tweetie	-3519
▁Jerry	-3520
▁cocoa	-3521
▁brighter	-3522
▁jug	-3523
▁impatient	-3524
▁steps	-3525
▁tire	-3526
▁competitive	-3527
arian	-3528
▁further	-3529
▁otter	-3530
▁respectful	-3531
▁succeed	-3532
▁troubled	-3533
▁pressed	-3534
olin	-3535
▁Bet	-3536
▁itself	-3537
aked	-3538
▁bet	-3539
▁ostri	-3540
noon	-3541
▁candle	-3542
▁mug	-3543
▁afternoon	-3544
▁attic	-3545
▁restless	-3546
▁starts	-3547
▁pun	-3548
▁Sandy	-3549
▁Tr	-3550
▁tap	-3551
▁somewhere	-3552
illie	-3553
▁Are	-3554
▁ribb	-3555
aurant	-3556
stic	-3557
▁dess	-3558
▁quar	-3559
▁carpet	-3560
▁anyway	-3561
▁shouts	-3562
▁shoe	-3563
▁disgusting	-3564
▁Lilly	-3565
▁adorable	-3566
▁restaurant	-3567
▁skip	-3568
▁leop	-3569
▁fort	-3570
gn	-3571
▁pants	-3572
▁vine	-3573
▁Where	-3574
▁tray	-3575
▁nuts	-3576
▁waff	-3577
▁case	-3578
come	-3579
▁gor	-3580
▁fearful	-3581
▁screw	-3582
▁envious	-3583
▁sweetheart	-3584
opter	-3585
▁cards	-3586
▁allig	-3587
icopter	-3588
iastic	-3589
▁distant	-3590
▁broccoli	-3591
▁enthusiastic	-3592
▁Danny	-3593
▁hipp	-3594
▁Mag	-3595
▁filthy	-3596
▁Lee	-3597
▁giggle	-3598
▁exper	-3599
▁trumpet	-3600
▁cooked	-3601
▁helicopter	-3602
▁monkeys	-3603
▁Everything	-3604
night	-3605
▁reco	-3606
▁por	-3607
irit	-3608
▁sandbox	-3609
aroo	-3610
angaroo	-3611
▁hook	-3612
▁harsh	-3613
▁Would	-3614
▁bri	-3615
▁admire	-3616
▁nowhere	-3617
▁ten	-3618
▁backpack	-3619
gging	-3620
▁soar	-3621
▁sent	-3622
▁belt	-3623
▁batht	-3624
gie	-3625
▁explain	-3626
▁scooter	-3627
▁ants	-3628
▁Snow	-3629
▁meas	-3630
opl	-3631
▁poem	-3632
eropl	-3633
▁country	-3634
cycle	-3635
▁bathtub	-3636
▁pipe	-3637
▁aeropl	-3638
▁barking	-3639
▁quite	-3640
▁unpack	-3641
stairs	-3642
par	-3643
▁cows	-3644
▁speak	-3645
▁kangaroo	-3646
▁lid	-3647
nna	-3648
▁squash	-3649
▁Maria	-3650
▁leopard	-3651
▁mama	-3652
▁happier	-3653
▁spell	-3654
▁repair	-3655
▁Red	-3656
▁listening	-3657
▁bicycle	-3658
▁separ	-3659
▁Jess	-3660
imi	-3661
▁Sm	-3662
▁Pap	-3663
▁summer	-3664
▁stared	-3665
▁grabs	-3666
▁message	-3667
▁breat	-3668
▁Millie	-3669
uct	-3670
▁didnâ	-3671
▁ostrich	-3672
▁firework	-3673
▁human	-3674
▁loop	-3675
▁given	-3676
▁Kate	-3677
▁comet	-3678
▁mule	-3679
hood	-3680
▁Baby	-3681
▁sort	-3682
▁impro	-3683
▁Bunny	-3684
▁gorilla	-3685
▁modest	-3686
▁paid	-3687
▁finds	-3688
year	-3689
▁yogurt	-3690
▁dessert	-3691
▁meat	-3692
▁obser	-3693
▁violin	-3694
▁ur	-3695
Bye	-3696
▁hedge	-3697
ipping	-3698
▁spirit	-3699
▁Ted	-3700
▁pulls	-3701
▁tripped	-3702
▁melon	-3703
▁jellyfish	-3704
▁split	-3705
▁Papa	-3706
▁paws	-3707
▁alligator	-3708
▁fle	-3709
▁rescue	-3710
▁size	-3711
▁holes	-3712
▁prov	-3713
ucked	-3714
▁Harry	-3715
▁roared	-3716
▁five	-3717
▁forgave	-3718
▁Mimi	-3719
▁cats	-3720
▁wheat	-3721
▁purse	-3722
▁recogn	-3723
▁hippo	-3724
▁pilot	-3725
▁hall	-3726
▁tax	-3727
▁sheet	-3728
▁pal	-3729
▁cact	-3730
▁inse	-3731
▁pushing	-3732
ophone	-3733
▁bikes	-3734
▁organize	-3735
ci	-3736
▁swinging	-3737
▁sle	-3738
▁raft	-3739
▁salt	-3740
▁scold	-3741
▁starting	-3742
▁shade	-3743
▁behave	-3744
▁bin	-3745
▁lightning	-3746
▁oat	-3747
▁rice	-3748
▁haircut	-3749
▁Buddy	-3750
▁brus	-3751
▁triangle	-3752
eer	-3753
▁buzz	-3754
▁Ros	-3755
▁energy	-3756
iskers	-3757
œYou	-3758
▁bur	-3759
▁knot	-3760
▁frowned	-3761
bul	-3762
▁lear	-3763
aled	-3764
▁learnt	-3765
▁either	-3766
▁porch	-3767
▁math	-3768
▁riding	-3769
▁ped	-3770
▁lip	-3771
lcano	-3772
seum	-3773
▁trains	-3774
Anna	-3775
ebook	-3776
▁ended	-3777
▁notebook	-3778
▁sticker	-3779
iling	-3780
inking	-3781
▁lend	-3782
▁wallet	-3783
▁luck	-3784
▁evening	-3785
reci	-3786
▁panda	-3787
▁cactus	-3788
▁Whiskers	-3789
▁jokes	-3790
▁chalk	-3791
▁bananas	-3792
▁papers	-3793
▁rod	-3794
▁museum	-3795
▁sweater	-3796
▁appreci	-3797
▁lions	-3798
▁palace	-3799
▁Ru	-3800
▁taxi	-3801
▁volcano	-3802
ube	-3803
▁shopkeeper	-3804
▁chain	-3805
▁strawberry	-3806
▁bears	-3807
▁rolling	-3808
▁boots	-3809
▁eras	-3810
▁hadn	-3811
astic	-3812
▁neighbour	-3813
▁barrel	-3814
▁shakes	-3815
ffe	-3816
▁micr	-3817
▁Tony	-3818
TMm	-3819
icer	-3820
ffee	-3821
ooped	-3822
▁silver	-3823
urch	-3824
▁laund	-3825
▁alive	-3826
▁smells	-3827
▁mild	-3828
play	-3829
▁reind	-3830
▁sock	-3831
▁laundry	-3832
▁steak	-3833
▁avoc	-3834
▁ink	-3835
▁pole	-3836
▁strugg	-3837
iron	-3838
▁pushes	-3839
▁putting	-3840
▁visited	-3841
▁goal	-3842
▁softly	-3843
▁magnet	-3844
▁judge	-3845
edy	-3846
▁James	-3847
▁tricks	-3848
▁drawings	-3849
▁microphone	-3850
▁clapping	-3851
▁pad	-3852
▁ol	-3853
▁hive	-3854
▁shield	-3855
▁tube	-3856
▁leaned	-3857
▁colours	-3858
▁sailor	-3859
▁shovel	-3860
▁airport	-3861
▁zoomed	-3862
▁falling	-3863
▁rag	-3864
▁belongs	-3865
▁shelter	-3866
▁Bun	-3867
▁unlock	-3868
▁sprink	-3869
▁Inst	-3870
▁checked	-3871
elery	-3872
▁insist	-3873
▁penguin	-3874
▁quarrel	-3875
happy	-3876
▁ambul	-3877
▁climbing	-3878
▁marched	-3879
▁gro	-3880
▁display	-3881
▁reindeer	-3882
cast	-3883
hino	-3884
▁saus	-3885
ense	-3886
▁aeroplane	-3887
▁dive	-3888
▁dishes	-3889
ophy	-3890
▁Kat	-3891
▁polish	-3892
▁barks	-3893
ges	-3894
▁avail	-3895
▁Maggie	-3896
▁donâ	-3897
▁fields	-3898
▁grapes	-3899
▁sandcast	-3900
▁ambulance	-3901
▁peek	-3902
▁Or	-3903
ait	-3904
▁apologized	-3905
▁soil	-3906
▁yach	-3907
▁coffee	-3908
▁skill	-3909
sely	-3910
▁costume	-3911
▁elev	-3912
▁oy	-3913
▁trophy	-3914
▁feelings	-3915
▁planet	-3916
▁hoping	-3917
anic	-3918
▁film	-3919
▁prun	-3920
▁art	-3921
▁rubber	-3922
▁unhappy	-3923
ron	-3924
▁drops	-3925
▁shrimp	-3926
nger	-3927
▁medal	-3928
€“	-3929
▁kitty	-3930
▁thanks	-3931
▁raining	-3932
▁men	-3933
chanic	-3934
▁stom	-3935
▁minute	-3936
▁elevator	-3937
▁celery	-3938
▁cord	-3939
▁onion	-3940
▁rhino	-3941
▁available	-3942
ected	-3943
▁eraser	-3944
▁incl	-3945
▁page	-3946
▁short	-3947
▁yacht	-3948
reeze	-3949
▁fisher	-3950
▁shouldn	-3951
▁perfectly	-3952
▁imagine	-3953
▁wool	-3954
▁marry	-3955
▁winter	-3956
▁basketball	-3957
▁mechanic	-3958
▁diary	-3959
nam	-3960
▁bul	-3961
▁herb	-3962
▁flies	-3963
▁complete	-3964
▁rever	-3965
▁appl	-3966
▁Ab	-3967
▁closely	-3968
aused	-3969
▁cardboard	-3970
▁insect	-3971
▁magaz	-3972
▁eagerly	-3973
▁player	-3974
▁journal	-3975
▁Smith	-3976
Ha	-3977
enny	-3978
▁vend	-3979
▁baking	-3980
▁quit	-3981
▁furn	-3982
▁glove	-3983
iture	-3984
▁Clara	-3985
▁disag	-3986
▁furniture	-3987
▁stuffed	-3988
▁tub	-3989
▁Jul	-3990
▁breaks	-3991
▁bulb	-3992
▁imagination	-3993
▁treasures	-3994
▁Miss	-3995
▁church	-3996
gen	-3997
ecause	-3998
▁counter	-3999
▁wife	-4000
▁headed	-4001
▁cooler	-4002
any	-4003
azz	-4004
▁pair	-4005
▁freez	-4006
▁frogs	-4007
▁tut	-4008
quit	-4009
▁skull	-4010
mand	-4011
ories	-4012
▁pit	-4013
▁knob	-4014
ween	-4015
▁factor	-4016
▁switch	-4017
▁football	-4018
place	-4019
▁offer	-4020
ides	-4021
▁sunset	-4022
▁between	-4023
▁lie	-4024
▁Instead	-4025
ifl	-4026
aulifl	-4027
▁cheek	-4028
▁sym	-4029
▁swung	-4030
▁factory	-4031
▁cups	-4032
▁motorcycle	-4033
Dad	-4034
pe	-4035
▁chirp	-4036
right	-4037
▁mos	-4038
quito	-4039
▁flame	-4040
..	-4041
▁twink	-4042
▁shouting	-4043
nament	-4044
▁painter	-4045
▁golf	-4046
▁peach	-4047
▁ornament	-4048
kelet	-4049
▁blowing	-4050
▁hut	-4051
affe	-4052
▁sung	-4053
▁hotel	-4054
▁seeing	-4055
▁folder	-4056
▁caulifl	-4057
▁vendor	-4058
ccer	-4059
lass	-4060
▁video	-4061
▁mixer	-4062
izes	-4063
bol	-4064
▁throws	-4065
▁pirates	-4066
▁created	-4067
orses	-4068
▁heads	-4069
▁oil	-4070
▁kay	-4071
▁May	-4072
▁frame	-4073
▁mosquito	-4074
angu	-4075
mm	-4076
▁cushion	-4077
▁soccer	-4078
▁fisherman	-4079
▁coal	-4080
zzy	-4081
▁symbol	-4082
▁horses	-4083
▁cable	-4084
ceros	-4085
▁popped	-4086
▁langu	-4087
▁wipe	-4088
ab	-4089
▁Ste	-4090
▁pine	-4091
▁attention	-4092
▁skelet	-4093
▁battery	-4094
▁powder	-4095
▁cauliflower	-4096
▁stud	-4097
▁laser	-4098
▁God	-4099
render	-4100
▁forgotten	-4101
▁weather	-4102
rod	-4103
▁lives	-4104
▁mop	-4105
▁fishing	-4106
▁celebrated	-4107
▁ax	-4108
▁rot	-4109
▁since	-4110
▁trail	-4111
▁Iâ	-4112
elcome	-4113
aws	-4114
▁maze	-4115
ef	-4116
▁photo	-4117
ites	-4118
▁yoga	-4119
▁surround	-4120
▁waving	-4121
▁slept	-4122
▁sneak	-4123
▁anch	-4124
▁dear	-4125
unately	-4126
▁giraffe	-4127
▁introd	-4128
▁rhinoceros	-4129
▁poke	-4130
▁swamp	-4131
ple	-4132
▁flea	-4133
▁points	-4134
▁Rosie	-4135
▁itch	-4136
▁point	-4137
▁glowing	-4138
▁itâ	-4139
▁fireplace	-4140
▁breeze	-4141
ney	-4142
▁True	-4143
lasses	-4144
▁sub	-4145
▁vet	-4146
▁sunglasses	-4147
Your	-4148
▁kingdom	-4149
▁memories	-4150
▁tutor	-4151
▁streng	-4152
▁tuna	-4153
▁iron	-4154
Max	-4155
▁reve	-4156
▁vest	-4157
▁Tina	-4158
spap	-4159
▁petals	-4160
▁fog	-4161
▁axe	-4162
▁mistakes	-4163
▁complain	-4164
▁baseball	-4165
▁dancer	-4166
▁chickens	-4167
▁parent	-4168
▁ig	-4169
hero	-4170
▁newspap	-4171
▁strength	-4172
▁greedy	-4173
▁ceiling	-4174
ckey	-4175
▁squirrels	-4176
▁hockey	-4177
▁igloo	-4178
▁sir	-4179
▁grin	-4180
chie	-4181
▁anchor	-4182
▁skeleton	-4183
rosc	-4184
▁sniffed	-4185
▁grocer	-4186
▁superhero	-4187
▁argue	-4188
▁napkin	-4189
▁golden	-4190
ues	-4191
▁hanging	-4192
▁trave	-4193
▁musician	-4194
medi	-4195
▁skirt	-4196
roscope	-4197
▁staff	-4198
▁temple	-4199
▁unif	-4200
▁agree	-4201
▁sque	-4202
▁bury	-4203
mediately	-4204
▁theater	-4205
▁discu	-4206
▁uniform	-4207
▁eaten	-4208
▁slipper	-4209
▁welcomed	-4210
▁seas	-4211
▁shoulder	-4212
▁zipper	-4213
▁quietly	-4214
▁meeting	-4215
ssible	-4216
▁lime	-4217
▁invest	-4218
istol	-4219
▁microscope	-4220
sing	-4221
oh	-4222
▁pinch	-4223
chair	-4224
▁flapped	-4225
▁slippery	-4226
▁accepted	-4227
▁fought	-4228
▁investig	-4229
erc	-4230
▁pistol	-4231
▁doors	-4232
▁miner	-4233
reek	-4234
▁radish	-4235
▁plastic	-4236
▁throwing	-4237
▁calls	-4238
▁bouncing	-4239
tress	-4240
▁mattress	-4241
men	-4242
▁surrender	-4243
aces	-4244
▁cob	-4245
▁pear	-4246
▁creek	-4247
▁kayak	-4248
▁vroom	-4249
house	-4250
tain	-4251
▁moves	-4252
▁sticky	-4253
Qu	-4254
▁lawy	-4255
▁novel	-4256
Wait	-4257
alley	-4258
▁cub	-4259
▁avocado	-4260
▁cared	-4261
▁suff	-4262
▁freezer	-4263
▁lotion	-4264
aud	-4265
case	-4266
ison	-4267
▁First	-4268
te	-4269
ler	-4270
was	-4271
▁fauc	-4272
▁armchair	-4273
▁writing	-4274
inked	-4275
▁reef	-4276
▁makeup	-4277
Timmy	-4278
▁mystery	-4279
▁valley	-4280
web	-4281
▁tug	-4282
▁investigate	-4283
▁news	-4284
▁sailing	-4285
▁cherries	-4286
▁regret	-4287
▁crib	-4288
llie	-4289
washer	-4290
imney	-4291
▁exerc	-4292
▁oyster	-4293
▁faucet	-4294
▁agre	-4295
▁splashing	-4296
▁ticket	-4297
▁collected	-4298
▁worth	-4299
▁chimney	-4300
▁toil	-4301
▁presents	-4302
▁dishwasher	-4303
▁magazine	-4304
▁happens	-4305
▁sprayed	-4306
▁wags	-4307
œItâ	-4308
▁prevent	-4309
▁cobweb	-4310
▁quack	-4311
▁veil	-4312
▁castles	-4313
▁entered	-4314
▁tear	-4315
▁shrugged	-4316
▁Freddy	-4317
▁har	-4318
▁passport	-4319
▁applaud	-4320
▁chess	-4321
▁separate	-4322
▁scolded	-4323
Thanks	-4324
▁weigh	-4325
▁toilet	-4326
▁alarm	-4327
ives	-4328
▁See	-4329
▁blankets	-4330
▁rake	-4331
▁ignored	-4332
▁tucked	-4333
▁lawyer	-4334
▁choice	-4335
ived	-4336
▁hopes	-4337
▁coats	-4338
▁attach	-4339
sit	-4340
▁candles	-4341
▁kisses	-4342
▁follows	-4343
▁appro	-4344
▁classroom	-4345
ring	-4346
▁puddles	-4347
▁easily	-4348
▁Me	-4349
▁apart	-4350
ety	-4351
▁disappear	-4352
▁Sad	-4353
▁beef	-4354
▁chairs	-4355
▁burned	-4356
▁bother	-4357
▁Milly	-4358
▁letting	-4359
▁straight	-4360
eterin	-4361
eterinarian	-4362
▁yield	-4363
▁ward	-4364
▁dressed	-4365
▁cane	-4366
▁trusted	-4367
▁language	-4368
▁sizes	-4369
▁veterinarian	-4370
▁raz	-4371
▁teleph	-4372
raged	-4373
▁caring	-4374
▁planes	-4375
▁wardrobe	-4376
▁jewelry	-4377
atched	-4378
▁blinked	-4379
Sam	-4380
iday	-4381
▁shower	-4382
▁rise	-4383
▁missile	-4384
▁keeping	-4385
▁lawn	-4386
▁requ	-4387
▁stable	-4388
▁cabinet	-4389
▁crossed	-4390
▁oak	-4391
▁ble	-4392
▁However	-4393
▁bookshe	-4394
vision	-4395
▁stro	-4396
▁telephone	-4397
▁newspaper	-4398
mend	-4399
▁claws	-4400
▁rooms	-4401
▁whisper	-4402
▁sigh	-4403
▁puzzles	-4404
▁aut	-4405
▁trade	-4406
▁incre	-4407
ival	-4408
▁cell	-4409
▁tornado	-4410
▁scratch	-4411
una	-4412
anges	-4413
▁Ruby	-4414
▁bookcase	-4415
▁inf	-4416
ampoo	-4417
▁blueberries	-4418
▁snap	-4419
▁amazement	-4420
▁perfu	-4421
ction	-4422
ommend	-4423
▁squeezed	-4424
▁bookshelf	-4425
▁recommend	-4426
▁opera	-4427
▁subway	-4428
▁pra	-4429
▁gym	-4430
▁delay	-4431
▁grill	-4432
▁Help	-4433
▁razor	-4434
▁blouse	-4435
▁request	-4436
▁crawling	-4437
▁pur	-4438
▁poked	-4439
€.	-4440
▁television	-4441
▁bill	-4442
▁hol	-4443
ggy	-4444
▁following	-4445
omes	-4446
iction	-4447
▁shampoo	-4448
▁file	-4449
▁licks	-4450
Sara	-4451
▁spear	-4452
▁squeeze	-4453
▁holiday	-4454
Because	-4455
And	-4456
▁experience	-4457
▁lumber	-4458
▁Is	-4459
▁improve	-4460
▁mint	-4461
▁perfume	-4462
▁serve	-4463
▁demand	-4464
▁steam	-4465
▁cliff	-4466
▁ringing	-4467
▁crow	-4468
ictionary	-4469
fortunately	-4470
ah	-4471
bbie	-4472
▁ribbon	-4473
▁immediately	-4474
▁helper	-4475
▁Fo	-4476
▁muffin	-4477
▁fest	-4478
▁growled	-4479
▁isn	-4480
▁begged	-4481
▁dictionary	-4482
▁shrink	-4483
▁matches	-4484
▁waste	-4485
▁blood	-4486
▁birdc	-4487
▁Snowy	-4488
▁prop	-4489
▁ideas	-4490
▁warmth	-4491
▁Katie	-4492
ib	-4493
▁mustache	-4494
▁sneeze	-4495
▁invite	-4496
▁People	-4497
hic	-4498
▁gear	-4499
▁birdcage	-4500
▁vehic	-4501
▁fuel	-4502
ups	-4503
▁alright	-4504
alend	-4505
▁Luck	-4506
▁rabbits	-4507
asis	-4508
▁calend	-4509
▁ignore	-4510
▁weep	-4511
▁yucky	-4512
▁flutter	-4513
▁instr	-4514
▁Luckily	-4515
▁fallen	-4516
▁married	-4517
▁berry	-4518
▁Each	-4519
lier	-4520
▁rail	-4521
▁row	-4522
▁pastry	-4523
▁refre	-4524
ucture	-4525
Did	-4526
▁worms	-4527
▁structure	-4528
▁laught	-4529
▁Liz	-4530
▁surprises	-4531
▁below	-4532
▁bravely	-4533
▁calendar	-4534
▁oasis	-4535
▁wandered	-4536
▁wigg	-4537
▁kneel	-4538
ising	-4539
▁dire	-4540
▁understanding	-4541
▁hurting	-4542
▁laughter	-4543
omeday	-4544
▁drain	-4545
▁pages	-4546
▁float	-4547
▁hearts	-4548
▁enter	-4549
Ok	-4550
▁Ollie	-4551
▁airpl	-4552
inky	-4553
▁item	-4554
▁King	-4555
omob	-4556
▁harb	-4557
▁reaches	-4558
▁apron	-4559
▁safety	-4560
Is	-4561
▁crash	-4562
▁automob	-4563
▁bathe	-4564
▁buried	-4565
œNo	-4566
▁junk	-4567
▁buckle	-4568
▁admir	-4569
▁root	-4570
▁captain	-4571
▁strawberries	-4572
achel	-4573
▁myself	-4574
▁relaxed	-4575
▁sandcastle	-4576
oral	-4577
▁skills	-4578
▁plates	-4579
Welcome	-4580
▁whip	-4581
▁Who	-4582
▁spade	-4583
▁moments	-4584
▁reverse	-4585
htray	-4586
▁Joy	-4587
▁Steve	-4588
icing	-4589
▁quiz	-4590
▁Rachel	-4591
▁ashtray	-4592
▁festival	-4593
TMre	-4594
▁Co	-4595
▁beamed	-4596
'.	-4597
▁snapped	-4598
riger	-4599
ores	-4600
▁someday	-4601
cakes	-4602
▁refriger	-4603
▁raise	-4604
▁Everyday	-4605
▁received	-4606
Yuck	-4607
▁refrigerator	-4608
▁earlier	-4609
▁tong	-4610
ari	-4611
▁lic	-4612
▁weap	-4613
▁vac	-4614
▁Betsy	-4615
▁teaching	-4616
▁mass	-4617
▁harbor	-4618
▁model	-4619
▁Its	-4620
▁sparkling	-4621
▁spots	-4622
aped	-4623
▁insisted	-4624
▁saving	-4625
▁vanished	-4626
▁socks	-4627
▁bumped	-4628
▁Buzz	-4629
▁thumb	-4630
anna	-4631
▁dried	-4632
▁supply	-4633
ission	-4634
▁Poppy	-4635
▁blackboard	-4636
igail	-4637
▁prepare	-4638
TMll	-4639
▁jail	-4640
▁jewels	-4641
▁Penny	-4642
▁spending	-4643
xy	-4644
▁balan	-4645
▁scattered	-4646
▁toes	-4647
▁scooped	-4648
▁settled	-4649
▁permission	-4650
▁V	-4651
▁sparkle	-4652
▁Frank	-4653
▁known	-4654
ctly	-4655
▁breathe	-4656
▁boot	-4657
nce	-4658
▁yawned	-4659
▁res	-4660
amber	-4661
▁achie	-4662
▁destroyed	-4663
▁bathrobe	-4664
▁Abigail	-4665
▁tease	-4666
▁remain	-4667
▁hardly	-4668
▁encouraged	-4669
▁replace	-4670
▁waffle	-4671
antly	-4672
▁pride	-4673
▁lemonade	-4674
▁dare	-4675
▁hanger	-4676
▁Have	-4677
▁sits	-4678
▁pulling	-4679
▁decorations	-4680
ops	-4681
sters	-4682
▁remove	-4683
▁cuddled	-4684
▁hate	-4685
▁Dav	-4686
▁daisy	-4687
▁license	-4688
uch	-4689
▁beans	-4690
▁simp	-4691
▁port	-4692
▁respons	-4693
▁praised	-4694
reat	-4695
▁chirping	-4696
▁hits	-4697
ents	-4698
asp	-4699
▁equ	-4700
▁fastest	-4701
▁suffer	-4702
xture	-4703
▁buzzing	-4704
▁patiently	-4705
▁dresses	-4706
▁mention	-4707
▁David	-4708
▁bleed	-4709
sity	-4710
▁rhy	-4711
▁automobile	-4712
nies	-4713
▁wiz	-4714
▁appreciate	-4715
▁poppy	-4716
▁destination	-4717
▁taller	-4718
▁mall	-4719
osed	-4720
▁homes	-4721
▁nation	-4722
ium	-4723
▁digg	-4724
▁flav	-4725
▁guy	-4726
▁climbs	-4727
▁washing	-4728
▁palm	-4729
▁glo	-4730
▁shot	-4731
▁label	-4732
▁digging	-4733
▁believed	-4734
▁approached	-4735
▁hesit	-4736
fied	-4737
▁none	-4738
▁tore	-4739
▁Mat	-4740
Mmm	-4741
▁deeper	-4742
▁wine	-4743
▁infant	-4744
ude	-4745
▁restore	-4746
▁score	-4747
▁hers	-4748
▁mitten	-4749
▁chamber	-4750
▁sausage	-4751
rm	-4752
▁struggling	-4753
▁heat	-4754
▁tongue	-4755
▁hills	-4756
▁hurric	-4757
▁punish	-4758
▁pillows	-4759
▁billboard	-4760
▁sneezed	-4761
▁sport	-4762
▁wizard	-4763
▁upstairs	-4764
▁thrilled	-4765
▁provide	-4766
▁brain	-4767
▁awe	-4768
▁discuss	-4769
▁panic	-4770
▁warning	-4771
▁twisted	-4772
▁glowed	-4773
▁universe	-4774
▁firef	-4775
▁therm	-4776
▁vacation	-4777
▁worse	-4778
▁crunch	-4779
▁poison	-4780
▁shed	-4781
▁solved	-4782
▁parts	-4783
osity	-4784
▁Spike	-4785
bey	-4786
▁event	-4787
▁setting	-4788
allen	-4789
▁tour	-4790
▁remained	-4791
▁airplane	-4792
▁hurricane	-4793
▁thermomet	-4794
▁plays	-4795
▁examine	-4796
▁sparkles	-4797
▁shooting	-4798
▁invit	-4799
▁neighborhood	-4800
▁sty	-4801
▁chores	-4802
▁oranges	-4803
▁floated	-4804
▁ranch	-4805
▁challen	-4806
thm	-4807
▁weeks	-4808
▁leak	-4809
▁university	-4810
ging	-4811
shing	-4812
▁paints	-4813
▁thermometer	-4814
▁bites	-4815
▁repeat	-4816
▁bang	-4817
adium	-4818
▁floating	-4819
▁fixing	-4820
▁measured	-4821
▁stadium	-4822
▁grinned	-4823
!'	-4824
These	-4825
!",	-4826
▁during	-4827
▁surrounded	-4828
▁supposed	-4829
aspoon	-4830
▁Cat	-4831
▁conf	-4832
▁rhythm	-4833
▁massage	-4834
▁brings	-4835
▁cherry	-4836
▁paused	-4837
▁gifts	-4838
▁fut	-4839
▁sprinkles	-4840
▁fasc	-4841
▁future	-4842
▁memory	-4843
▁Unfortunately	-4844
œIâ	-4845
▁teaspoon	-4846
▁grey	-4847
rise	-4848
▁collection	-4849
▁signs	-4850
▁marbles	-4851
bbles	-4852
▁jazz	-4853
▁stomach	-4854
▁	-4855
e	-4856
a	-4857
t	-4858
o	-4859
h	-4860
n	-4861
i	-4862
d	-4863
s	-4864
r	-4865
l	-4866
y	-4867
m	-4868
w	-4869
.	-4870
u	-4871
g	-4872
c	-4873
p	-4874
f	-4875
b	-4876
k	-4877
,	-4878
T	-4879
v	-4880
"	-4881
S	-4882
H	-4883
'	-4884
I	-4885
L	-4886
O	-4887
!	-4888
B	-4889
M	-4890
x	-4891
A	-4892
W	-4893
j	-4894
J	-4895
?	-4896
Y	-4897
z	-4898
D	-4899
â	-4900
€	-4901
E	-4902
F	-4903
q	-4904
C	-4905
N	-4906
G	-4907
P	-4908
-	-4909
œ	-4910
R	-4911
K	-4912
:	-4913
3	-4914
V	-4915
Z	-4916
U	-4917
;	-4918
Q	-4919
“	-4920
1	-4921
”	-4922
0	-4923
̃	-4924
2	-4925
X	-4926
5	-4927
4	-4928
¦	-4929
Ã	-4930
9	-4931
/	-4932
`	-4933
©	-4934
8	-4935
6	-4936
7	-4937
)	-4938
Â	-4939
(	-4940
$	-4941
*	-4942
_	-4943
­	-4944
\	-4945
́	-4946
&	-4947
+	-4948
±	-4949
‹	-4950
=	-4951
¢	-4952
Š	-4953
‚	-4954
<	-4955
>	-4956
]	-4957
[	-4958
¬	-4959
#	-4960
‰	-4961
¿	-4962
%	-4963
å	-4964
ï	-4965
ç	-4966
Ä	-4967
¡	-4968
„	-4969
»	-4970
⁄	-4971
á	-4972
Ž	-4973
̈	-4974
~	-4975
ˆ	-4976
ä	-4977
è	-4978
’	-4979
Å	-4980
æ	-4981
Œ	-4982
ð	-4983
Ÿ	-4984
£	-4985
̄	-4986
•	-4987
«	-4988
ž	-4989
‡	-4990
§	-4991
ã	-4992
–	-4993
¥	-4994
°	-4995
·	-4996
