{
  "version": "1.0",
  "truncation": null,
  "padding": null,
  "added_tokens": [
    {
      "id": 0,
      "content": "[UNK]",
      "single_word": false,
      "lstrip": false,
      "rstrip": false,
      "normalized": false,
      "special": true
    },
    {
      "id": 1,
      "content": "[PAD]",
      "single_word": false,
      "lstrip": false,
      "rstrip": false,
      "normalized": false,
      "special": true
    },
    {
      "id": 2,
      "content": "[BOS]",
      "single_word": false,
      "lstrip": false,
      "rstrip": false,
      "normalized": false,
      "special": true
    },
    {
      "id": 3,
      "content": "[EOS]",
      "single_word": false,
      "lstrip": false,
      "rstrip": false,
      "normalized": false,
      "special": true
    }
  ],
  "normalizer": {
    "type": "Sequence",
    "normalizers": [
      {
        "type": "Lowercase"
      }
    ]
  },
  "pre_tokenizer": {
    "type": "Whitespace"
  },
  "post_processor": null,
  "decoder": null,
  "model": {
    "type": "BPE",
    "dropout": null,
    "unk_token": "[UNK]",
    "continuing_subword_prefix": null,
    "end_of_word_suffix": null,
    "fuse_unk": false,
    "byte_fallback": false,
    "ignore_merges": false,
    "vocab": {
      "[UNK]": 0,
      "[PAD]": 1,
      "[BOS]": 2,
      "[EOS]": 3,
      "!": 4,
      "\"": 5,
      "#": 6,
      "$": 7,
      "%": 8,
      "&": 9,
      "'": 10,
      "(": 11,
      ")": 12,
      "*": 13,
      "+": 14,
      ",": 15,
      "-": 16,
      ".": 17,
      "/": 18,
      "0": 19,
      "1": 20,
      "2": 21,
      "3": 22,
      "4": 23,
      "5": 24,
      "6": 25,
      "7": 26,
      "8": 27,
      "9": 28,
      ":": 29,
      ";": 30,
      "<": 31,
      "=": 32,
      ">": 33,
      "?": 34,
      "[": 35,
      "]": 36,
      "_": 37,
      "`": 38,
      "a": 39,
      "b": 40,
      "c": 41,
      "d": 42,
      "e": 43,
      "f": 44,
      "g": 45,
      "h": 46,
      "i": 47,
      "j": 48,
      "k": 49,
      "l": 50,
      "m": 51,
      "n": 52,
      "o": 53,
      "p": 54,
      "q": 55,
      "r": 56,
      "s": 57,
      "t": 58,
      "u": 59,
      "v": 60,
      "w": 61,
      "x": 62,
      "y": 63,
      "z": 64,
      "{": 65,
      "}": 66,
      "~": 67,
      "": 68,
      "£": 69,
      "«": 70,
      "°": 71,
      "º": 72,
      "»": 73,
      "à": 74,
      "á": 75,
      "â": 76,
      "ã": 77,
      "ä": 78,
      "æ": 79,
      "ç": 80,
      "è": 81,
      "é": 82,
      "ê": 83,
      "ë": 84,
      "ì": 85,
      "î": 86,
      "ï": 87,
      "ñ": 88,
      "ò": 89,
      "ô": 90,
      "ö": 91,
      "ù": 92,
      "û": 93,
      "ü": 94,
      "œ": 95,
      "έ": 96,
      "ί": 97,
      "α": 98,
      "β": 99,
      "γ": 100,
      "ε": 101,
      "ι": 102,
      "κ": 103,
      "λ": 104,
      "μ": 105,
      "ν": 106,
      "ο": 107,
      "τ": 108,
      "φ": 109,
      "ϊ": 110,
      "ό": 111,
      "а": 112,
      "г": 113,
      "н": 114,
      "–": 115,
      "—": 116,
      "‘": 117,
      "’": 118,
      "“": 119,
      "”": 120,
      "…": 121,
      "−": 122,
      "he": 123,
      "re": 124,
      "an": 125,
      "ou": 126,
      "en": 127,
      "in": 128,
      "le": 129,
      "on": 130,
      "it": 131,
      "de": 132,
      "the": 133,
      "is": 134,
      "er": 135,
      "ar": 136,
      "qu": 137,
      "es": 138,
      "at": 139,
      "as": 140,
      "il": 141,
      "or": 142,
      "et": 143,
      "la": 144,
      "se": 145,
      "ent": 146,
      "to": 147,
      "and": 148,
      "me": 149,
      "th": 150,
      "un": 151,
      "of": 152,
      "ce": 153,
      "ait": 154,
      "al": 155,
      "ing": 156,
      "te": 157,
      "av": 158,
      "ur": 159,
      "om": 160,
      "ch": 161,
      "au": 162,
      "ai": 163,
      "el": 164,
      "our": 165,
      "ed": 166,
      "st": 167,
      "les": 168,
      "ma": 169,
      "ri": 170,
      "ne": 171,
      "si": 172,
      "que": 173,
      "ro": 174,
      "ous": 175,
      "ant": 176,
      "no": 177,
      "ad": 178,
      "ir": 179,
      "li": 180,
      "be": 181,
      "us": 182,
      "hi": 183,
      "ut": 184,
      "je": 185,
      "ét": 186,
      "ion": 187,
      "res": 188,
      "par": 189,
      "ver": 190,
      "con": 191,
      "ap": 192,
      "was": 193,
      "ab": 194,
      "for": 195,
      "ag": 196,
      "that": 197,
      "mo": 198,
      "out": 199,
      "ment": 200,
      "une": 201,
      "lo": 202,
      "ans": 203,
      "ave": 204,
      "so": 205,
      "sa": 206,
      "com": 207,
      "des": 208,
      "che": 209,
      "pr": 210,
      "ly": 211,
      "pas": 212,
      "tr": 213,
      "ter": 214,
      "du": 215,
      "di": 216,
      "am": 217,
      "tre": 218,
      "gh": 219,
      "po": 220,
      "ld": 221,
      "pe": 222,
      "his": 223,
      "ith": 224,
      "ho": 225,
      "with": 226,
      "su": 227,
      "we": 228,
      "ve": 229,
      "elle": 230,
      "qui": 231,
      "est": 232,
      "ac": 233,
      "you": 234,
      "lu": 235,
      "ais": 236,
      "had": 237,
      "vo": 238,
      "co": 239,
      "ain": 240,
      "her": 241,
      "ie": 242,
      "ren": 243,
      "son": 244,
      "mon": 245,
      "--": 246,
      "vous": 247,
      "fr": 248,
      "all": 249,
      "ay": 250,
      "pl": 251,
      "not": 252,
      "dans": 253,
      "pour": 254,
      "my": 255,
      "dé": 256,
      "ux": 257,
      "ould": 258,
      "end": 259,
      "ght": 260,
      "ti": 261,
      "fe": 262,
      "sur": 263,
      "ex": 264,
      "ard": 265,
      "him": 266,
      "mais": 267,
      "ré": 268,
      "whi": 269,
      "do": 270,
      "était": 271,
      "ge": 272,
      "fi": 273,
      "she": 274,
      "ure": 275,
      "aient": 276,
      "mp": 277,
      "but": 278,
      "ill": 279,
      "man": 280,
      "fo": 281,
      "gr": 282,
      "ci": 283,
      "ser": 284,
      "lui": 285,
      "which": 286,
      "per": 287,
      "dit": 288,
      "red": 289,
      "one": 290,
      "ke": 291,
      "ée": 292,
      "go": 293,
      "der": 294,
      "this": 295,
      "up": 296,
      "ses": 297,
      "ation": 298,
      "dis": 299,
      "ces": 300,
      "ille": 301,
      "avait": 302,
      "ther": 303,
      "ul": 304,
      ".\"": 305,
      "vi": 306,
      "tout": 307,
      "ct": 308,
      "mes": 309,
      "int": 310,
      "pro": 311,
      "don": 312,
      "ven": 313,
      "have": 314,
      "by": 315,
      "ien": 316,
      "plus": 317,
      "wh": 318,
      "mi": 319,
      "mar": 320,
      "nous": 321,
      "oun": 322,
      "ine": 323,
      "mb": 324,
      "sh": 325,
      "ort": 326,
      "cet": 327,
      "whe": 328,
      "able": 329,
      "ite": 330,
      "they": 331,
      "ouv": 332,
      "are": 333,
      "sai": 334,
      "ong": 335,
      "bo": 336,
      "ck": 337,
      "age": 338,
      "ère": 339,
      "br": 340,
      "from": 341,
      "avec": 342,
      "sel": 343,
      "pu": 344,
      "who": 345,
      "ons": 346,
      "ted": 347,
      "pen": 348,
      "cr": 349,
      "said": 350,
      "af": 351,
      "és": 352,
      "were": 353,
      "ble": 354,
      "rent": 355,
      "ue": 356,
      "aut": 357,
      "ame": 358,
      "ance": 359,
      "ni": 360,
      "pla": 361,
      "cette": 362,
      "now": 363,
      "pi": 364,
      "bien": 365,
      "ord": 366,
      ",\"": 367,
      "would": 368,
      "ten": 369,
      "there": 370,
      "ta": 371,
      "if": 372,
      "very": 373,
      "eur": 374,
      "ju": 375,
      "quel": 376,
      "ers": 377,
      "ang": 378,
      "ils": 379,
      "car": 380,
      "comme": 381,
      "cou": 382,
      "let": 383,
      "what": 384,
      "leur": 385,
      "min": 386,
      "self": 387,
      "ence": 388,
      "ast": 389,
      "jour": 390,
      "ins": 391,
      "aux": 392,
      "aire": 393,
      "ès": 394,
      "pre": 395,
      "them": 396,
      "wn": 397,
      "pos": 398,
      "cri": 399,
      "im": 400,
      "ra": 401,
      "mu": 402,
      "ok": 403,
      "od": 404,
      "ors": 405,
      "gn": 406,
      "art": 407,
      "ret": 408,
      "long": 409,
      "see": 410,
      "when": 411,
      "thing": 412,
      "air": 413,
      "comp": 414,
      "ound": 415,
      "?\"": 416,
      "use": 417,
      "then": 418,
      "mis": 419,
      "cour": 420,
      "fin": 421,
      "way": 422,
      "their": 423,
      "moi": 424,
      "puis": 425,
      "ert": 426,
      "lit": 427,
      "ate": 428,
      "fait": 429,
      "dre": 430,
      "low": 431,
      "will": 432,
      "could": 433,
      "gu": 434,
      "tou": 435,
      "ions": 436,
      "ded": 437,
      "fa": 438,
      "been": 439,
      "bre": 440,
      "sou": 441,
      "mer": 442,
      "can": 443,
      "ye": 444,
      "men": 445,
      "part": 446,
      "tw": 447,
      "ob": 448,
      "gre": 449,
      "led": 450,
      "bon": 451,
      "ell": 452,
      "day": 453,
      "pres": 454,
      "your": 455,
      "gi": 456,
      "app": 457,
      "ler": 458,
      "hom": 459,
      "lait": 460,
      "ll": 461,
      "être": 462,
      "agn": 463,
      "cher": 464,
      "cap": 465,
      "its": 466,
      "deux": 467,
      "fort": 468,
      "..": 469,
      "!\"": 470,
      "temp": 471,
      "other": 472,
      "sé": 473,
      "more": 474,
      "ire": 475,
      "sed": 476,
      "ff": 477,
      "por": 478,
      "sans": 479,
      "ess": 480,
      "ise": 481,
      "rép": 482,
      "some": 483,
      "king": 484,
      "char": 485,
      "ner": 486,
      "str": 487,
      "rou": 488,
      "cho": 489,
      "reg": 490,
      "att": 491,
      "sent": 492,
      "ér": 493,
      "thou": 494,
      "sion": 495,
      "mê": 496,
      "any": 497,
      "dev": 498,
      "faire": 499,
      "ved": 500,
      "urn": 501,
      "cont": 502,
      "dou": 503,
      "ité": 504,
      "ple": 505,
      "cro": 506,
      "fore": 507,
      "cal": 508,
      "sieur": 509,
      "tle": 510,
      "into": 511,
      "ful": 512,
      "tu": 513,
      "med": 514,
      "tro": 515,
      "aus": 516,
      "main": 517,
      "mom": 518,
      "eu": 519,
      "ts": 520,
      "cor": 521,
      "moment": 522,
      "ques": 523,
      "did": 524,
      "même": 525,
      "know": 526,
      "fer": 527,
      "tes": 528,
      "jo": 529,
      "ches": 530,
      "pend": 531,
      "mil": 532,
      "yes": 533,
      "vers": 534,
      "fut": 535,
      "again": 536,
      "lle": 537,
      "hu": 538,
      "vis": 539,
      "dire": 540,
      "point": 541,
      "time": 542,
      "mme": 543,
      "vie": 544,
      "té": 545,
      "two": 546,
      "has": 547,
      "ity": 548,
      "like": 549,
      "arri": 550,
      "pris": 551,
      "rep": 552,
      "ass": 553,
      "avo": 554,
      "upon": 555,
      "well": 556,
      "où": 557,
      "ante": 558,
      "wor": 559,
      "say": 560,
      "made": 561,
      "than": 562,
      "over": 563,
      "little": 564,
      "voir": 565,
      "met": 566,
      "hand": 567,
      "mor": 568,
      "cu": 569,
      "after": 570,
      "lais": 571,
      "nu": 572,
      "how": 573,
      "ack": 574,
      "cle": 575,
      "été": 576,
      "mat": 577,
      "arr": 578,
      "né": 579,
      "pet": 580,
      "cent": 581,
      "homme": 582,
      "répon": 583,
      "come": 584,
      "ish": 585,
      "look": 586,
      "ide": 587,
      "ice": 588,
      "only": 589,
      "sait": 590,
      "là": 591,
      "ont": 592,
      "cy": 593,
      "mé": 594,
      "ût": 595,
      "mr": 596,
      "off": 597,
      "coup": 598,
      "som": 599,
      "ated": 600,
      "fir": 601,
      "autre": 602,
      "cl": 603,
      "peu": 604,
      "fois": 605,
      "ca": 606,
      "core": 607,
      "ves": 608,
      "rest": 609,
      "act": 610,
      "temps": 611,
      "clo": 612,
      "ked": 613,
      "land": 614,
      "jours": 615,
      "pré": 616,
      "quand": 617,
      "appe": 618,
      "asse": 619,
      "avoir": 620,
      "vent": 621,
      "encore": 622,
      "port": 623,
      "imp": 624,
      "va": 625,
      "monsieur": 626,
      "ens": 627,
      "about": 628,
      "pendant": 629,
      "ol": 630,
      "great": 631,
      "ja": 632,
      "ty": 633,
      "these": 634,
      "place": 635,
      "ures": 636,
      "himself": 637,
      "every": 638,
      "juli": 639,
      "hed": 640,
      "came": 641,
      "before": 642,
      "grand": 643,
      "vou": 644,
      "julien": 645,
      "sp": 646,
      "ants": 647,
      "voy": 648,
      "even": 649,
      "cla": 650,
      "pt": 651,
      "lan": 652,
      "cur": 653,
      "oc": 654,
      "spe": 655,
      "ig": 656,
      "agnan": 657,
      "cert": 658,
      "fri": 659,
      "artagnan": 660,
      "good": 661,
      "cas": 662,
      "jus": 663,
      "ree": 664,
      "ond": 665,
      "should": 666,
      "gent": 667,
      "under": 668,
      "never": 669,
      "pri": 670,
      "vre": 671,
      "op": 672,
      "non": 673,
      "mand": 674,
      "down": 675,
      "heure": 676,
      "ach": 677,
      "ments": 678,
      "thought": 679,
      "lé": 680,
      "aine": 681,
      "trou": 682,
      "eng": 683,
      "tous": 684,
      "where": 685,
      "gran": 686,
      "less": 687,
      "étaient": 688,
      "prit": 689,
      "mal": 690,
      "ind": 691,
      "col": 692,
      "semb": 693,
      "aussi": 694,
      "aur": 695,
      "bes": 696,
      "ince": 697,
      "tres": 698,
      "entre": 699,
      "tho": 700,
      "ton": 701,
      "pouv": 702,
      "ient": 703,
      "dont": 704,
      "must": 705,
      "cau": 706,
      "tant": 707,
      "ving": 708,
      "rien": 709,
      "ru": 710,
      "avais": 711,
      "emp": 712,
      "sous": 713,
      "most": 714,
      "urs": 715,
      "without": 716,
      "iz": 717,
      "apr": 718,
      "rie": 719,
      "ting": 720,
      "regard": 721,
      "ward": 722,
      "face": 723,
      "bet": 724,
      "quelque": 725,
      "ale": 726,
      "cela": 727,
      "bel": 728,
      "alors": 729,
      "hor": 730,
      "ête": 731,
      "just": 732,
      "sto": 733,
      "sir": 734,
      "dame": 735,
      "id": 736,
      "votre": 737,
      "ak": 738,
      "ps": 739,
      "hou": 740,
      "first": 741,
      "ph": 742,
      "new": 743,
      "donc": 744,
      "ars": 745,
      "wat": 746,
      "ady": 747,
      "après": 748,
      "dr": 749,
      "trouv": 750,
      "ôt": 751,
      "ction": 752,
      "toute": 753,
      "ary": 754,
      "na": 755,
      "beau": 756,
      "sup": 757,
      "itu": 758,
      "cre": 759,
      "ger": 760,
      "back": 761,
      "ier": 762,
      "jet": 763,
      "such": 764,
      "ep": 765,
      "sible": 766,
      "went": 767,
      "contin": 768,
      "bro": 769,
      "fel": 770,
      "abri": 771,
      "ath": 772,
      "ange": 773,
      "inst": 774,
      "prof": 775,
      "dy": 776,
      "èrent": 777,
      "pass": 778,
      "jamais": 779,
      "avant": 780,
      "gé": 781,
      "ieux": 782,
      "inter": 783,
      "sil": 784,
      "ness": 785,
      "fit": 786,
      "val": 787,
      "ally": 788,
      "trav": 789,
      "cer": 790,
      "nat": 791,
      "oi": 792,
      "cul": 793,
      "person": 794,
      "bou": 795,
      "nothing": 796,
      "word": 797,
      "peut": 798,
      "fabri": 799,
      "voi": 800,
      "yeux": 801,
      "fais": 802,
      "cham": 803,
      "beg": 804,
      "put": 805,
      "eth": 806,
      "gar": 807,
      "ations": 808,
      "trois": 809,
      "head": 810,
      "much": 811,
      "ink": 812,
      "rendre": 813,
      "ées": 814,
      "ched": 815,
      "dent": 816,
      "house": 817,
      "ning": 818,
      "here": 819,
      "tain": 820,
      "lar": 821,
      "rais": 822,
      "coun": 823,
      "ign": 824,
      "fu": 825,
      "arm": 826,
      "ah": 827,
      "leurs": 828,
      "quoi": 829,
      "sort": 830,
      "lement": 831,
      "might": 832,
      "hab": 833,
      "vit": 834,
      "tour": 835,
      "eyes": 836,
      "lis": 837,
      "fran": 838,
      "cha": 839,
      "wom": 840,
      "ely": 841,
      "quelques": 842,
      "last": 843,
      "still": 844,
      "room": 845,
      "light": 846,
      "avez": 847,
      "ared": 848,
      "nom": 849,
      "femme": 850,
      "sho": 851,
      "nes": 852,
      "get": 853,
      "youn": 854,
      "ies": 855,
      "mit": 856,
      "lied": 857,
      "mou": 858,
      "ainsi": 859,
      "make": 860,
      "shall": 861,
      "continu": 862,
      "certain": 863,
      "mag": 864,
      "répondit": 865,
      "jusqu": 866,
      "sing": 867,
      "suis": 868,
      "gen": 869,
      "set": 870,
      "notre": 871,
      "tel": 872,
      "night": 873,
      "avaient": 874,
      "young": 875,
      "seu": 876,
      "turn": 877,
      "being": 878,
      "aving": 879,
      "écri": 880,
      "three": 881,
      "elles": 882,
      "den": 883,
      "nor": 884,
      "pau": 885,
      "madame": 886,
      "found": 887,
      "take": 888,
      "possible": 889,
      "ître": 890,
      "prom": 891,
      "mas": 892,
      "rer": 893,
      "bar": 894,
      "gro": 895,
      "ft": 896,
      "toujours": 897,
      "ic": 898,
      "moins": 899,
      "hon": 900,
      "bu": 901,
      "premi": 902,
      "mur": 903,
      "tri": 904,
      "gg": 905,
      "porte": 906,
      "serv": 907,
      "side": 908,
      "toutes": 909,
      "friend": 910,
      "lic": 911,
      "demand": 912,
      "pa": 913,
      "endre": 914,
      "oh": 915,
      "ry": 916,
      "sui": 917,
      "enf": 918,
      "cin": 919,
      "tra": 920,
      "may": 921,
      "away": 922,
      "jeune": 923,
      "four": 924,
      "ages": 925,
      "old": 926,
      "bert": 927,
      "lat": 928,
      ",'": 929,
      "while": 930,
      "ken": 931,
      "ily": 932,
      "sign": 933,
      "saw": 934,
      "conn": 935,
      "too": 936,
      "ber": 937,
      "dar": 938,
      "ious": 939,
      "ef": 940,
      "bour": 941,
      "rus": 942,
      "contre": 943,
      "rough": 944,
      "emb": 945,
      "ped": 946,
      "eût": 947,
      "sais": 948,
      "lors": 949,
      "vé": 950,
      "left": 951,
      "ste": 952,
      "ild": 953,
      "replied": 954,
      "hap": 955,
      "sal": 956,
      "fol": 957,
      "bas": 958,
      "once": 959,
      "inten": 960,
      "cé": 961,
      "took": 962,
      "stru": 963,
      "sor": 964,
      "sus": 965,
      "fam": 966,
      "open": 967,
      "...": 968,
      "sol": 969,
      "lau": 970,
      "terre": 971,
      "pencr": 972,
      "heures": 973,
      "cause": 974,
      "six": 975,
      "oui": 976,
      "ente": 977,
      "hun": 978,
      "ition": 979,
      "chose": 980,
      "those": 981,
      "cô": 982,
      "io": 983,
      "venir": 984,
      "sont": 985,
      "far": 986,
      "chap": 987,
      "sant": 988,
      "think": 989,
      "rai": 990,
      "autres": 991,
      "anger": 992,
      "illes": 993,
      "sour": 994,
      "mot": 995,
      "ds": 996,
      "ist": 997,
      "ville": 998,
      "hour": 999,
      "through": 1000,
      "ling": 1001,
      "hal": 1002,
      "quest": 1003,
      "ze": 1004,
      "life": 1005,
      "dif": 1006,
      "vol": 1007,
      "em": 1008,
      "pé": 1009,
      "gl": 1010,
      "wi": 1011,
      "dro": 1012,
      "atho": 1013,
      "tête": 1014,
      "ster": 1015,
      "très": 1016,
      "chez": 1017,
      "own": 1018,
      "pay": 1019,
      "sat": 1020,
      "lie": 1021,
      "woman": 1022,
      "sub": 1023,
      "soon": 1024,
      "quat": 1025,
      "fus": 1026,
      "ks": 1027,
      "devant": 1028,
      "appro": 1029,
      "grande": 1030,
      "ned": 1031,
      "étais": 1032,
      "though": 1033,
      "mber": 1034,
      "ique": 1035,
      "ça": 1036,
      "pied": 1037,
      "ane": 1038,
      "acc": 1039,
      "form": 1040,
      "seemed": 1041,
      ".'": 1042,
      "allait": 1043,
      "sure": 1044,
      "ardin": 1045,
      "going": 1046,
      "return": 1047,
      "pect": 1048,
      "athos": 1049,
      "cam": 1050,
      "çon": 1051,
      "ot": 1052,
      "ished": 1053,
      "right": 1054,
      "hard": 1055,
      "depuis": 1056,
      "ever": 1057,
      "soir": 1058,
      "aper": 1059,
      "har": 1060,
      "parti": 1061,
      "près": 1062,
      "myself": 1063,
      "enfin": 1064,
      "pouvait": 1065,
      "instant": 1066,
      "petit": 1067,
      "sm": 1068,
      "lig": 1069,
      "prés": 1070,
      "mont": 1071,
      "ways": 1072,
      "give": 1073,
      "tell": 1074,
      "asked": 1075,
      "amis": 1076,
      "pou": 1077,
      "indi": 1078,
      "eff": 1079,
      "paris": 1080,
      "bed": 1081,
      "pleas": 1082,
      "nature": 1083,
      "marqu": 1084,
      "fille": 1085,
      "heart": 1086,
      "ères": 1087,
      "door": 1088,
      "vais": 1089,
      "cted": 1090,
      "quelle": 1091,
      "having": 1092,
      "auc": 1093,
      "mainten": 1094,
      "lin": 1095,
      "capit": 1096,
      "rait": 1097,
      "bles": 1098,
      "cei": 1099,
      "yet": 1100,
      "cs": 1101,
      "ought": 1102,
      "sit": 1103,
      "cried": 1104,
      "ben": 1105,
      "same": 1106,
      "pit": 1107,
      "quet": 1108,
      "row": 1109,
      "love": 1110,
      "conse": 1111,
      "table": 1112,
      "captain": 1113,
      "faut": 1114,
      "heard": 1115,
      "inte": 1116,
      "stand": 1117,
      "bout": 1118,
      "mort": 1119,
      "wer": 1120,
      "trait": 1121,
      "mois": 1122,
      "aille": 1123,
      "wards": 1124,
      "ready": 1125,
      "trop": 1126,
      "rit": 1127,
      "ile": 1128,
      "water": 1129,
      ".»": 1130,
      "monde": 1131,
      "ced": 1132,
      "vres": 1133,
      "vement": 1134,
      "contr": 1135,
      "try": 1136,
      "follow": 1137,
      "fro": 1138,
      "pier": 1139,
      "voix": 1140,
      "plu": 1141,
      "ga": 1142,
      "another": 1143,
      "dist": 1144,
      "told": 1145,
      "looked": 1146,
      "tal": 1147,
      "quatre": 1148,
      "maintenant": 1149,
      "cut": 1150,
      "ici": 1151,
      "lou": 1152,
      "vant": 1153,
      "assez": 1154,
      "venait": 1155,
      "comment": 1156,
      "ras": 1157,
      "got": 1158,
      "secon": 1159,
      "connais": 1160,
      "eau": 1161,
      "quit": 1162,
      "fix": 1163,
      "cyrus": 1164,
      "ings": 1165,
      "chant": 1166,
      "eut": 1167,
      "serait": 1168,
      "dét": 1169,
      "against": 1170,
      "ris": 1171,
      "dres": 1172,
      "dra": 1173,
      "gentle": 1174,
      "cependant": 1175,
      "ither": 1176,
      "flo": 1177,
      "née": 1178,
      "began": 1179,
      "ges": 1180,
      "êtes": 1181,
      "illa": 1182,
      "chambre": 1183,
      "fle": 1184,
      "fect": 1185,
      "tement": 1186,
      "compagn": 1187,
      "net": 1188,
      "wo": 1189,
      "ear": 1190,
      "order": 1191,
      "bru": 1192,
      "dieu": 1193,
      "nuit": 1194,
      "herself": 1195,
      "bla": 1196,
      "half": 1197,
      "dur": 1198,
      "felt": 1199,
      "rez": 1200,
      "simp": 1201,
      "aff": 1202,
      "silence": 1203,
      "whom": 1204,
      "find": 1205,
      "always": 1206,
      "large": 1207,
      "ban": 1208,
      "plan": 1209,
      "ché": 1210,
      "ters": 1211,
      "ière": 1212,
      "seen": 1213,
      "cess": 1214,
      "eh": 1215,
      "duches": 1216,
      "hen": 1217,
      "ade": 1218,
      "exce": 1219,
      "sis": 1220,
      "round": 1221,
      "betwe": 1222,
      "between": 1223,
      "wal": 1224,
      "few": 1225,
      "mari": 1226,
      "aller": 1227,
      "mir": 1228,
      "why": 1229,
      "work": 1230,
      "days": 1231,
      "since": 1232,
      "commen": 1233,
      "sud": 1234,
      "bri": 1235,
      "child": 1236,
      "desc": 1237,
      "maison": 1238,
      "eux": 1239,
      "stre": 1240,
      "écria": 1241,
      "seul": 1242,
      "ople": 1243,
      "ough": 1244,
      "itude": 1245,
      "near": 1246,
      "fou": 1247,
      "cup": 1248,
      "ables": 1249,
      "vait": 1250,
      "sau": 1251,
      "oft": 1252,
      "inde": 1253,
      "appeared": 1254,
      "quite": 1255,
      "dom": 1256,
      "each": 1257,
      "attend": 1258,
      "pous": 1259,
      "vu": 1260,
      "capitaine": 1261,
      "sc": 1262,
      "anim": 1263,
      "suc": 1264,
      "doub": 1265,
      "father": 1266,
      "mid": 1267,
      "fall": 1268,
      "neur": 1269,
      "ight": 1270,
      "entend": 1271,
      "ieu": 1272,
      "cir": 1273,
      "ances": 1274,
      "ât": 1275,
      "name": 1276,
      "arch": 1277,
      "bonne": 1278,
      "faisait": 1279,
      "question": 1280,
      "prison": 1281,
      "guer": 1282,
      "spo": 1283,
      "sec": 1284,
      "morning": 1285,
      "lez": 1286,
      "voil": 1287,
      "gne": 1288,
      "gir": 1289,
      "ss": 1290,
      "shi": 1291,
      "many": 1292,
      "evening": 1293,
      "happ": 1294,
      "jou": 1295,
      "people": 1296,
      "fond": 1297,
      "wait": 1298,
      "present": 1299,
      "win": 1300,
      "terri": 1301,
      "mille": 1302,
      "esp": 1303,
      "gave": 1304,
      "comm": 1305,
      "exp": 1306,
      "milady": 1307,
      "idé": 1308,
      "ég": 1309,
      "ats": 1310,
      "sea": 1311,
      "hommes": 1312,
      "da": 1313,
      "iness": 1314,
      "poor": 1315,
      "knew": 1316,
      "ating": 1317,
      "petite": 1318,
      "fig": 1319,
      "imag": 1320,
      "eliz": 1321,
      "dow": 1322,
      "ouver": 1323,
      "feu": 1324,
      "dence": 1325,
      "rap": 1326,
      "bus": 1327,
      "haps": 1328,
      "pat": 1329,
      "tor": 1330,
      "feel": 1331,
      "perhaps": 1332,
      "prince": 1333,
      "taken": 1334,
      "vel": 1335,
      "howe": 1336,
      "however": 1337,
      "naut": 1338,
      "ilus": 1339,
      "prendre": 1340,
      "utes": 1341,
      "ez": 1342,
      "fici": 1343,
      "nautilus": 1344,
      "éri": 1345,
      "bras": 1346,
      "peine": 1347,
      "derni": 1348,
      "teur": 1349,
      "cinq": 1350,
      "lier": 1351,
      "ienne": 1352,
      "fabrice": 1353,
      "hands": 1354,
      "belie": 1355,
      "zio": 1356,
      "carri": 1357,
      "mind": 1358,
      "êt": 1359,
      "fabrizio": 1360,
      "côté": 1361,
      "paro": 1362,
      "crois": 1363,
      "pped": 1364,
      "mains": 1365,
      "abeth": 1366,
      "mother": 1367,
      "ined": 1368,
      "passe": 1369,
      "passed": 1370,
      "porter": 1371,
      "parler": 1372,
      "island": 1373,
      "condu": 1374,
      "doute": 1375,
      "enough": 1376,
      "voice": 1377,
      "elizabeth": 1378,
      "personne": 1379,
      "fau": 1380,
      "donner": 1381,
      "plais": 1382,
      "done": 1383,
      "cardin": 1384,
      "vrai": 1385,
      "used": 1386,
      "position": 1387,
      "ouve": 1388,
      "trouver": 1389,
      "ude": 1390,
      "ami": 1391,
      "aurait": 1392,
      "ace": 1393,
      "lieu": 1394,
      "abo": 1395,
      "ran": 1396,
      "matin": 1397,
      "whole": 1398,
      "cardinal": 1399,
      "words": 1400,
      "attent": 1401,
      "rel": 1402,
      "lant": 1403,
      "usement": 1404,
      "lay": 1405,
      "bal": 1406,
      "tomb": 1407,
      "retour": 1408,
      "master": 1409,
      "occup": 1410,
      "minutes": 1411,
      "fact": 1412,
      "things": 1413,
      "cit": 1414,
      "xt": 1415,
      "étr": 1416,
      "remain": 1417,
      "fac": 1418,
      "quer": 1419,
      "fogg": 1420,
      "effet": 1421,
      "saint": 1422,
      "const": 1423,
      "selves": 1424,
      "consi": 1425,
      "fat": 1426,
      "ham": 1427,
      "unes": 1428,
      "disait": 1429,
      "celui": 1430,
      "gré": 1431,
      "sieurs": 1432,
      "seulement": 1433,
      "jane": 1434,
      "because": 1435,
      "five": 1436,
      "fur": 1437,
      "demanda": 1438,
      "ged": 1439,
      "unt": 1440,
      "world": 1441,
      "stu": 1442,
      "suite": 1443,
      "ley": 1444,
      "mettre": 1445,
      "quar": 1446,
      "fen": 1447,
      "eas": 1448,
      "nie": 1449,
      "pren": 1450,
      "pose": 1451,
      "stood": 1452,
      "maître": 1453,
      "heur": 1454,
      "charles": 1455,
      "expres": 1456,
      "deman": 1457,
      "hear": 1458,
      "sk": 1459,
      "nos": 1460,
      "iron": 1461,
      "trans": 1462,
      "cru": 1463,
      "habit": 1464,
      "chaque": 1465,
      "gros": 1466,
      "window": 1467,
      "dred": 1468,
      "iez": 1469,
      "chemin": 1470,
      "cis": 1471,
      "sions": 1472,
      "laient": 1473,
      "aid": 1474,
      "prise": 1475,
      "ines": 1476,
      "hundred": 1477,
      "mieux": 1478,
      "figure": 1479,
      "longer": 1480,
      "présent": 1481,
      "roi": 1482,
      "jà": 1483,
      "déjà": 1484,
      "god": 1485,
      "ject": 1486,
      "whose": 1487,
      "beaucoup": 1488,
      "blan": 1489,
      "ende": 1490,
      "milieu": 1491,
      "quant": 1492,
      "feet": 1493,
      "lorsque": 1494,
      "bat": 1495,
      "clu": 1496,
      "sée": 1497,
      "raison": 1498,
      "fl": 1499,
      "nait": 1500,
      "sul": 1501,
      "towards": 1502,
      "rê": 1503,
      "venu": 1504,
      "miss": 1505,
      "voilà": 1506,
      "gue": 1507,
      "vingt": 1508,
      "roche": 1509,
      "tran": 1510,
      "portho": 1511,
      "vér": 1512,
      "beh": 1513,
      "porthos": 1514,
      "dix": 1515,
      "doubt": 1516,
      "quin": 1517,
      "vered": 1518,
      "speak": 1519,
      "ething": 1520,
      "called": 1521,
      "pain": 1522,
      "spi": 1523,
      "pur": 1524,
      "leave": 1525,
      "something": 1526,
      "turned": 1527,
      "mau": 1528,
      "nal": 1529,
      "dessus": 1530,
      "body": 1531,
      "haut": 1532,
      "ive": 1533,
      "devait": 1534,
      "brought": 1535,
      "cand": 1536,
      "veux": 1537,
      "toi": 1538,
      "fire": 1539,
      "pieds": 1540,
      "onde": 1541,
      "ey": 1542,
      "also": 1543,
      "everything": 1544,
      "girl": 1545,
      "bres": 1546,
      "years": 1547,
      "ail": 1548,
      "bé": 1549,
      "read": 1550,
      "fortune": 1551,
      "mrs": 1552,
      "dam": 1553,
      "bor": 1554,
      "fla": 1555,
      "route": 1556,
      "inci": 1557,
      "nouv": 1558,
      "hur": 1559,
      "semblait": 1560,
      "indeed": 1561,
      "vint": 1562,
      "vois": 1563,
      "hold": 1564,
      "sudden": 1565,
      "band": 1566,
      "pes": 1567,
      "almost": 1568,
      "conseil": 1569,
      "père": 1570,
      "reprit": 1571,
      "lady": 1572,
      "ms": 1573,
      "pir": 1574,
      "already": 1575,
      "sen": 1576,
      "bl": 1577,
      "île": 1578,
      "convers": 1579,
      "nouve": 1580,
      "dest": 1581,
      "viol": 1582,
      "ceived": 1583,
      "care": 1584,
      "gens": 1585,
      "next": 1586,
      "pauvre": 1587,
      "gri": 1588,
      "ordin": 1589,
      "hé": 1590,
      "ép": 1591,
      "enne": 1592,
      "fine": 1593,
      "tru": 1594,
      "exam": 1595,
      "faite": 1596,
      "chait": 1597,
      "coming": 1598,
      "ues": 1599,
      "endu": 1600,
      "00": 1601,
      "mine": 1602,
      "pie": 1603,
      "enty": 1604,
      "vice": 1605,
      "sci": 1606,
      "sole": 1607,
      "die": 1608,
      "lord": 1609,
      "ow": 1610,
      "nemo": 1611,
      "gener": 1612,
      "ature": 1613,
      "road": 1614,
      "celle": 1615,
      "amour": 1616,
      "pencroft": 1617,
      "appar": 1618,
      "better": 1619,
      "travers": 1620,
      "pencroff": 1621,
      "bois": 1622,
      "choses": 1623,
      "hau": 1624,
      "telle": 1625,
      "eus": 1626,
      "aires": 1627,
      "soit": 1628,
      "pru": 1629,
      "both": 1630,
      "presque": 1631,
      "kind": 1632,
      "éch": 1633,
      "black": 1634,
      "passer": 1635,
      "mous": 1636,
      "partout": 1637,
      "least": 1638,
      "esprit": 1639,
      "satis": 1640,
      "phe": 1641,
      "vue": 1642,
      "loin": 1643,
      "obser": 1644,
      "marguer": 1645,
      "smith": 1646,
      "van": 1647,
      "heav": 1648,
      "reas": 1649,
      "aul": 1650,
      "second": 1651,
      "force": 1652,
      "dear": 1653,
      "alone": 1654,
      "marguerite": 1655,
      "voyage": 1656,
      "impossible": 1657,
      "enfant": 1658,
      "fût": 1659,
      "bient": 1660,
      "bientôt": 1661,
      "esse": 1662,
      "anything": 1663,
      "ram": 1664,
      "high": 1665,
      "abord": 1666,
      "run": 1667,
      "aramis": 1668,
      "sin": 1669,
      "sang": 1670,
      "étienne": 1671,
      "senti": 1672,
      "blo": 1673,
      "among": 1674,
      "pourquoi": 1675,
      "tered": 1676,
      "compan": 1677,
      "yez": 1678,
      "produ": 1679,
      "gal": 1680,
      "occas": 1681,
      "premier": 1682,
      "xi": 1683,
      "ately": 1684,
      "meur": 1685,
      "dark": 1686,
      "cus": 1687,
      "rom": 1688,
      "meme": 1689,
      "tom": 1690,
      "does": 1691,
      "beso": 1692,
      "aj": 1693,
      "reco": 1694,
      "ards": 1695,
      "course": 1696,
      "atta": 1697,
      "ache": 1698,
      "aw": 1699,
      "thous": 1700,
      "clock": 1701,
      "conversation": 1702,
      "bot": 1703,
      "sun": 1704,
      "francs": 1705,
      "tenir": 1706,
      "hus": 1707,
      "gether": 1708,
      "rence": 1709,
      "twenty": 1710,
      "together": 1711,
      "thousand": 1712,
      "gone": 1713,
      "passion": 1714,
      "mère": 1715,
      "tait": 1716,
      "idée": 1717,
      "iti": 1718,
      "sire": 1719,
      "ajout": 1720,
      "reste": 1721,
      "behind": 1722,
      "want": 1723,
      "etre": 1724,
      "coeur": 1725,
      "appear": 1726,
      "cat": 1727,
      "sever": 1728,
      "thus": 1729,
      "souv": 1730,
      "çait": 1731,
      "indre": 1732,
      "ory": 1733,
      "show": 1734,
      "ît": 1735,
      "fear": 1736,
      "bit": 1737,
      "keep": 1738,
      "leva": 1739,
      "ailleurs": 1740,
      "tranqu": 1741,
      "seule": 1742,
      "bur": 1743,
      "themselves": 1744,
      "tent": 1745,
      "wall": 1746,
      "gla": 1747,
      "hel": 1748,
      "lè": 1749,
      "letter": 1750,
      "suff": 1751,
      "lettre": 1752,
      "courage": 1753,
      "isse": 1754,
      "arriv": 1755,
      "dor": 1756,
      "wered": 1757,
      "heureux": 1758,
      "full": 1759,
      "colon": 1760,
      "!»": 1761,
      "thir": 1762,
      "hope": 1763,
      "import": 1764,
      "oub": 1765,
      "ifi": 1766,
      "joy": 1767,
      "terrible": 1768,
      "orge": 1769,
      "play": 1770,
      "iss": 1771,
      "tremb": 1772,
      "bord": 1773,
      "rir": 1774,
      "rather": 1775,
      "country": 1776,
      "secret": 1777,
      "nouveau": 1778,
      "conf": 1779,
      "wood": 1780,
      "semble": 1781,
      "front": 1782,
      "partie": 1783,
      "sle": 1784,
      "demi": 1785,
      "looking": 1786,
      "belle": 1787,
      "regar": 1788,
      "pierre": 1789,
      "ship": 1790,
      "argent": 1791,
      "call": 1792,
      "pare": 1793,
      "vos": 1794,
      "wife": 1795,
      "anci": 1796,
      "ides": 1797,
      "exis": 1798,
      "rapp": 1799,
      "sav": 1800,
      "death": 1801,
      "rée": 1802,
      "mour": 1803,
      "ets": 1804,
      "cheval": 1805,
      "uses": 1806,
      "andon": 1807,
      "stri": 1808,
      "lett": 1809,
      "aucun": 1810,
      "comte": 1811,
      "uncle": 1812,
      "given": 1813,
      "during": 1814,
      "éton": 1815,
      "above": 1816,
      "spilett": 1817,
      "cks": 1818,
      "arris": 1819,
      "pays": 1820,
      "wing": 1821,
      "als": 1822,
      "along": 1823,
      "month": 1824,
      "respect": 1825,
      "arms": 1826,
      "cti": 1827,
      "ured": 1828,
      "oncle": 1829,
      "loy": 1830,
      "fell": 1831,
      "inqui": 1832,
      "solu": 1833,
      "cab": 1834,
      "abandon": 1835,
      "listen": 1836,
      "sera": 1837,
      "laurent": 1838,
      "rue": 1839,
      "reux": 1840,
      "nez": 1841,
      "swe": 1842,
      "diffi": 1843,
      "couv": 1844,
      "fai": 1845,
      "lot": 1846,
      "voit": 1847,
      "jean": 1848,
      "ete": 1849,
      "sorte": 1850,
      "ached": 1851,
      "bing": 1852,
      "andis": 1853,
      "souff": 1854,
      "ground": 1855,
      "darcy": 1856,
      "shou": 1857,
      "lon": 1858,
      "tré": 1859,
      "ayant": 1860,
      "hors": 1861,
      "nifi": 1862,
      "mment": 1863,
      "mahe": 1864,
      "visit": 1865,
      "rose": 1866,
      "première": 1867,
      "bruit": 1868,
      "attention": 1869,
      "difficul": 1870,
      "sail": 1871,
      "dri": 1872,
      "lut": 1873,
      "aperç": 1874,
      "lorsqu": 1875,
      "boat": 1876,
      "mean": 1877,
      "harris": 1878,
      "âmes": 1879,
      "acce": 1880,
      "hô": 1881,
      "ore": 1882,
      "veille": 1883,
      "nav": 1884,
      "lost": 1885,
      "arrê": 1886,
      "fully": 1887,
      "times": 1888,
      "aucune": 1889,
      "ager": 1890,
      "ira": 1891,
      "idea": 1892,
      "wind": 1893,
      "conte": 1894,
      "known": 1895,
      "vieux": 1896,
      "harding": 1897,
      "wish": 1898,
      "parce": 1899,
      "confi": 1900,
      "cked": 1901,
      "top": 1902,
      "longtemps": 1903,
      "continued": 1904,
      "hours": 1905,
      "ray": 1906,
      "won": 1907,
      "distance": 1908,
      "case": 1909,
      "ming": 1910,
      "issait": 1911,
      "quent": 1912,
      "returned": 1913,
      "vain": 1914,
      "often": 1915,
      "ates": 1916,
      "seig": 1917,
      "couver": 1918,
      "inf": 1919,
      "believe": 1920,
      "condit": 1921,
      "oire": 1922,
      "agne": 1923,
      "soci": 1924,
      "change": 1925,
      "remained": 1926,
      "hol": 1927,
      "white": 1928,
      "situ": 1929,
      "écr": 1930,
      "ained": 1931,
      "mus": 1932,
      "till": 1933,
      "admir": 1934,
      "mait": 1935,
      "coll": 1936,
      "ron": 1937,
      "moy": 1938,
      "occasion": 1939,
      "fas": 1940,
      "descend": 1941,
      "reason": 1942,
      "âme": 1943,
      "teau": 1944,
      "maj": 1945,
      "huit": 1946,
      "friends": 1947,
      "passepartout": 1948,
      "chair": 1949,
      "pus": 1950,
      "imagin": 1951,
      "ask": 1952,
      "aking": 1953,
      "laugh": 1954,
      "batt": 1955,
      "lev": 1956,
      "danger": 1957,
      "lia": 1958,
      "ders": 1959,
      "ounded": 1960,
      "»,": 1961,
      "chance": 1962,
      "suf": 1963,
      "nant": 1964,
      "tenait": 1965,
      "aves": 1966,
      "money": 1967,
      "souvent": 1968,
      "cout": 1969,
      "ney": 1970,
      "ains": 1971,
      "kept": 1972,
      "wan": 1973,
      "ème": 1974,
      "hil": 1975,
      "wr": 1976,
      "autour": 1977,
      "followed": 1978,
      "medi": 1979,
      "happy": 1980,
      "rochester": 1981,
      "granite": 1982,
      "gard": 1983,
      "ety": 1984,
      "allow": 1985,
      "ding": 1986,
      "sens": 1987,
      "acieux": 1988,
      "foot": 1989,
      "laquelle": 1990,
      "avons": 1991,
      "trouvait": 1992,
      "!'": 1993,
      "brother": 1994,
      "short": 1995,
      "motion": 1996,
      "home": 1997,
      "pub": 1998,
      "cours": 1999,
      "ceux": 2000,
      "making": 2001,
      "ois": 2002,
      "sy": 2003,
      "iste": 2004,
      "furent": 2005,
      "phi": 2006,
      "pense": 2007,
      "voyait": 2008,
      "ied": 2009,
      "horse": 2010,
      "fallait": 2011,
      "posed": 2012,
      "cold": 2013,
      "boy": 2014,
      "war": 2015,
      "march": 2016,
      "façon": 2017,
      "tandis": 2018,
      "reme": 2019,
      "alice": 2020,
      "covered": 2021,
      "suddenly": 2022,
      "small": 2023,
      "pal": 2024,
      "pap": 2025,
      "simple": 2026,
      "fre": 2027,
      "œur": 2028,
      "uni": 2029,
      "plusieurs": 2030,
      "gy": 2031,
      "marche": 2032,
      "pul": 2033,
      "....": 2034,
      "bene": 2035,
      "affaire": 2036,
      "besoin": 2037,
      "autant": 2038,
      "entendre": 2039,
      "comple": 2040,
      "engine": 2041,
      "understand": 2042,
      "ian": 2043,
      "excla": 2044,
      "cation": 2045,
      "imes": 2046,
      "ick": 2047,
      "mmes": 2048,
      "court": 2049,
      "others": 2050,
      "oblig": 2051,
      "grands": 2052,
      "fair": 2053,
      "vag": 2054,
      "sight": 2055,
      "passé": 2056,
      "aise": 2057,
      "tend": 2058,
      "parut": 2059,
      "conna": 2060,
      "answered": 2061,
      "duchesse": 2062,
      "cli": 2063,
      "noir": 2064,
      "resse": 2065,
      "prob": 2066,
      "matter": 2067,
      "entra": 2068,
      "igh": 2069,
      "aulnes": 2070,
      "repe": 2071,
      "became": 2072,
      "cré": 2073,
      "moun": 2074,
      "lice": 2075,
      "power": 2076,
      "surpris": 2077,
      "plain": 2078,
      "passage": 2079,
      "vas": 2080,
      "held": 2081,
      "els": 2082,
      "lende": 2083,
      "chet": 2084,
      "spect": 2085,
      "fellow": 2086,
      "gentleman": 2087,
      "?'": 2088,
      "mée": 2089,
      "rup": 2090,
      "necess": 2091,
      "ience": 2092,
      "close": 2093,
      "several": 2094,
      "ping": 2095,
      "mala": 2096,
      "nement": 2097,
      "antes": 2098,
      "content": 2099,
      "clair": 2100,
      "until": 2101,
      "roit": 2102,
      "formed": 2103,
      "aurais": 2104,
      "lendemain": 2105,
      "din": 2106,
      "smi": 2107,
      "candide": 2108,
      "emma": 2109,
      "husband": 2110,
      "fiel": 2111,
      "excell": 2112,
      "corps": 2113,
      "dered": 2114,
      "para": 2115,
      "longue": 2116,
      "pâ": 2117,
      "joh": 2118,
      "really": 2119,
      "ern": 2120,
      "count": 2121,
      "best": 2122,
      "therine": 2123,
      "cannot": 2124,
      "catherine": 2125,
      "cast": 2126,
      "meaulnes": 2127,
      "vez": 2128,
      "opened": 2129,
      "eye": 2130,
      "true": 2131,
      "bil": 2132,
      "dle": 2133,
      "tence": 2134,
      "trouble": 2135,
      "déci": 2136,
      "eurs": 2137,
      "glo": 2138,
      "tard": 2139,
      "dead": 2140,
      "pourtant": 2141,
      "toire": 2142,
      "chercher": 2143,
      "added": 2144,
      "fav": 2145,
      "lang": 2146,
      "says": 2147,
      "pis": 2148,
      "sance": 2149,
      "peur": 2150,
      "perdu": 2151,
      "immen": 2152,
      "escap": 2153,
      "offi": 2154,
      "france": 2155,
      "taking": 2156,
      "allu": 2157,
      "croy": 2158,
      "savoir": 2159,
      "agit": 2160,
      "besides": 2161,
      "effort": 2162,
      "ingé": 2163,
      "surface": 2164,
      "john": 2165,
      "ened": 2166,
      "ible": 2167,
      "bonacieux": 2168,
      "donné": 2169,
      "happen": 2170,
      "chapter": 2171,
      "chau": 2172,
      "pale": 2173,
      "leg": 2174,
      "natur": 2175,
      "plaisir": 2176,
      "action": 2177,
      "anged": 2178,
      "surprise": 2179,
      "sitôt": 2180,
      "termin": 2181,
      "bonheur": 2182,
      "vin": 2183,
      "mathil": 2184,
      "mathilde": 2185,
      "rière": 2186,
      "need": 2187,
      "parais": 2188,
      "compl": 2189,
      "fs": 2190,
      "sound": 2191,
      "roy": 2192,
      "angle": 2193,
      "diffe": 2194,
      "mole": 2195,
      "marquis": 2196,
      "châ": 2197,
      "fé": 2198,
      "ution": 2199,
      "answer": 2200,
      "ral": 2201,
      "ciel": 2202,
      "ctions": 2203,
      "sister": 2204,
      "sû": 2205,
      "hy": 2206,
      "trouva": 2207,
      "entered": 2208,
      "élo": 2209,
      "deep": 2210,
      "carried": 2211,
      "ute": 2212,
      "thin": 2213,
      "reporter": 2214,
      "dies": 2215,
      "camp": 2216,
      "nouvelle": 2217,
      "super": 2218,
      "villa": 2219,
      "mots": 2220,
      "visage": 2221,
      "certaine": 2222,
      "eight": 2223,
      "clear": 2224,
      "livres": 2225,
      "herbert": 2226,
      "fif": 2227,
      "grâ": 2228,
      "affe": 2229,
      "certainly": 2230,
      "convi": 2231,
      "enfants": 2232,
      "harbert": 2233,
      "fils": 2234,
      "mauvais": 2235,
      "illi": 2236,
      "ably": 2237,
      "femmes": 2238,
      "sie": 2239,
      "bring": 2240,
      "mission": 2241,
      "fis": 2242,
      "pois": 2243,
      "bran": 2244,
      "voulait": 2245,
      "family": 2246,
      "beneath": 2247,
      "somet": 2248,
      "cents": 2249,
      "ene": 2250,
      "plate": 2251,
      "gring": 2252,
      "dès": 2253,
      "rton": 2254,
      "ayrton": 2255,
      "sometimes": 2256,
      "env": 2257,
      "minis": 2258,
      "women": 2259,
      "prudence": 2260,
      "ingénie": 2261,
      "acle": 2262,
      "george": 2263,
      "marri": 2264,
      "whether": 2265,
      "zz": 2266,
      "mere": 2267,
      "past": 2268,
      "kes": 2269,
      "dés": 2270,
      "chev": 2271,
      "opin": 2272,
      "um": 2273,
      "town": 2274,
      "jeunes": 2275,
      "airs": 2276,
      "spir": 2277,
      "promen": 2278,
      "terr": 2279,
      "tingu": 2280,
      "qua": 2281,
      "seeing": 2282,
      "lect": 2283,
      "service": 2284,
      "ordre": 2285,
      "strange": 2286,
      "cteur": 2287,
      "either": 2288,
      "company": 2289,
      "gringoire": 2290,
      "dait": 2291,
      "−−": 2292,
      "remarqu": 2293,
      "shore": 2294,
      "cous": 2295,
      "dge": 2296,
      "las": 2297,
      "pensée": 2298,
      "employ": 2299,
      "duchessa": 2300,
      "sive": 2301,
      "irait": 2302,
      "connu": 2303,
      "break": 2304,
      "spoke": 2305,
      "instru": 2306,
      "aime": 2307,
      "absolu": 2308,
      "écl": 2309,
      "ised": 2310,
      "bey": 2311,
      "douce": 2312,
      "mouth": 2313,
      "engineer": 2314,
      "avan": 2315,
      "live": 2316,
      "bris": 2317,
      "expression": 2318,
      "ha": 2319,
      "ws": 2320,
      "reç": 2321,
      "qual": 2322,
      "cie": 2323,
      "écout": 2324,
      "enter": 2325,
      "geait": 2326,
      "justice": 2327,
      "bais": 2328,
      "cav": 2329,
      "derrière": 2330,
      "famille": 2331,
      "iers": 2332,
      "thre": 2333,
      "real": 2334,
      "aussitôt": 2335,
      "placed": 2336,
      "deli": 2337,
      "ette": 2338,
      "aie": 2339,
      "fied": 2340,
      "horiz": 2341,
      "existence": 2342,
      "lequel": 2343,
      "seiz": 2344,
      "bennet": 2345,
      "seigneur": 2346,
      "zed": 2347,
      "ablement": 2348,
      "dez": 2349,
      "within": 2350,
      "désir": 2351,
      "sleep": 2352,
      "vil": 2353,
      "ix": 2354,
      "leas": 2355,
      "surtout": 2356,
      "cking": 2357,
      "become": 2358,
      "perfect": 2359,
      "nées": 2360,
      "îtres": 2361,
      "rouge": 2362,
      "bingley": 2363,
      "épau": 2364,
      "laisser": 2365,
      "shoul": 2366,
      "gau": 2367,
      "jim": 2368,
      "earth": 2369,
      "ingénieur": 2370,
      "sum": 2371,
      "fres": 2372,
      "vident": 2373,
      "begin": 2374,
      "pleasure": 2375,
      "grâce": 2376,
      "pon": 2377,
      "worth": 2378,
      "garçon": 2379,
      "rênal": 2380,
      "command": 2381,
      "year": 2382,
      "lég": 2383,
      "manner": 2384,
      "crain": 2385,
      "sommes": 2386,
      "èce": 2387,
      "help": 2388,
      "qué": 2389,
      "means": 2390,
      "frère": 2391,
      "book": 2392,
      "human": 2393,
      "consider": 2394,
      "forme": 2395,
      "renal": 2396,
      "aven": 2397,
      "extre": 2398,
      "voici": 2399,
      "dau": 2400,
      "leng": 2401,
      "mul": 2402,
      "strong": 2403,
      "malgré": 2404,
      "soleil": 2405,
      "general": 2406,
      "tin": 2407,
      "ual": 2408,
      "tez": 2409,
      "wee": 2410,
      "scar": 2411,
      "wed": 2412,
      "yourself": 2413,
      "children": 2414,
      "_nautilus": 2415,
      "dut": 2416,
      "aston": 2417,
      "ffé": 2418,
      "ajouta": 2419,
      "_nautilus_": 2420,
      "immedi": 2421,
      "ular": 2422,
      "vide": 2423,
      "cry": 2424,
      "regret": 2425,
      "ément": 2426,
      "received": 2427,
      "cœur": 2428,
      "pardon": 2429,
      "partir": 2430,
      "moiselle": 2431,
      "cing": 2432,
      "imed": 2433,
      "star": 2434,
      "salle": 2435,
      "froid": 2436,
      "uns": 2437,
      "extr": 2438,
      "demander": 2439,
      "tort": 2440,
      "thor": 2441,
      "poir": 2442,
      "acti": 2443,
      "circu": 2444,
      "bi": 2445,
      "esti": 2446,
      "observ": 2447,
      "saying": 2448,
      "nér": 2449,
      "état": 2450,
      "allons": 2451,
      "posses": 2452,
      "magnifi": 2453,
      "hat": 2454,
      "spr": 2455,
      "gentlemen": 2456,
      "lets": 2457,
      "joie": 2458,
      "somme": 2459,
      "fright": 2460,
      "therefore": 2461,
      "direction": 2462,
      "phy": 2463,
      "trom": 2464,
      "immense": 2465,
      "pected": 2466,
      "marin": 2467,
      "burn": 2468,
      "entendu": 2469,
      "exc": 2470,
      "stopped": 2471,
      "length": 2472,
      "han": 2473,
      "lique": 2474,
      "vérité": 2475,
      "moyen": 2476,
      "saient": 2477,
      "connaître": 2478,
      "maîtres": 2479,
      "fortun": 2480,
      "train": 2481,
      "jam": 2482,
      "post": 2483,
      "remar": 2484,
      "ously": 2485,
      "beaut": 2486,
      "supp": 2487,
      "accord": 2488,
      "considé": 2489,
      "piece": 2490,
      "winter": 2491,
      "atte": 2492,
      "alla": 2493,
      "lish": 2494,
      "paroles": 2495,
      "plut": 2496,
      "neu": 2497,
      "dernier": 2498,
      "holmes": 2499,
      "petits": 2500,
      "jur": 2501,
      "aged": 2502,
      "board": 2503,
      "assis": 2504,
      "phil": 2505,
      "felton": 2506,
      "lear": 2507,
      "continua": 2508,
      "fish": 2509,
      "line": 2510,
      "rage": 2511,
      "ellement": 2512,
      "sembla": 2513,
      "avantage": 2514,
      "droit": 2515,
      "èse": 2516,
      "regardait": 2517,
      "nombre": 2518,
      "science": 2519,
      "ême": 2520,
      "îner": 2521,
      "pret": 2522,
      "ls": 2523,
      "animal": 2524,
      "pair": 2525,
      "oud": 2526,
      "vient": 2527,
      "louis": 2528,
      "voiture": 2529,
      "horizon": 2530,
      "ker": 2531,
      "quick": 2532,
      "intel": 2533,
      "tears": 2534,
      "sons": 2535,
      "ordinaire": 2536,
      "tranquille": 2537,
      "condition": 2538,
      "vely": 2539,
      "majest": 2540,
      "opinion": 2541,
      "assu": 2542,
      "teen": 2543,
      "stay": 2544,
      "neither": 2545,
      "parole": 2546,
      "thro": 2547,
      "chac": 2548,
      "aign": 2549,
      "pron": 2550,
      "distingu": 2551,
      "gagn": 2552,
      "pan": 2553,
      "ching": 2554,
      "lles": 2555,
      "san": 2556,
      "prouv": 2557,
      "ring": 2558,
      "sw": 2559,
      "rich": 2560,
      "appa": 2561,
      "préci": 2562,
      "noble": 2563,
      "polit": 2564,
      "impat": 2565,
      "horri": 2566,
      "mad": 2567,
      "lips": 2568,
      "notice": 2569,
      "public": 2570,
      "writ": 2571,
      "chur": 2572,
      "else": 2573,
      "envoy": 2574,
      "grave": 2575,
      "propos": 2576,
      "pouvais": 2577,
      "garde": 2578,
      "os": 2579,
      "voulez": 2580,
      "complete": 2581,
      "var": 2582,
      "ased": 2583,
      "coups": 2584,
      "itself": 2585,
      "street": 2586,
      "necessary": 2587,
      "eded": 2588,
      "fast": 2589,
      "double": 2590,
      "thoughts": 2591,
      "érie": 2592,
      "reached": 2593,
      "ina": 2594,
      "sept": 2595,
      "stone": 2596,
      "ctor": 2597,
      "ii": 2598,
      "lever": 2599,
      "avou": 2600,
      "resol": 2601,
      "commun": 2602,
      "étrange": 2603,
      "violent": 2604,
      "profonde": 2605,
      "croire": 2606,
      "moments": 2607,
      "mousquet": 2608,
      "bad": 2609,
      "nar": 2610,
      "incre": 2611,
      "blood": 2612,
      "natural": 2613,
      "eaux": 2614,
      "ones": 2615,
      "étant": 2616,
      "venue": 2617,
      "arrived": 2618,
      "voulu": 2619,
      "field": 2620,
      "éclat": 2621,
      "savait": 2622,
      "slow": 2623,
      "bear": 2624,
      "vieille": 2625,
      "offici": 2626,
      "arriver": 2627,
      "beauti": 2628,
      "exclaimed": 2629,
      "vite": 2630,
      "meet": 2631,
      "génér": 2632,
      "standing": 2633,
      "asi": 2634,
      "chan": 2635,
      "tried": 2636,
      "pouvoir": 2637,
      "fenêtre": 2638,
      "situation": 2639,
      "daugh": 2640,
      "ended": 2641,
      "quait": 2642,
      "phileas": 2643,
      "hes": 2644,
      "urer": 2645,
      "camille": 2646,
      "tic": 2647,
      "iller": 2648,
      "brus": 2649,
      "struck": 2650,
      "côte": 2651,
      "wanted": 2652,
      "tirer": 2653,
      "cris": 2654,
      "blow": 2655,
      "tren": 2656,
      "aces": 2657,
      "sées": 2658,
      "tress": 2659,
      "embarr": 2660,
      "--\"": 2661,
      "ires": 2662,
      "savez": 2663,
      "tone": 2664,
      "trees": 2665,
      "histoire": 2666,
      "afin": 2667,
      "cular": 2668,
      "wick": 2669,
      "rapide": 2670,
      "fresh": 2671,
      "immediately": 2672,
      "account": 2673,
      "compte": 2674,
      "ole": 2675,
      "river": 2676,
      "heureuse": 2677,
      "accus": 2678,
      "affection": 2679,
      "refus": 2680,
      "déses": 2681,
      "hair": 2682,
      "nage": 2683,
      "wished": 2684,
      "interest": 2685,
      "itié": 2686,
      "impres": 2687,
      "talk": 2688,
      "scho": 2689,
      "itre": 2690,
      "princi": 2691,
      "faites": 2692,
      "dressed": 2693,
      "ots": 2694,
      "oux": 2695,
      "parfaite": 2696,
      "dents": 2697,
      "larmes": 2698,
      "honneur": 2699,
      "glass": 2700,
      "lies": 2701,
      "grou": 2702,
      "dites": 2703,
      "saire": 2704,
      "sett": 2705,
      "ba": 2706,
      "drew": 2707,
      "itable": 2708,
      "lac": 2709,
      "lad": 2710,
      "vet": 2711,
      "former": 2712,
      "quiet": 2713,
      "trouvé": 2714,
      "donn": 2715,
      "série": 2716,
      "bir": 2717,
      "big": 2718,
      "village": 2719,
      "bis": 2720,
      "west": 2721,
      "sold": 2722,
      "due": 2723,
      "church": 2724,
      "tis": 2725,
      "conce": 2726,
      "montre": 2727,
      "travail": 2728,
      "refle": 2729,
      "entr": 2730,
      "grat": 2731,
      "charge": 2732,
      "mademoiselle": 2733,
      "rester": 2734,
      "sad": 2735,
      "ène": 2736,
      "lumi": 2737,
      "ose": 2738,
      "whis": 2739,
      "mai": 2740,
      "oe": 2741,
      "rem": 2742,
      "essay": 2743,
      "amen": 2744,
      "police": 2745,
      "carry": 2746,
      "months": 2747,
      "éloign": 2748,
      "invit": 2749,
      "chie": 2750,
      "pere": 2751,
      "mise": 2752,
      "crow": 2753,
      "compagnons": 2754,
      "companions": 2755,
      "bâ": 2756,
      "suppose": 2757,
      "vir": 2758,
      "murmur": 2759,
      "sentiment": 2760,
      "étions": 2761,
      "serious": 2762,
      "propre": 2763,
      "plutôt": 2764,
      "ents": 2765,
      "lue": 2766,
      "fered": 2767,
      "calm": 2768,
      "tas": 2769,
      "quement": 2770,
      "poser": 2771,
      "closed": 2772,
      "ignor": 2773,
      "ète": 2774,
      "adres": 2775,
      "pourrait": 2776,
      "manger": 2777,
      "manière": 2778,
      "fini": 2779,
      "obst": 2780,
      "fier": 2781,
      "hing": 2782,
      "uve": 2783,
      "sac": 2784,
      "gold": 2785,
      "soul": 2786,
      "environ": 2787,
      "repro": 2788,
      "prin": 2789,
      "business": 2790,
      "flow": 2791,
      "rappe": 2792,
      "miles": 2793,
      "sauv": 2794,
      "waiting": 2795,
      "orte": 2796,
      "rire": 2797,
      "libert": 2798,
      "deci": 2799,
      "quels": 2800,
      "rece": 2801,
      "silent": 2802,
      "pisto": 2803,
      "quasi": 2804,
      "ries": 2805,
      "salon": 2806,
      "crime": 2807,
      "souvenir": 2808,
      "juste": 2809,
      "happiness": 2810,
      "examin": 2811,
      "smo": 2812,
      "reed": 2813,
      "incl": 2814,
      "passa": 2815,
      "lying": 2816,
      "intent": 2817,
      "shut": 2818,
      "ption": 2819,
      "),": 2820,
      "nab": 2821,
      "ensuite": 2822,
      "moved": 2823,
      "plein": 2824,
      "regarda": 2825,
      "lond": 2826,
      "ara": 2827,
      "chir": 2828,
      "maheu": 2829,
      "accep": 2830,
      "extreme": 2831,
      "ior": 2832,
      "object": 2833,
      "remember": 2834,
      "eat": 2835,
      "send": 2836,
      "modo": 2837,
      "exact": 2838,
      "londres": 2839,
      "cée": 2840,
      "lière": 2841,
      "apres": 2842,
      "agré": 2843,
      "monter": 2844,
      "journée": 2845,
      "franç": 2846,
      "obliged": 2847,
      "beautiful": 2848,
      "mie": 2849,
      "rav": 2850,
      "quasimodo": 2851,
      "assur": 2852,
      "étend": 2853,
      "retched": 2854,
      "mach": 2855,
      "canad": 2856,
      "morrow": 2857,
      "later": 2858,
      "ref": 2859,
      "soup": 2860,
      "viend": 2861,
      "puisque": 2862,
      "merci": 2863,
      "pin": 2864,
      "reach": 2865,
      "quitter": 2866,
      "ather": 2867,
      "atures": 2868,
      "anti": 2869,
      "liers": 2870,
      "circum": 2871,
      "pretty": 2872,
      "îmes": 2873,
      "chien": 2874,
      "riche": 2875,
      "grav": 2876,
      "bouche": 2877,
      "kne": 2878,
      "ital": 2879,
      "allez": 2880,
      "compren": 2881,
      "neb": 2882,
      "jourd": 2883,
      "lincol": 2884,
      "érieur": 2885,
      "different": 2886,
      "fil": 2887,
      "gouver": 2888,
      "nap": 2889,
      "lived": 2890,
      "plant": 2891,
      "neuf": 2892,
      "fren": 2893,
      "éclair": 2894,
      "around": 2895,
      "thé": 2896,
      "parmi": 2897,
      "capable": 2898,
      "hui": 2899,
      "stop": 2900,
      "sortir": 2901,
      "lincoln": 2902,
      "neigh": 2903,
      "calme": 2904,
      "pti": 2905,
      "amer": 2906,
      "lumière": 2907,
      "aujourd": 2908,
      "maine": 2909,
      "passait": 2910,
      "sombre": 2911,
      "yer": 2912,
      "chée": 2913,
      "paru": 2914,
      "key": 2915,
      "gover": 2916,
      "messieurs": 2917,
      "cria": 2918,
      "easy": 2919,
      "oubli": 2920,
      "nel": 2921,
      "state": 2922,
      "noise": 2923,
      "tempt": 2924,
      "cad": 2925,
      "stup": 2926,
      "fan": 2927,
      "mlle": 2928,
      "ung": 2929,
      "adv": 2930,
      "haute": 2931,
      "avent": 2932,
      "repeated": 2933,
      "sez": 2934,
      "rob": 2935,
      "faction": 2936,
      "observed": 2937,
      "kit": 2938,
      "tier": 2939,
      "box": 2940,
      "rents": 2941,
      "chas": 2942,
      "living": 2943,
      "feeling": 2944,
      "smile": 2945,
      "ball": 2946,
      "rang": 2947,
      "extra": 2948,
      "espér": 2949,
      "carriage": 2950,
      "hôtel": 2951,
      "happened": 2952,
      "lest": 2953,
      "tomber": 2954,
      "rés": 2955,
      "servant": 2956,
      "suivre": 2957,
      "dan": 2958,
      "vivre": 2959,
      "bread": 2960,
      "inct": 2961,
      "attendre": 2962,
      "dress": 2963,
      "aint": 2964,
      "songe": 2965,
      "sli": 2966,
      "égl": 2967,
      "êtres": 2968,
      "sujet": 2969,
      "dream": 2970,
      "restait": 2971,
      "afr": 2972,
      "dog": 2973,
      "empê": 2974,
      "afraid": 2975,
      "tur": 2976,
      "venture": 2977,
      "colons": 2978,
      "vary": 2979,
      "étab": 2980,
      "aperce": 2981,
      "degre": 2982,
      "ross": 2983,
      "reng": 2984,
      "endroit": 2985,
      "doit": 2986,
      "broken": 2987,
      "london": 2988,
      "musk": 2989,
      "église": 2990,
      "scr": 2991,
      "ours": 2992,
      "sig": 2993,
      "forward": 2994,
      "combien": 2995,
      "shar": 2996,
      "voyant": 2997,
      "walked": 2998,
      "chacun": 2999,
      "thér": 3000,
      "illé": 3001,
      "18": 3002,
      "gate": 3003,
      "reconnais": 3004,
      "deal": 3005,
      "duc": 3006,
      "alement": 3007,
      "général": 3008,
      "livre": 3009,
      "sailor": 3010,
      "flé": 3011,
      "gest": 3012,
      "annon": 3013,
      "effect": 3014,
      "extrême": 3015,
      "aded": 3016,
      "leaving": 3017,
      "expect": 3018,
      "illed": 3019,
      "juge": 3020,
      "aî": 3021,
      "dîner": 3022,
      "avions": 3023,
      "acqu": 3024,
      "projet": 3025,
      "thérèse": 3026,
      "èle": 3027,
      "fool": 3028,
      "répondre": 3029,
      "sourire": 3030,
      "dain": 3031,
      "ensemble": 3032,
      "conclu": 3033,
      "voyez": 3034,
      "breath": 3035,
      "velop": 3036,
      "heavy": 3037,
      "paraissait": 3038,
      "scarce": 3039,
      "tap": 3040,
      "wild": 3041,
      "quelqu": 3042,
      "charac": 3043,
      "entrer": 3044,
      "écou": 3045,
      "thick": 3046,
      "forget": 3047,
      "brave": 3048,
      "belong": 3049,
      "ennu": 3050,
      "gues": 3051,
      "cros": 3052,
      "trouve": 3053,
      "bank": 3054,
      "slight": 3055,
      "conv": 3056,
      "obs": 3057,
      "english": 3058,
      "turning": 3059,
      "middle": 3060,
      "lèvres": 3061,
      "pil": 3062,
      "pent": 3063,
      "del": 3064,
      "ombre": 3065,
      "concer": 3066,
      "ghted": 3067,
      "therese": 3068,
      "tesse": 3069,
      "phras": 3070,
      "embar": 3071,
      "présence": 3072,
      "compagnie": 3073,
      "daughter": 3074,
      "entire": 3075,
      "planchet": 3076,
      "laid": 3077,
      "illon": 3078,
      "donna": 3079,
      "presence": 3080,
      "dernière": 3081,
      "gle": 3082,
      "ric": 3083,
      "abs": 3084,
      "vier": 3085,
      "courant": 3086,
      "faute": 3087,
      "horrible": 3088,
      "trente": 3089,
      "ôle": 3090,
      "cen": 3091,
      "omb": 3092,
      "faisant": 3093,
      "vague": 3094,
      "fon": 3095,
      "utter": 3096,
      "filled": 3097,
      "obli": 3098,
      "sentait": 3099,
      "pho": 3100,
      "bovary": 3101,
      "regarder": 3102,
      "noy": 3103,
      "minute": 3104,
      "thirty": 3105,
      "ième": 3106,
      "rejo": 3107,
      "attr": 3108,
      "dos": 3109,
      "direct": 3110,
      "champ": 3111,
      "excellent": 3112,
      "?»": 3113,
      "gie": 3114,
      "seven": 3115,
      "streng": 3116,
      "appu": 3117,
      "penser": 3118,
      "hasard": 3119,
      "loved": 3120,
      "donnait": 3121,
      "possi": 3122,
      "profess": 3123,
      "cler": 3124,
      "meille": 3125,
      "conven": 3126,
      "cture": 3127,
      "milles": 3128,
      "speaking": 3129,
      "priest": 3130,
      "vraiment": 3131,
      "circumst": 3132,
      "nord": 3133,
      "demeur": 3134,
      "ress": 3135,
      "consul": 3136,
      "fray": 3137,
      "giving": 3138,
      "raised": 3139,
      "flot": 3140,
      "çons": 3141,
      "immo": 3142,
      "arrivé": 3143,
      "step": 3144,
      "following": 3145,
      "mariage": 3146,
      "garden": 3147,
      "lead": 3148,
      "demain": 3149,
      "across": 3150,
      "chapitre": 3151,
      "gauche": 3152,
      "law": 3153,
      "fré": 3154,
      "vic": 3155,
      "néces": 3156,
      "drait": 3157,
      "mouvement": 3158,
      "thinking": 3159,
      "mant": 3160,
      "vap": 3161,
      "ists": 3162,
      "fice": 3163,
      "proc": 3164,
      "singu": 3165,
      "furn": 3166,
      "lamp": 3167,
      "resu": 3168,
      "cover": 3169,
      "dispos": 3170,
      "gli": 3171,
      "hall": 3172,
      "pun": 3173,
      "orter": 3174,
      "parlait": 3175,
      "foule": 3176,
      "tir": 3177,
      "iné": 3178,
      "comes": 3179,
      "midst": 3180,
      "ually": 3181,
      "ago": 3182,
      "fight": 3183,
      "week": 3184,
      ",--": 3185,
      "fing": 3186,
      "rencontre": 3187,
      "prevent": 3188,
      "particular": 3189,
      "chief": 3190,
      "filles": 3191,
      "idi": 3192,
      "pont": 3193,
      "solit": 3194,
      "doing": 3195,
      "reply": 3196,
      "grandes": 3197,
      "demande": 3198,
      "chevaux": 3199,
      "ial": 3200,
      "arbres": 3201,
      "monseigneur": 3202,
      "pic": 3203,
      "miser": 3204,
      "ceive": 3205,
      "commence": 3206,
      "quinze": 3207,
      "bly": 3208,
      "common": 3209,
      "venaient": 3210,
      "certainement": 3211,
      "caut": 3212,
      "nent": 3213,
      "ingly": 3214,
      "vessel": 3215,
      "suivant": 3216,
      "drawing": 3217,
      "burst": 3218,
      "dinner": 3219,
      "obscur": 3220,
      "event": 3221,
      "illu": 3222,
      "diable": 3223,
      "honour": 3224,
      "truth": 3225,
      "isait": 3226,
      "story": 3227,
      "saur": 3228,
      "cesse": 3229,
      "donne": 3230,
      "cross": 3231,
      "spite": 3232,
      "baron": 3233,
      "glance": 3234,
      "warm": 3235,
      "reine": 3236,
      "offer": 3237,
      "siè": 3238,
      "number": 3239,
      "caught": 3240,
      "wickham": 3241,
      "french": 3242,
      "énor": 3243,
      "armes": 3244,
      "chasse": 3245,
      "stor": 3246,
      "habitu": 3247,
      "basse": 3248,
      "entière": 3249,
      "rier": 3250,
      "forgot": 3251,
      "soli": 3252,
      "diri": 3253,
      "exper": 3254,
      "rade": 3255,
      "corral": 3256,
      "usual": 3257,
      "latter": 3258,
      "walk": 3259,
      "inted": 3260,
      "ili": 3261,
      "consent": 3262,
      "départ": 3263,
      "midi": 3264,
      "surprised": 3265,
      "glis": 3266,
      "jac": 3267,
      "ceci": 3268,
      "coast": 3269,
      "doig": 3270,
      "arer": 3271,
      "maîtresse": 3272,
      "late": 3273,
      "nour": 3274,
      "découv": 3275,
      "persu": 3276,
      "mercy": 3277,
      "médi": 3278,
      "creature": 3279,
      "single": 3280,
      "questions": 3281,
      "strength": 3282,
      "quante": 3283,
      "lace": 3284,
      "appearance": 3285,
      "bag": 3286,
      "jardin": 3287,
      "tion": 3288,
      "éco": 3289,
      "faith": 3290,
      "evident": 3291,
      "lour": 3292,
      "escal": 3293,
      "signe": 3294,
      "perdre": 3295,
      "ounds": 3296,
      "steps": 3297,
      "succe": 3298,
      "escape": 3299,
      "professor": 3300,
      "journey": 3301,
      "fixed": 3302,
      "navire": 3303,
      "start": 3304,
      "triste": 3305,
      "grace": 3306,
      "gust": 3307,
      "oppos": 3308,
      "oise": 3309,
      "iter": 3310,
      "arriva": 3311,
      "clé": 3312,
      "soldi": 3313,
      "running": 3314,
      "gun": 3315,
      "squ": 3316,
      "cious": 3317,
      "lettres": 3318,
      "colère": 3319,
      "horses": 3320,
      "watch": 3321,
      "cles": 3322,
      "dir": 3323,
      "curio": 3324,
      "jeta": 3325,
      "nearly": 3326,
      "crowd": 3327,
      "desire": 3328,
      "uttered": 3329,
      "descri": 3330,
      "colle": 3331,
      "résol": 3332,
      "speed": 3333,
      "shop": 3334,
      "arrivée": 3335,
      "ical": 3336,
      "none": 3337,
      "ope": 3338,
      "agon": 3339,
      "çant": 3340,
      "éche": 3341,
      "dia": 3342,
      "bottom": 3343,
      "character": 3344,
      "height": 3345,
      "volu": 3346,
      "view": 3347,
      "suffer": 3348,
      "poison": 3349,
      "ax": 3350,
      "barr": 3351,
      "free": 3352,
      "queen": 3353,
      "hion": 3354,
      "frapp": 3355,
      "letters": 3356,
      "wonder": 3357,
      "pâle": 3358,
      "sûr": 3359,
      "fos": 3360,
      "caract": 3361,
      "beyond": 3362,
      "reur": 3363,
      "move": 3364,
      "influ": 3365,
      "favor": 3366,
      "slowly": 3367,
      "parfaitement": 3368,
      "wise": 3369,
      "années": 3370,
      "voulut": 3371,
      "traver": 3372,
      "ia": 3373,
      "comfort": 3374,
      "diam": 3375,
      "viens": 3376,
      "oeil": 3377,
      "ement": 3378,
      "vast": 3379,
      "dep": 3380,
      "debout": 3381,
      "atten": 3382,
      "provi": 3383,
      "provis": 3384,
      "brû": 3385,
      "tened": 3386,
      "devil": 3387,
      "malheur": 3388,
      "emport": 3389,
      "géné": 3390,
      "mè": 3391,
      "rare": 3392,
      "espe": 3393,
      "viv": 3394,
      "compli": 3395,
      "droite": 3396,
      "explo": 3397,
      "hang": 3398,
      "sca": 3399,
      "clothe": 3400,
      "transport": 3401,
      ",−−": 3402,
      "ama": 3403,
      "sias": 3404,
      "despair": 3405,
      "vivement": 3406,
      "lers": 3407,
      "quelquefois": 3408,
      "north": 3409,
      "kill": 3410,
      "myst": 3411,
      "réflé": 3412,
      "seems": 3413,
      "cuis": 3414,
      "expli": 3415,
      "épais": 3416,
      "imagination": 3417,
      "beginning": 3418,
      "précipit": 3419,
      "school": 3420,
      "constru": 3421,
      "suit": 3422,
      "crus": 3423,
      "subject": 3424,
      "hardly": 3425,
      "talking": 3426,
      "tab": 3427,
      "dité": 3428,
      "réponse": 3429,
      "château": 3430,
      "pac": 3431,
      "dehors": 3432,
      "lam": 3433,
      "agree": 3434,
      "chen": 3435,
      "diffé": 3436,
      "grew": 3437,
      "arrêt": 3438,
      "cinquante": 3439,
      "absence": 3440,
      "blue": 3441,
      "anx": 3442,
      "ladies": 3443,
      "advant": 3444,
      "venge": 3445,
      "arrêta": 3446,
      "revenir": 3447,
      "sacri": 3448,
      "mistress": 3449,
      "heads": 3450,
      "bell": 3451,
      "rain": 3452,
      "ture": 3453,
      "robe": 3454,
      "beaux": 3455,
      "speci": 3456,
      "escalier": 3457,
      "shad": 3458,
      "reuse": 3459,
      "issant": 3460,
      "agé": 3461,
      "cheveux": 3462,
      "windows": 3463,
      "mountain": 3464,
      "decided": 3465,
      "ales": 3466,
      "test": 3467,
      "déon": 3468,
      "tired": 3469,
      "mettait": 3470,
      "occur": 3471,
      "passing": 3472,
      "quette": 3473,
      "depth": 3474,
      "mét": 3475,
      "raient": 3476,
      "savais": 3477,
      "remp": 3478,
      "lean": 3479,
      "riv": 3480,
      "utile": 3481,
      "dément": 3482,
      "honor": 3483,
      "pén": 3484,
      "scarcely": 3485,
      "roland": 3486,
      "minence": 3487,
      "arrière": 3488,
      "diffici": 3489,
      "particu": 3490,
      "dout": 3491,
      "ging": 3492,
      "âche": 3493,
      "pock": 3494,
      "pointed": 3495,
      "décl": 3496,
      "cident": 3497,
      "vig": 3498,
      "ouvrit": 3499,
      "gédéon": 3500,
      "hill": 3501,
      "nul": 3502,
      "oso": 3503,
      "sout": 3504,
      "devoir": 3505,
      "corner": 3506,
      "afterwards": 3507,
      "entement": 3508,
      "istance": 3509,
      "showed": 3510,
      "écrit": 3511,
      "ève": 3512,
      "iner": 3513,
      "étu": 3514,
      "amed": 3515,
      "future": 3516,
      "murm": 3517,
      "heaven": 3518,
      "pronon": 3519,
      "vê": 3520,
      "éprouv": 3521,
      "aval": 3522,
      "waited": 3523,
      "rapport": 3524,
      "impression": 3525,
      "advance": 3526,
      "ros": 3527,
      "mention": 3528,
      "portait": 3529,
      "regardant": 3530,
      "toutefois": 3531,
      "davantage": 3532,
      "uit": 3533,
      "memor": 3534,
      "inté": 3535,
      "quelles": 3536,
      "understood": 3537,
      "regards": 3538,
      "assi": 3539,
      "jeu": 3540,
      "abbé": 3541,
      "quoique": 3542,
      "quarter": 3543,
      "blanche": 3544,
      "curios": 3545,
      "font": 3546,
      "ridi": 3547,
      "plat": 3548,
      "pleine": 3549,
      "attendait": 3550,
      "threw": 3551,
      "philoso": 3552,
      "communic": 3553,
      "green": 3554,
      "chamber": 3555,
      "quarante": 3556,
      "sentiments": 3557,
      "bare": 3558,
      "wil": 3559,
      "ités": 3560,
      "seas": 3561,
      "taille": 3562,
      "anglais": 3563,
      "visite": 3564,
      "orders": 3565,
      "nation": 3566,
      "sement": 3567,
      "rice": 3568,
      "lions": 3569,
      "seconde": 3570,
      "henry": 3571,
      "destin": 3572,
      "ordinary": 3573,
      "seized": 3574,
      "embarras": 3575,
      "hés": 3576,
      "olo": 3577,
      "sand": 3578,
      "tete": 3579,
      "venez": 3580,
      "arrive": 3581,
      "interrup": 3582,
      "draw": 3583,
      "aperçut": 3584,
      "bright": 3585,
      "gas": 3586,
      "oeu": 3587,
      "deur": 3588,
      "etc": 3589,
      "separ": 3590,
      "although": 3591,
      "dol": 3592,
      "satisfaction": 3593,
      "hâ": 3594,
      "spl": 3595,
      "wit": 3596,
      "tiers": 3597,
      "england": 3598,
      "sense": 3599,
      "ctive": 3600,
      "accept": 3601,
      "angleterre": 3602,
      "shadow": 3603,
      "ences": 3604,
      "died": 3605,
      "resta": 3606,
      "palais": 3607,
      "contraire": 3608,
      "except": 3609,
      "easily": 3610,
      "gout": 3611,
      "ket": 3612,
      "cot": 3613,
      "comprendre": 3614,
      "maheude": 3615,
      "acted": 3616,
      "cart": 3617,
      "étrang": 3618,
      "walls": 3619,
      "mourir": 3620,
      "influence": 3621,
      "bate": 3622,
      "cue": 3623,
      "ele": 3624,
      "èvre": 3625,
      "stairs": 3626,
      "musi": 3627,
      "objet": 3628,
      "volcan": 3629,
      "intention": 3630,
      "inet": 3631,
      "avis": 3632,
      "rol": 3633,
      "jeun": 3634,
      "veut": 3635,
      "répét": 3636,
      "broke": 3637,
      "bourge": 3638,
      "ligence": 3639,
      "floor": 3640,
      "fatig": 3641,
      "fashion": 3642,
      "perfectly": 3643,
      "ié": 3644,
      "pray": 3645,
      "coin": 3646,
      "misér": 3647,
      "faisaient": 3648,
      "froide": 3649,
      "collins": 3650,
      "plateau": 3651,
      "save": 3652,
      "za": 3653,
      "relig": 3654,
      "arre": 3655,
      "south": 3656,
      "pouvez": 3657,
      "prudent": 3658,
      "aspect": 3659,
      "illait": 3660,
      "lydia": 3661,
      "twel": 3662,
      "bucking": 3663,
      "pleasant": 3664,
      "rapid": 3665,
      "constant": 3666,
      "buckingham": 3667,
      "bul": 3668,
      "dû": 3669,
      "paper": 3670,
      "rend": 3671,
      "cts": 3672,
      "lette": 3673,
      "portion": 3674,
      "aura": 3675,
      "below": 3676,
      "difficult": 3677,
      "especi": 3678,
      "fles": 3679,
      "page": 3680,
      "indu": 3681,
      "accompagn": 3682,
      "guil": 3683,
      "apport": 3684,
      "visible": 3685,
      "affaires": 3686,
      "colonel": 3687,
      "alth": 3688,
      "serais": 3689,
      "servi": 3690,
      "souf": 3691,
      "charming": 3692,
      "cade": 3693,
      "succes": 3694,
      "darkness": 3695,
      "grie": 3696,
      "chim": 3697,
      "rodu": 3698,
      "getting": 3699,
      "please": 3700,
      "spectacle": 3701,
      "reli": 3702,
      "comman": 3703,
      "introdu": 3704,
      "europe": 3705,
      "mér": 3706,
      "irrit": 3707,
      "moindre": 3708,
      "lock": 3709,
      "déjeun": 3710,
      "discus": 3711,
      "pensa": 3712,
      "pread": 3713,
      "raquin": 3714,
      "ferme": 3715,
      "esseur": 3716,
      "especially": 3717,
      "killed": 3718,
      "levé": 3719,
      "tead": 3720,
      "chi": 3721,
      "rocks": 3722,
      "autrefois": 3723,
      "pouvaient": 3724,
      "genoux": 3725,
      "circonst": 3726,
      "further": 3727,
      "married": 3728,
      "accompl": 3729,
      "lower": 3730,
      "knows": 3731,
      "domest": 3732,
      "shoulders": 3733,
      "bound": 3734,
      "ana": 3735,
      "jehan": 3736,
      "ieuse": 3737,
      "myster": 3738,
      "proce": 3739,
      "blanc": 3740,
      "violence": 3741,
      "fant": 3742,
      "pure": 3743,
      "itr": 3744,
      "ities": 3745,
      "volon": 3746,
      "distur": 3747,
      "glad": 3748,
      "quart": 3749,
      "moitié": 3750,
      "treville": 3751,
      "coat": 3752,
      "découver": 3753,
      "instead": 3754,
      "entendit": 3755,
      "tréville": 3756,
      "fifty": 3757,
      "rons": 3758,
      "reconn": 3759,
      "itions": 3760,
      "deme": 3761,
      "chang": 3762,
      "rested": 3763,
      "000": 3764,
      "neighbour": 3765,
      "hans": 3766,
      "rass": 3767,
      "épo": 3768,
      "espoir": 3769,
      "throw": 3770,
      "loss": 3771,
      "weak": 3772,
      "excit": 3773,
      "perceived": 3774,
      "cousin": 3775,
      "neck": 3776,
      "hood": 3777,
      "mêmes": 3778,
      "didn": 3779,
      "déta": 3780,
      "write": 3781,
      "twelve": 3782,
      "iques": 3783,
      "nés": 3784,
      "era": 3785,
      "aight": 3786,
      "délic": 3787,
      "prote": 3788,
      "homais": 3789,
      "spent": 3790,
      "interrom": 3791,
      "suivi": 3792,
      "quickly": 3793,
      "resumed": 3794,
      ".,": 3795,
      "pav": 3796,
      "ash": 3797,
      "toward": 3798,
      "mage": 3799,
      "hier": 3800,
      "soin": 3801,
      "exemp": 3802,
      "disappeared": 3803,
      "prenez": 3804,
      "straight": 3805,
      "assass": 3806,
      "morce": 3807,
      "firm": 3808,
      "nouvelles": 3809,
      "chaise": 3810,
      "stat": 3811,
      "outside": 3812,
      "expri": 3813,
      "gry": 3814,
      "honest": 3815,
      "explic": 3816,
      "allowed": 3817,
      "épaules": 3818,
      "français": 3819,
      "clothes": 3820,
      "city": 3821,
      "jal": 3822,
      "seated": 3823,
      "auprès": 3824,
      "duke": 3825,
      "ficient": 3826,
      "third": 3827,
      "cule": 3828,
      "laissé": 3829,
      "tellement": 3830,
      "terror": 3831,
      "rapidement": 3832,
      "anxious": 3833,
      "fun": 3834,
      "revint": 3835,
      "isit": 3836,
      "quence": 3837,
      "gea": 3838,
      "nier": 3839,
      "rust": 3840,
      "naturelle": 3841,
      "flan": 3842,
      "jup": 3843,
      "ror": 3844,
      "knowled": 3845,
      "waters": 3846,
      "véritable": 3847,
      "important": 3848,
      "intelligence": 3849,
      "resolved": 3850,
      "requi": 3851,
      "inno": 3852,
      "expected": 3853,
      "iff": 3854,
      "claude": 3855,
      "entendait": 3856,
      "spot": 3857,
      "tomba": 3858,
      "eusse": 3859,
      "iel": 3860,
      "spread": 3861,
      "stream": 3862,
      "listened": 3863,
      "marriage": 3864,
      "ader": 3865,
      "pointe": 3866,
      "poitr": 3867,
      "proper": 3868,
      "race": 3869,
      "sépar": 3870,
      "ishment": 3871,
      "idées": 3872,
      "érieure": 3873,
      "cell": 3874,
      "veill": 3875,
      "fallen": 3876,
      "importance": 3877,
      "paraître": 3878,
      "deta": 3879,
      "changed": 3880,
      "nements": 3881,
      "adventure": 3882,
      "bleu": 3883,
      "support": 3884,
      "muskete": 3885,
      "mn": 3886,
      "pom": 3887,
      "dessous": 3888,
      "marry": 3889,
      "affect": 3890,
      "tenu": 3891,
      "gentil": 3892,
      "profon": 3893,
      "mitted": 3894,
      "premiers": 3895,
      "commença": 3896,
      "bisho": 3897,
      "lent": 3898,
      "nine": 3899,
      "remon": 3900,
      "enfer": 3901,
      "liv": 3902,
      "forest": 3903,
      "handsome": 3904,
      "professeur": 3905,
      "commençait": 3906,
      "prenait": 3907,
      "difficulty": 3908,
      "oir": 3909,
      "enjoy": 3910,
      "leag": 3911,
      "facile": 3912,
      "fati": 3913,
      "circumstances": 3914,
      "apart": 3915,
      "gment": 3916,
      "vert": 3917,
      "acre": 3918,
      "exer": 3919,
      "traî": 3920,
      "pieces": 3921,
      "enor": 3922,
      "elled": 3923,
      "rencontr": 3924,
      "intér": 3925,
      "quently": 3926,
      "narrow": 3927,
      "bourgeois": 3928,
      "bons": 3929,
      "tar": 3930,
      "waves": 3931,
      "âtre": 3932,
      "seau": 3933,
      "libre": 3934,
      "compris": 3935,
      "importe": 3936,
      "demandai": 3937,
      "hesit": 3938,
      "memb": 3939,
      "ury": 3940,
      "poign": 3941,
      "dois": 3942,
      "finished": 3943,
      "laissa": 3944,
      "appuy": 3945,
      "ake": 3946,
      "gni": 3947,
      "ener": 3948,
      "loge": 3949,
      "itement": 3950,
      "whatever": 3951,
      "strugg": 3952,
      "montsou": 3953,
      "sufficient": 3954,
      "reçu": 3955,
      "oce": 3956,
      "équi": 3957,
      "repris": 3958,
      "portrait": 3959,
      "répondis": 3960,
      "lentement": 3961,
      "pê": 3962,
      "arra": 3963,
      "chaval": 3964,
      "amment": 3965,
      "pot": 3966,
      "peau": 3967,
      "discovered": 3968,
      "aft": 3969,
      "heureusement": 3970,
      "ids": 3971,
      "signal": 3972,
      "believed": 3973,
      "sky": 3974,
      "hauteur": 3975,
      "sharp": 3976,
      "époque": 3977,
      "éte": 3978,
      "depart": 3979,
      "alité": 3980,
      "déja": 3981,
      "exe": 3982,
      "pers": 3983,
      "martin": 3984,
      "rising": 3985,
      "aled": 3986,
      "bile": 3987,
      "lée": 3988,
      "station": 3989,
      "rock": 3990,
      "amus": 3991,
      "appel": 3992,
      "lande": 3993,
      "instants": 3994,
      "pleased": 3995,
      "cruel": 3996,
      "malade": 3997,
      "lire": 3998,
      "expé": 3999,
      "longues": 4000,
      "finally": 4001,
      "gide": 4002,
      "arrange": 4003,
      "watched": 4004,
      "suivit": 4005,
      "campagne": 4006,
      "entirely": 4007,
      "atmo": 4008,
      "org": 4009,
      "beat": 4010,
      "tris": 4011,
      "peup": 4012,
      "rég": 4013,
      "grap": 4014,
      "courir": 4015,
      "précis": 4016,
      "opport": 4017,
      "engage": 4018,
      "malheureux": 4019,
      "petites": 4020,
      "advantage": 4021,
      "atmosp": 4022,
      "fet": 4023,
      "inform": 4024,
      "iling": 4025,
      "aimer": 4026,
      "noire": 4027,
      "étude": 4028,
      "calcul": 4029,
      "prépar": 4030,
      "océ": 4031,
      "approach": 4032,
      "lines": 4033,
      "efforts": 4034,
      "considér": 4035,
      "jack": 4036,
      "entour": 4037,
      "chat": 4038,
      "loir": 4039,
      "dread": 4040,
      "pressed": 4041,
      "poitrine": 4042,
      "path": 4043,
      "anne": 4044,
      "levait": 4045,
      "aigu": 4046,
      "mable": 4047,
      "chest": 4048,
      "vere": 4049,
      "corn": 4050,
      "cution": 4051,
      "learned": 4052,
      "difficile": 4053,
      "ocean": 4054,
      "saut": 4055,
      "âge": 4056,
      "épouv": 4057,
      "reconnaître": 4058,
      "arti": 4059,
      "histor": 4060,
      "accident": 4061,
      "finit": 4062,
      "centre": 4063,
      "shot": 4064,
      "effray": 4065,
      "imagine": 4066,
      "mass": 4067,
      "prêt": 4068,
      "intérieur": 4069,
      "ounced": 4070,
      "canot": 4071,
      "promise": 4072,
      "honn": 4073,
      "descendre": 4074,
      "sweet": 4075,
      "pût": 4076,
      "oureux": 4077,
      "levant": 4078,
      "orig": 4079,
      "entrée": 4080,
      "consé": 4081,
      "illard": 4082,
      "news": 4083,
      "habitude": 4084,
      "grosse": 4085,
      "papier": 4086,
      "physi": 4087,
      "athe": 4088,
      "sable": 4089,
      "zen": 4090,
      "secou": 4091,
      "stro": 4092,
      "allée": 4093,
      "plor": 4094,
      "party": 4095,
      "noticed": 4096,
      "inti": 4097,
      "ative": 4098,
      "tenance": 4099,
      "voudr": 4100,
      "brusquement": 4101,
      "offered": 4102,
      "foi": 4103,
      "jusque": 4104,
      "profond": 4105,
      "favour": 4106,
      "enormous": 4107,
      "haus": 4108,
      "zing": 4109,
      "fris": 4110,
      "tender": 4111,
      "obtain": 4112,
      "wrong": 4113,
      "excuse": 4114,
      "caractère": 4115,
      "unique": 4116,
      "peace": 4117,
      "vey": 4118,
      "cile": 4119,
      "distr": 4120,
      "tenant": 4121,
      "tuer": 4122,
      "drag": 4123,
      "drawn": 4124,
      "plaisant": 4125,
      "hypo": 4126,
      "duty": 4127,
      "déjeuner": 4128,
      "oth": 4129,
      "vendre": 4130,
      "parle": 4131,
      "actu": 4132,
      "sortit": 4133,
      "presented": 4134,
      "faim": 4135,
      "faits": 4136,
      "répli": 4137,
      "riez": 4138,
      "companion": 4139,
      "........": 4140,
      "lun": 4141,
      "œil": 4142,
      "dement": 4143,
      "delight": 4144,
      "henne": 4145,
      "spirit": 4146,
      "knees": 4147,
      "clélia": 4148,
      "fatigue": 4149,
      "!…": 4150,
      "hér": 4151,
      "armed": 4152,
      "sert": 4153,
      "pensées": 4154,
      "jud": 4155,
      "opening": 4156,
      "flex": 4157,
      "beauty": 4158,
      "anxi": 4159,
      "ado": 4160,
      "corde": 4161,
      "agréable": 4162,
      "pacifi": 4163,
      "naient": 4164,
      "lake": 4165,
      "serve": 4166,
      "chers": 4167,
      "forty": 4168,
      "clelia": 4169,
      "promis": 4170,
      "dames": 4171,
      "eussent": 4172,
      "recogni": 4173,
      "oreille": 4174,
      "thrown": 4175,
      "gideon": 4176,
      "océan": 4177,
      "gon": 4178,
      "gale": 4179,
      "noon": 4180,
      "consci": 4181,
      "prêtre": 4182,
      "ult": 4183,
      "bow": 4184,
      "places": 4185,
      "attack": 4186,
      "ligne": 4187,
      "worthy": 4188,
      "impatience": 4189,
      "pocket": 4190,
      "opportun": 4191,
      "gs": 4192,
      "tte": 4193,
      "évé": 4194,
      "commis": 4195,
      "stranger": 4196,
      "humb": 4197,
      "profound": 4198,
      "trace": 4199,
      "jambes": 4200,
      "bateau": 4201,
      "épous": 4202,
      "reck": 4203,
      "année": 4204,
      "forte": 4205,
      "ouvrir": 4206,
      "craign": 4207,
      "douleur": 4208,
      "talked": 4209,
      "langu": 4210,
      "vari": 4211,
      "bâti": 4212,
      "nécessaire": 4213,
      "gai": 4214,
      "envelop": 4215,
      "chés": 4216,
      "treat": 4217,
      "iere": 4218,
      "gris": 4219,
      "jolie": 4220,
      "farther": 4221,
      "souri": 4222,
      "walking": 4223,
      "faces": 4224,
      "sult": 4225,
      "fleur": 4226,
      "provo": 4227,
      "crut": 4228,
      "méde": 4229,
      "trouvai": 4230,
      "rooms": 4231,
      "aring": 4232,
      "beast": 4233,
      "racon": 4234,
      "regular": 4235,
      "rassi": 4236,
      "admiration": 4237,
      "symp": 4238,
      "murmura": 4239,
      "hennebeau": 4240,
      "forced": 4241,
      "dirent": 4242,
      "civil": 4243,
      "pièce": 4244,
      "guide": 4245,
      "drink": 4246,
      "archite": 4247,
      "occupied": 4248,
      "échapp": 4249,
      "levaque": 4250,
      "teeth": 4251,
      "aimait": 4252,
      "réflex": 4253,
      "mary": 4254,
      "coucher": 4255,
      "dying": 4256,
      "incident": 4257,
      "bishop": 4258,
      "soft": 4259,
      "sty": 4260,
      "rid": 4261,
      "roof": 4262,
      "fraî": 4263,
      "allant": 4264,
      "dée": 4265,
      "exé": 4266,
      "goût": 4267,
      "seem": 4268,
      "greatly": 4269,
      "priv": 4270,
      "croyait": 4271,
      "cés": 4272,
      "tue": 4273,
      "inhabit": 4274,
      "devo": 4275,
      "celles": 4276,
      "conscience": 4277,
      "moor": 4278,
      "serai": 4279,
      "pensait": 4280,
      "tantôt": 4281,
      "empty": 4282,
      "jeter": 4283,
      "enfon": 4284,
      "scene": 4285,
      "absolument": 4286,
      "paid": 4287,
      "envie": 4288,
      "dure": 4289,
      "veu": 4290,
      "dissi": 4291,
      "arrivait": 4292,
      "thank": 4293,
      "parents": 4294,
      "suiv": 4295,
      "officer": 4296,
      "cieux": 4297,
      "gis": 4298,
      "tam": 4299,
      "ann": 4300,
      "search": 4301,
      "ouses": 4302,
      "note": 4303,
      "parlé": 4304,
      "abbe": 4305,
      "mode": 4306,
      "cares": 4307,
      "frank": 4308,
      "climb": 4309,
      "chaud": 4310,
      "inconnu": 4311,
      "alle": 4312,
      "aver": 4313,
      "absor": 4314,
      "douze": 4315,
      "auraient": 4316,
      "issaient": 4317,
      "société": 4318,
      "written": 4319,
      "nest": 4320,
      "pity": 4321,
      "abond": 4322,
      "deser": 4323,
      "weather": 4324,
      "coal": 4325,
      "sentence": 4326,
      "devaient": 4327,
      "clou": 4328,
      "pride": 4329,
      "camara": 4330,
      "sitting": 4331,
      "early": 4332,
      "camarades": 4333,
      "çaient": 4334,
      "silen": 4335,
      "lieues": 4336,
      "branches": 4337,
      "shoulder": 4338,
      "crainte": 4339,
      "pant": 4340,
      "sword": 4341,
      "élan": 4342,
      "alous": 4343,
      "forth": 4344,
      "movement": 4345,
      "fax": 4346,
      "laissait": 4347,
      "probable": 4348,
      "kis": 4349,
      "mbe": 4350,
      "onze": 4351,
      "admi": 4352,
      "grad": 4353,
      "doux": 4354,
      "genre": 4355,
      "**": 4356,
      "rappro": 4357,
      "ride": 4358,
      "comb": 4359,
      "chapeau": 4360,
      "started": 4361,
      "forgotten": 4362,
      "lt": 4363,
      "ouest": 4364,
      "rentr": 4365,
      "ending": 4366,
      "affir": 4367,
      "knowing": 4368,
      "ferait": 4369,
      "beside": 4370,
      "dry": 4371,
      "build": 4372,
      "espèce": 4373,
      "satisfied": 4374,
      "legs": 4375,
      "absolute": 4376,
      "fortunate": 4377,
      "cree": 4378,
      "fal": 4379,
      "flat": 4380,
      "wine": 4381,
      "eness": 4382,
      "appris": 4383,
      "voie": 4384,
      "docteur": 4385,
      "settled": 4386,
      "caus": 4387,
      "sab": 4388,
      "sage": 4389,
      "yel": 4390,
      "repos": 4391,
      "degré": 4392,
      "determin": 4393,
      "ateur": 4394,
      "cost": 4395,
      "tended": 4396,
      "settle": 4397,
      "désespoir": 4398,
      "exactly": 4399,
      "opposite": 4400,
      "nau": 4401,
      "vor": 4402,
      "wide": 4403,
      "semaine": 4404,
      "offr": 4405,
      "stam": 4406,
      "----": 4407,
      "endor": 4408,
      "simply": 4409,
      "vaste": 4410,
      "bility": 4411,
      "pleur": 4412,
      "oured": 4413,
      "theless": 4414,
      "omin": 4415,
      "irons": 4416,
      "rentre": 4417,
      "mépris": 4418,
      "signor": 4419,
      "battre": 4420,
      "issement": 4421,
      "lotte": 4422,
      "conditions": 4423,
      "square": 4424,
      "détails": 4425,
      "uil": 4426,
      "resp": 4427,
      "disant": 4428,
      "vive": 4429,
      "gnes": 4430,
      "nevertheless": 4431,
      "arrêter": 4432,
      "fairfax": 4433,
      "mauvaise": 4434,
      "épaule": 4435,
      "videmment": 4436,
      "beauté": 4437,
      "énorme": 4438,
      "ears": 4439,
      "fy": 4440,
      "indis": 4441,
      "ession": 4442,
      "ador": 4443,
      "parfois": 4444,
      "montr": 4445,
      "prehen": 4446,
      "devint": 4447,
      "écrire": 4448,
      "promised": 4449,
      "servir": 4450,
      "success": 4451,
      "caval": 4452,
      "occurred": 4453,
      "acon": 4454,
      "ûmes": 4455,
      "assure": 4456,
      "aide": 4457,
      "lose": 4458,
      "brill": 4459,
      "obé": 4460,
      "appelle": 4461,
      "harrison": 4462,
      "entraî": 4463,
      "oli": 4464,
      "tante": 4465,
      "ase": 4466,
      "lion": 4467,
      "étendu": 4468,
      "prat": 4469,
      "lux": 4470,
      "iens": 4471,
      "guard": 4472,
      "temper": 4473,
      "confess": 4474,
      "mbered": 4475,
      "iv": 4476,
      "évidemment": 4477,
      "stir": 4478,
      "chee": 4479,
      "amid": 4480,
      "coqu": 4481,
      "réun": 4482,
      "doctor": 4483,
      "dongo": 4484,
      "venus": 4485,
      "parts": 4486,
      "rub": 4487,
      "ec": 4488,
      "meas": 4489,
      "aupar": 4490,
      "tree": 4491,
      "acte": 4492,
      "fee": 4493,
      "bessie": 4494,
      "geste": 4495,
      "society": 4496,
      "breakfast": 4497,
      "auparavant": 4498,
      "15": 4499,
      "rate": 4500,
      "wis": 4501,
      "chaient": 4502,
      "apper": 4503,
      "agr": 4504,
      "amb": 4505,
      "réus": 4506,
      "récit": 4507,
      "permet": 4508,
      "disparu": 4509,
      "morti": 4510,
      "shook": 4511,
      "approached": 4512,
      "loud": 4513,
      "wore": 4514,
      "spring": 4515,
      "pér": 4516,
      "revol": 4517,
      "invent": 4518,
      "rive": 4519,
      "hip": 4520,
      "améri": 4521,
      "doors": 4522,
      "sentit": 4523,
      "ideas": 4524,
      "compagnon": 4525,
      "épée": 4526,
      "cage": 4527,
      "dant": 4528,
      "mers": 4529,
      "oper": 4530,
      "attempt": 4531,
      "poche": 4532,
      "cop": 4533,
      "thanks": 4534,
      "belles": 4535,
      "pluie": 4536,
      "office": 4537,
      "légère": 4538,
      "domestique": 4539,
      "mité": 4540,
      "parma": 4541,
      "mesure": 4542,
      "spee": 4543,
      "hung": 4544,
      "domin": 4545,
      "ancien": 4546,
      "completely": 4547,
      "liberté": 4548,
      "degrees": 4549,
      "aou": 4550,
      "houses": 4551,
      "ières": 4552,
      "yon": 4553,
      "yiel": 4554,
      "retrouver": 4555,
      "ilt": 4556,
      "étou": 4557,
      "tire": 4558,
      "mbre": 4559,
      "rivage": 4560,
      "aouda": 4561,
      "bun": 4562,
      "dus": 4563,
      "nobody": 4564,
      "soupir": 4565,
      "mena": 4566,
      "twice": 4567,
      "soirée": 4568,
      "presently": 4569,
      "suffis": 4570,
      "gloom": 4571,
      "dolphe": 4572,
      "laire": 4573,
      "makes": 4574,
      "rodolphe": 4575,
      "prodi": 4576,
      "continue": 4577,
      "affair": 4578,
      "inclin": 4579,
      "bent": 4580,
      "bay": 4581,
      "fâ": 4582,
      "ilement": 4583,
      "ani": 4584,
      "orgue": 4585,
      "allaient": 4586,
      "parme": 4587,
      "preser": 4588,
      "temple": 4589,
      "vision": 4590,
      "reprendre": 4591,
      "connaissance": 4592,
      "simplement": 4593,
      "colonists": 4594,
      "oublier": 4595,
      "memory": 4596,
      "rant": 4597,
      "auquel": 4598,
      "rote": 4599,
      "utation": 4600,
      "tiens": 4601,
      "crat": 4602,
      "angers": 4603,
      "courut": 4604,
      "horreur": 4605,
      "brock": 4606,
      "countenance": 4607,
      "basker": 4608,
      "retourner": 4609,
      "impatient": 4610,
      "recevoir": 4611,
      "çai": 4612,
      "aines": 4613,
      "points": 4614,
      "repent": 4615,
      "instinct": 4616,
      "citade": 4617,
      "fenêtres": 4618,
      "shouted": 4619,
      "laughing": 4620,
      "extremely": 4621,
      "ige": 4622,
      "rise": 4623,
      "ud": 4624,
      "ames": 4625,
      "posa": 4626,
      "pourrais": 4627,
      "psy": 4628,
      "interro": 4629,
      "reading": 4630,
      "paraît": 4631,
      "convicts": 4632,
      "gagner": 4633,
      "aventure": 4634,
      "tall": 4635,
      "wrote": 4636,
      "melan": 4637,
      "ourselves": 4638,
      "outre": 4639,
      "allé": 4640,
      "shout": 4641,
      "ishing": 4642,
      "interval": 4643,
      "rushed": 4644,
      "famous": 4645,
      "subst": 4646,
      "possession": 4647,
      "magnificent": 4648,
      "chimney": 4649,
      "intérêt": 4650,
      "game": 4651,
      "hait": 4652,
      "unknown": 4653,
      "liked": 4654,
      "hid": 4655,
      "moving": 4656,
      "soyez": 4657,
      "fever": 4658,
      "leton": 4659,
      "clas": 4660,
      "semblaient": 4661,
      "honte": 4662,
      "falling": 4663,
      "girls": 4664,
      "globe": 4665,
      "increased": 4666,
      "yellow": 4667,
      "inn": 4668,
      "stones": 4669,
      "accent": 4670,
      "cool": 4671,
      "déf": 4672,
      "guère": 4673,
      "pace": 4674,
      "marquise": 4675,
      "purpose": 4676,
      "doucement": 4677,
      "mètres": 4678,
      "demeure": 4679,
      "kno": 4680,
      "mut": 4681,
      "lap": 4682,
      "hiver": 4683,
      "hotel": 4684,
      "shap": 4685,
      "watson": 4686,
      "passant": 4687,
      "garder": 4688,
      "ere": 4689,
      "reve": 4690,
      "quais": 4691,
      "soix": 4692,
      "gram": 4693,
      "wned": 4694,
      "valet": 4695,
      "prix": 4696,
      "latin": 4697,
      "salu": 4698,
      "ministre": 4699,
      "sommeil": 4700,
      "vengeance": 4701,
      "hésit": 4702,
      "kil": 4703,
      "isted": 4704,
      "ilité": 4705,
      "révé": 4706,
      "grève": 4707,
      "soudain": 4708,
      "singular": 4709,
      "jeanlin": 4710,
      "escaped": 4711,
      "threat": 4712,
      "majesté": 4713,
      "kitty": 4714,
      "signifi": 4715,
      "obscurité": 4716,
      "opportunity": 4717,
      "dare": 4718,
      "êts": 4719,
      "inv": 4720,
      "stap": 4721,
      "stretched": 4722,
      "verre": 4723,
      "moon": 4724,
      "lover": 4725,
      "pow": 4726,
      "reté": 4727,
      "croyez": 4728,
      "huge": 4729,
      "habits": 4730,
      "pitié": 4731,
      "conduite": 4732,
      "prenant": 4733,
      "bitter": 4734,
      "intelli": 4735,
      "peuple": 4736,
      "melancho": 4737,
      "cant": 4738,
      "ator": 4739,
      "lik": 4740,
      "sainte": 4741,
      "host": 4742,
      "touch": 4743,
      "motionless": 4744,
      "fifteen": 4745,
      "evidently": 4746,
      "melancholy": 4747,
      "aud": 4748,
      "mante": 4749,
      "dition": 4750,
      "moire": 4751,
      "égy": 4752,
      "meanwhile": 4753,
      "succeeded": 4754,
      "flesh": 4755,
      "leagues": 4756,
      "répliqua": 4757,
      "inutile": 4758,
      "sides": 4759,
      "mosca": 4760,
      "fid": 4761,
      "immédi": 4762,
      "humeur": 4763,
      "indign": 4764,
      "furious": 4765,
      "holding": 4766,
      "fortunately": 4767,
      "crossed": 4768,
      "caution": 4769,
      "ump": 4770,
      "wounded": 4771,
      "desi": 4772,
      "alo": 4773,
      "hig": 4774,
      "firent": 4775,
      "vière": 4776,
      "touched": 4777,
      "greatest": 4778,
      "grow": 4779,
      "contrary": 4780,
      "bilité": 4781,
      "majesty": 4782,
      "immobile": 4783,
      "baskerville": 4784,
      "wretched": 4785,
      "avance": 4786,
      "adis": 4787,
      "hide": 4788,
      "ford": 4789,
      "hot": 4790,
      "appare": 4791,
      "class": 4792,
      "rues": 4793,
      "source": 4794,
      "montait": 4795,
      "murmured": 4796,
      "voudrais": 4797,
      "aunt": 4798,
      "adieu": 4799,
      "sought": 4800,
      "chois": 4801,
      "yester": 4802,
      "claire": 4803,
      "observer": 4804,
      "avenir": 4805,
      "provisions": 4806,
      "soixante": 4807,
      "!...": 4808,
      "wel": 4809,
      "hero": 4810,
      "ennent": 4811,
      "ited": 4812,
      "erait": 4813,
      "chement": 4814,
      "fron": 4815,
      "illet": 4816,
      "venant": 4817,
      "agnes": 4818,
      "broad": 4819,
      "fusil": 4820,
      "feelings": 4821,
      "fancy": 4822,
      "exemple": 4823,
      "organ": 4824,
      "yesterday": 4825,
      "èces": 4826,
      "chal": 4827,
      "uneas": 4828,
      "proch": 4829,
      "ordres": 4830,
      "worse": 4831,
      "animaux": 4832,
      "montrer": 4833,
      "ameri": 4834,
      "empêcher": 4835,
      "az": 4836,
      "ghed": 4837,
      "lune": 4838,
      "pang": 4839,
      "slo": 4840,
      "sier": 4841,
      "jealous": 4842,
      "proud": 4843,
      "révol": 4844,
      "bonnes": 4845,
      "voulais": 4846,
      "ouverte": 4847,
      "fatigu": 4848,
      "cord": 4849,
      "rounded": 4850,
      "tôt": 4851,
      "ening": 4852,
      "eter": 4853,
      "aveu": 4854,
      "sentir": 4855,
      "jeté": 4856,
      "attendant": 4857,
      "guerre": 4858,
      "major": 4859,
      "levée": 4860,
      "officier": 4861,
      "canadian": 4862,
      "oy": 4863,
      "unk": 4864,
      "moder": 4865,
      "souhait": 4866,
      "mélan": 4867,
      "flots": 4868,
      "maud": 4869,
      "grimaud": 4870,
      "saved": 4871,
      "thorn": 4872,
      "burning": 4873,
      "origin": 4874,
      "eager": 4875,
      "pared": 4876,
      "ining": 4877,
      "erai": 4878,
      "unhappy": 4879,
      "acles": 4880,
      "brou": 4881,
      "judge": 4882,
      "puisqu": 4883,
      "anyone": 4884,
      "troisième": 4885,
      "brig": 4886,
      "trust": 4887,
      "caf": 4888,
      "ffe": 4889,
      "pill": 4890,
      "yard": 4891,
      "argu": 4892,
      "riches": 4893,
      "tique": 4894,
      "thern": 4895,
      "ouvre": 4896,
      "prepared": 4897,
      "maines": 4898,
      "justement": 4899,
      "embras": 4900,
      "finding": 4901,
      "likely": 4902,
      "east": 4903,
      "gin": 4904,
      "spend": 4905,
      "forces": 4906,
      "disposition": 4907,
      "apprendre": 4908,
      "corri": 4909,
      "laisse": 4910,
      "horror": 4911,
      "valen": 4912,
      "traits": 4913,
      "quitté": 4914,
      "pte": 4915,
      "lage": 4916,
      "condam": 4917,
      "dési": 4918,
      "manque": 4919,
      "morte": 4920,
      "pauvres": 4921,
      "battle": 4922,
      "birds": 4923,
      "canadien": 4924,
      "jure": 4925,
      "leep": 4926,
      "devenu": 4927,
      "ried": 4928,
      "rivière": 4929,
      "prov": 4930,
      "plained": 4931,
      "gig": 4932,
      "portes": 4933,
      "chaleur": 4934,
      "servants": 4935,
      "approcha": 4936,
      "phrase": 4937,
      "knowledge": 4938,
      ".--": 4939,
      "bs": 4940,
      "més": 4941,
      "mienne": 4942,
      "pai": 4943,
      "asleep": 4944,
      "conti": 4945,
      "sue": 4946,
      "coach": 4947,
      "ties": 4948,
      "friday": 4949,
      "animals": 4950,
      "smiled": 4951,
      "according": 4952,
      "soldats": 4953,
      "doigts": 4954,
      "religion": 4955,
      "iles": 4956,
      "nai": 4957,
      "tâ": 4958,
      "heat": 4959,
      "august": 4960,
      "liqui": 4961,
      "luck": 4962,
      "mons": 4963,
      "ouvri": 4964,
      "tenez": 4965,
      "caused": 4966,
      "gardes": 4967,
      "rab": 4968,
      "tong": 4969,
      "vac": 4970,
      "lai": 4971,
      "sta": 4972,
      "rente": 4973,
      "rendez": 4974,
      "marcher": 4975,
      "sauver": 4976,
      "conduct": 4977,
      "confidence": 4978,
      "écras": 4979,
      "profondément": 4980,
      "ense": 4981,
      "armand": 4982,
      "convain": 4983,
      "monstr": 4984,
      "frag": 4985,
      "brut": 4986,
      "posé": 4987,
      "humil": 4988,
      "repren": 4989,
      "demandait": 4990,
      "bataille": 4991,
      "pareille": 4992,
      "advanced": 4993,
      "gend": 4994,
      "mate": 4995,
      "revoir": 4996,
      "ites": 4997,
      "stair": 4998,
      "nore": 4999,
      "diver": 5000,
      "amie": 5001,
      "folle": 5002,
      "couleur": 5003,
      "chapper": 5004,
      "conduire": 5005,
      "machine": 5006,
      "innocent": 5007,
      "erie": 5008,
      "seat": 5009,
      "digne": 5010,
      "explain": 5011,
      "served": 5012,
      "merveille": 5013,
      "prisoner": 5014,
      "patience": 5015,
      "sacrifice": 5016,
      "misérable": 5017,
      "cated": 5018,
      "nais": 5019,
      "représent": 5020,
      "adresse": 5021,
      "exist": 5022,
      "report": 5023,
      "supper": 5024,
      "astonished": 5025,
      "gentilhomme": 5026,
      "speech": 5027,
      "pté": 5028,
      "rac": 5029,
      "spar": 5030,
      "échapper": 5031,
      "remu": 5032,
      "hoped": 5033,
      "weight": 5034,
      "atement": 5035,
      "partit": 5036,
      "actions": 5037,
      "riere": 5038,
      "bourn": 5039,
      "fussent": 5040,
      "trying": 5041,
      "fallut": 5042,
      "sensible": 5043,
      "played": 5044,
      "valenod": 5045,
      "refer": 5046,
      "author": 5047,
      "breast": 5048,
      "peuvent": 5049,
      "greater": 5050,
      "personnes": 5051,
      "suivait": 5052,
      "frisson": 5053,
      "17": 5054,
      "blé": 5055,
      "pounds": 5056,
      "ège": 5057,
      "écar": 5058,
      "reau": 5059,
      "enfu": 5060,
      "delic": 5061,
      "deacon": 5062,
      "eté": 5063,
      "allais": 5064,
      "usage": 5065,
      "agreed": 5066,
      "practi": 5067,
      "songer": 5068,
      "ints": 5069,
      "charie": 5070,
      "chargé": 5071,
      "boutique": 5072,
      "streets": 5073,
      "lectric": 5074,
      "remark": 5075,
      "échelle": 5076,
      "zacharie": 5077,
      "cave": 5078,
      "maid": 5079,
      "scre": 5080,
      "tais": 5081,
      "émotion": 5082,
      "toile": 5083,
      "meant": 5084,
      "veau": 5085,
      "propri": 5086,
      "possé": 5087,
      "crimin": 5088,
      "arrival": 5089,
      "bridge": 5090,
      "fatal": 5091,
      "pirard": 5092,
      "quietly": 5093,
      "grief": 5094,
      "cence": 5095,
      "murs": 5096,
      "ume": 5097,
      "recher": 5098,
      "decla": 5099,
      "arme": 5100,
      "lif": 5101,
      "lime": 5102,
      "shel": 5103,
      "seraient": 5104,
      "kee": 5105,
      "berge": 5106,
      "entendis": 5107,
      "hélas": 5108,
      "faible": 5109,
      "powerful": 5110,
      "soupçon": 5111,
      "jacques": 5112,
      "gul": 5113,
      "tly": 5114,
      "feared": 5115,
      "couple": 5116,
      "cheminée": 5117,
      "promenade": 5118,
      "ladder": 5119,
      "entièrement": 5120,
      "lâ": 5121,
      "pping": 5122,
      "rement": 5123,
      "eneur": 5124,
      "advice": 5125,
      "sugg": 5126,
      "estab": 5127,
      "maisons": 5128,
      "puisse": 5129,
      "boute": 5130,
      "convince": 5131,
      "storm": 5132,
      "agreeable": 5133,
      "rasseneur": 5134,
      "honnête": 5135,
      "determined": 5136,
      "gare": 5137,
      "nante": 5138,
      "épar": 5139,
      "inqu": 5140,
      "asc": 5141,
      "secours": 5142,
      "extré": 5143,
      "résolu": 5144,
      "manquer": 5145,
      "protest": 5146,
      "retir": 5147,
      "charbon": 5148,
      "milan": 5149,
      "spoken": 5150,
      "voisin": 5151,
      "minister": 5152,
      "interrupted": 5153,
      "fave": 5154,
      "taient": 5155,
      "xx": 5156,
      "évit": 5157,
      "œu": 5158,
      "refu": 5159,
      "ordered": 5160,
      "ettes": 5161,
      "chaus": 5162,
      "aimable": 5163,
      "étern": 5164,
      "abomin": 5165,
      "soeur": 5166,
      "selon": 5167,
      "champs": 5168,
      "16": 5169,
      "ebus": 5170,
      "vul": 5171,
      "vête": 5172,
      "œbus": 5173,
      "relat": 5174,
      "nose": 5175,
      "moti": 5176,
      "lod": 5177,
      "acy": 5178,
      "réve": 5179,
      "prospect": 5180,
      "crou": 5181,
      "arranged": 5182,
      "phœbus": 5183,
      "fourn": 5184,
      "dressing": 5185,
      "ault": 5186,
      "langue": 5187,
      "tranquillement": 5188,
      "accepter": 5189,
      "lièrement": 5190,
      "phoebus": 5191,
      "depths": 5192,
      "rolled": 5193,
      "bill": 5194,
      "tendre": 5195,
      "édi": 5196,
      "ank": 5197,
      "conne": 5198,
      "costu": 5199,
      "plans": 5200,
      "intes": 5201,
      "intri": 5202,
      "voyons": 5203,
      "curious": 5204,
      "triom": 5205,
      "returning": 5206,
      "strike": 5207,
      "learn": 5208,
      "settlers": 5209,
      "providence": 5210,
      "gain": 5211,
      "gorge": 5212,
      "obey": 5213,
      "éner": 5214,
      "err": 5215,
      "unless": 5216,
      "roll": 5217,
      "parlant": 5218,
      "hole": 5219,
      "jump": 5220,
      "souper": 5221,
      "vaisseau": 5222,
      "archdeacon": 5223,
      "ease": 5224,
      "remembered": 5225,
      "observation": 5226,
      "smoke": 5227,
      "bast": 5228,
      "ule": 5229,
      "willi": 5230,
      "zaine": 5231,
      "devenait": 5232,
      "aly": 5233,
      "avre": 5234,
      "audi": 5235,
      "uten": 5236,
      "appoint": 5237,
      "ureur": 5238,
      "racont": 5239,
      "longs": 5240,
      "ventre": 5241,
      "betray": 5242,
      "putting": 5243,
      "archidi": 5244,
      "skin": 5245,
      "oreilles": 5246,
      "marchand": 5247,
      "departure": 5248,
      "william": 5249,
      "archidiacre": 5250,
      "bête": 5251,
      "gardin": 5252,
      "pher": 5253,
      "évê": 5254,
      "tomed": 5255,
      "unable": 5256,
      "eding": 5257,
      "sif": 5258,
      "dering": 5259,
      "preuve": 5260,
      "trot": 5261,
      "humi": 5262,
      "certes": 5263,
      "tours": 5264,
      "steam": 5265,
      "allery": 5266,
      "admirable": 5267,
      "refused": 5268,
      "oublié": 5269,
      "fingers": 5270,
      "solitude": 5271,
      "pénét": 5272,
      "stapleton": 5273,
      "cres": 5274,
      "cac": 5275,
      "dared": 5276,
      "gallery": 5277,
      "sla": 5278,
      "alter": 5279,
      "absur": 5280,
      "chef": 5281,
      "youth": 5282,
      "meters": 5283,
      "laughed": 5284,
      "connaissait": 5285,
      "galop": 5286,
      "trembling": 5287,
      "hôte": 5288,
      "probably": 5289,
      "soldiers": 5290,
      "médecin": 5291,
      "ives": 5292,
      "jan": 5293,
      "lus": 5294,
      "ote": 5295,
      "ède": 5296,
      "tea": 5297,
      "roches": 5298,
      "reser": 5299,
      "conside": 5300,
      "trous": 5301,
      "amant": 5302,
      "discover": 5303,
      "cra": 5304,
      "journal": 5305,
      "choir": 5306,
      "repous": 5307,
      "silver": 5308,
      "voile": 5309,
      "terreur": 5310,
      "seuls": 5311,
      "relations": 5312,
      "destroy": 5313,
      "recogn": 5314,
      "lampe": 5315,
      "architecture": 5316,
      "cun": 5317,
      "ctement": 5318,
      "chante": 5319,
      "poly": 5320,
      "tip": 5321,
      "geant": 5322,
      "mistaken": 5323,
      "giment": 5324,
      "laissant": 5325,
      "brow": 5326,
      "triump": 5327,
      "parties": 5328,
      "commencer": 5329,
      "espère": 5330,
      "noirs": 5331,
      "books": 5332,
      "astonishment": 5333,
      "accustomed": 5334,
      "taste": 5335,
      "convul": 5336,
      "chagr": 5337,
      "mare": 5338,
      "goes": 5339,
      "poste": 5340,
      "gilet": 5341,
      "avoid": 5342,
      "resté": 5343,
      "occu": 5344,
      "promet": 5345,
      "distinct": 5346,
      "détour": 5347,
      "blind": 5348,
      "pulled": 5349,
      "sauvages": 5350,
      "cuisine": 5351,
      "dun": 5352,
      "angry": 5353,
      "tex": 5354,
      "rées": 5355,
      "manquait": 5356,
      "permission": 5357,
      "cape": 5358,
      "fera": 5359,
      "vitesse": 5360,
      "écriai": 5361,
      "sorry": 5362,
      "suspen": 5363,
      "frightful": 5364,
      "acquaint": 5365,
      "phrases": 5366,
      "cations": 5367,
      "ny": 5368,
      "repas": 5369,
      "remettre": 5370,
      "ande": 5371,
      "devenir": 5372,
      "ility": 5373,
      "edge": 5374,
      "hire": 5375,
      "safe": 5376,
      "peri": 5377,
      "shud": 5378,
      "cherchait": 5379,
      "drap": 5380,
      "signed": 5381,
      "péni": 5382,
      "patron": 5383,
      "tombe": 5384,
      "cabinet": 5385,
      "kitchen": 5386,
      "commander": 5387,
      "épouvant": 5388,
      "vendredi": 5389,
      "gée": 5390,
      "insol": 5391,
      "chr": 5392,
      "rod": 5393,
      "adi": 5394,
      "congé": 5395,
      "loi": 5396,
      "sorel": 5397,
      "réellement": 5398,
      "useless": 5399,
      "yours": 5400,
      "besan": 5401,
      "supposed": 5402,
      "latitude": 5403,
      "express": 5404,
      "oiseaux": 5405,
      "history": 5406,
      "refuge": 5407,
      "gardiner": 5408,
      "bid": 5409,
      "receive": 5410,
      "invol": 5411,
      "atlant": 5412,
      "sein": 5413,
      "augment": 5414,
      "contemp": 5415,
      "sot": 5416,
      "grant": 5417,
      "canal": 5418,
      "répand": 5419,
      "tué": 5420,
      "clean": 5421,
      "appeler": 5422,
      "bourg": 5423,
      "pierron": 5424,
      "gazed": 5425,
      "henri": 5426,
      "jouer": 5427,
      "hearing": 5428,
      "produced": 5429,
      "assassin": 5430,
      "anxiety": 5431,
      "orgueil": 5432,
      "snow": 5433,
      "iser": 5434,
      "isol": 5435,
      "alas": 5436,
      "alive": 5437,
      "omie": 5438,
      "chère": 5439,
      "parla": 5440,
      "sued": 5441,
      "lueur": 5442,
      "geon": 5443,
      "derriere": 5444,
      "tenaient": 5445,
      "astro": 5446,
      "compter": 5447,
      "assemb": 5448,
      "causer": 5449,
      "lished": 5450,
      "muraille": 5451,
      "carefully": 5452,
      "playing": 5453,
      "parer": 5454,
      "décidé": 5455,
      "difference": 5456,
      "pistoles": 5457,
      "kn": 5458,
      "ners": 5459,
      "onna": 5460,
      "quée": 5461,
      "ateurs": 5462,
      "thrust": 5463,
      "aimé": 5464,
      "stick": 5465,
      "formid": 5466,
      "ambo": 5467,
      "peas": 5468,
      "humaine": 5469,
      "voyais": 5470,
      "tourna": 5471,
      "growing": 5472,
      "illaient": 5473,
      "aperçus": 5474,
      "gypsy": 5475,
      "dining": 5476,
      "désespé": 5477,
      "rempl": 5478,
      "obstin": 5479,
      "extraordinary": 5480,
      "morceau": 5481,
      "thornfield": 5482,
      "gly": 5483,
      "wound": 5484,
      "inside": 5485,
      "nephe": 5486,
      "agissait": 5487,
      "features": 5488,
      "grass": 5489,
      "ported": 5490,
      "charlotte": 5491,
      "worn": 5492,
      "laissez": 5493,
      "appelait": 5494,
      "sinc": 5495,
      "pareil": 5496,
      "laughter": 5497,
      "zzy": 5498,
      "déclar": 5499,
      "souten": 5500,
      "musketeers": 5501,
      "respond": 5502,
      "aler": 5503,
      "lir": 5504,
      "lante": 5505,
      "pack": 5506,
      "eller": 5507,
      "voreux": 5508,
      "plun": 5509,
      "obtenir": 5510,
      "trouvaient": 5511,
      "personn": 5512,
      "ignit": 5513,
      "traite": 5514,
      "born": 5515,
      "étonnement": 5516,
      "swear": 5517,
      "contem": 5518,
      "créature": 5519,
      "vinrent": 5520,
      "mousquetaires": 5521,
      "meeting": 5522,
      "conceal": 5523,
      "eleven": 5524,
      "rapidly": 5525,
      "conque": 5526,
      "consol": 5527,
      "curé": 5528,
      "malheureuse": 5529,
      "francis": 5530,
      "veiller": 5531,
      "finger": 5532,
      "épaisse": 5533,
      "considered": 5534,
      "bure": 5535,
      "fate": 5536,
      "mien": 5537,
      "pel": 5538,
      "yards": 5539,
      "quaient": 5540,
      "rières": 5541,
      "frais": 5542,
      "illée": 5543,
      "distant": 5544,
      "somewhat": 5545,
      "attitude": 5546,
      "brown": 5547,
      "suspic": 5548,
      "confiance": 5549,
      "assured": 5550,
      "précisément": 5551,
      "equal": 5552,
      "haine": 5553,
      "mm": 5554,
      "rag": 5555,
      "semaines": 5556,
      "rions": 5557,
      "sick": 5558,
      "prouver": 5559,
      "dég": 5560,
      "rédu": 5561,
      "gras": 5562,
      "charm": 5563,
      "poussa": 5564,
      "étonné": 5565,
      "weeks": 5566,
      "writing": 5567,
      "concealed": 5568,
      "apercevoir": 5569,
      "oeuvre": 5570,
      "faveur": 5571,
      "dance": 5572,
      "ivre": 5573,
      "kni": 5574,
      "sme": 5575,
      "évident": 5576,
      "….": 5577,
      "health": 5578,
      "labour": 5579,
      "meu": 5580,
      "avi": 5581,
      "becoming": 5582,
      "result": 5583,
      "explor": 5584,
      "manche": 5585,
      "keen": 5586,
      "boire": 5587,
      "répétait": 5588,
      "millions": 5589,
      "mées": 5590,
      "cacher": 5591,
      "chaî": 5592,
      "naturel": 5593,
      "scène": 5594,
      "extraordinaire": 5595,
      "degree": 5596,
      "intéres": 5597,
      "14": 5598,
      "cte": 5599,
      "côt": 5600,
      "fleurs": 5601,
      "asking": 5602,
      "union": 5603,
      "lesquels": 5604,
      "redout": 5605,
      "penet": 5606,
      "guards": 5607,
      "grey": 5608,
      "moral": 5609,
      "famili": 5610,
      "galais": 5611,
      "observe": 5612,
      "mult": 5613,
      "frightened": 5614,
      "volonté": 5615,
      "masse": 5616,
      "arma": 5617,
      "atro": 5618,
      "lable": 5619,
      "serez": 5620,
      "agger": 5621,
      "sake": 5622,
      "prétend": 5623,
      "amitié": 5624,
      "dity": 5625,
      "rieres": 5626,
      "montagne": 5627,
      "montagnes": 5628,
      "risk": 5629,
      "également": 5630,
      "listening": 5631,
      "driven": 5632,
      "descendit": 5633,
      "pêche": 5634,
      "pangloss": 5635,
      "côtés": 5636,
      ":--": 5637,
      "pages": 5638,
      "scul": 5639,
      "élè": 5640,
      "leaves": 5641,
      "erne": 5642,
      "ceased": 5643,
      "lighted": 5644,
      "jection": 5645,
      "traces": 5646,
      "amoureux": 5647,
      "poids": 5648,
      "exces": 5649,
      "figu": 5650,
      "folie": 5651,
      "distri": 5652,
      "mile": 5653,
      "marked": 5654,
      "willing": 5655,
      "couldn": 5656,
      "précé": 5657,
      "continent": 5658,
      "continuait": 5659,
      "certains": 5660,
      "bande": 5661,
      "voila": 5662,
      "retourna": 5663,
      "calling": 5664,
      "rappelle": 5665,
      "inquiétude": 5666,
      "splen": 5667,
      "corridor": 5668,
      "cof": 5669,
      "cise": 5670,
      "gres": 5671,
      "mâ": 5672,
      "élég": 5673,
      "éminence": 5674,
      "recommand": 5675,
      "compar": 5676,
      "tide": 5677,
      "résult": 5678,
      "proved": 5679,
      "marie": 5680,
      "maréch": 5681,
      "ifs": 5682,
      "ffer": 5683,
      "sentais": 5684,
      "autrement": 5685,
      "prie": 5686,
      "tournant": 5687,
      "payer": 5688,
      "cision": 5689,
      "pushed": 5690,
      "suffered": 5691,
      "fields": 5692,
      "immédiatement": 5693,
      "nephew": 5694,
      "cure": 5695,
      "wret": 5696,
      "élé": 5697,
      "envers": 5698,
      "siff": 5699,
      "saill": 5700,
      "serpent": 5701,
      "cession": 5702,
      "moreover": 5703,
      "tures": 5704,
      "creatures": 5705,
      "indiffé": 5706,
      "candle": 5707,
      "lutte": 5708,
      "sensation": 5709,
      "magnifique": 5710,
      "remarked": 5711,
      "liberty": 5712,
      "required": 5713,
      "dreadful": 5714,
      "conscious": 5715,
      "café": 5716,
      "emotion": 5717,
      "chris": 5718,
      "neveu": 5719,
      "respir": 5720,
      "agir": 5721,
      "accro": 5722,
      "accompan": 5723,
      "redou": 5724,
      "seek": 5725,
      "mist": 5726,
      "croix": 5727,
      "asseoir": 5728,
      "ports": 5729,
      "octo": 5730,
      "léger": 5731,
      "engaged": 5732,
      "paquet": 5733,
      "tombait": 5734,
      "faibles": 5735,
      "considerable": 5736,
      "gesture": 5737,
      "tapis": 5738,
      "particularly": 5739,
      "école": 5740,
      "platform": 5741,
      "zo": 5742,
      "espé": 5743,
      "medit": 5744,
      "explained": 5745,
      "régu": 5746,
      "aurai": 5747,
      "rude": 5748,
      "profit": 5749,
      "counter": 5750,
      "fusion": 5751,
      "capital": 5752,
      "hurst": 5753,
      "gratitude": 5754,
      "bâtiment": 5755,
      "vins": 5756,
      "delay": 5757,
      "ism": 5758,
      "arbre": 5759,
      "verrieres": 5760,
      "ends": 5761,
      "docu": 5762,
      "bold": 5763,
      "pire": 5764,
      "courait": 5765,
      "sooner": 5766,
      "durant": 5767,
      "derniers": 5768,
      "keeping": 5769,
      "univers": 5770,
      "enemy": 5771,
      "sérieux": 5772,
      "fosse": 5773,
      "circonstances": 5774,
      "\"'": 5775,
      "bale": 5776,
      "fly": 5777,
      "fill": 5778,
      "mill": 5779,
      "thered": 5780,
      "aviez": 5781,
      "parted": 5782,
      "tron": 5783,
      "dict": 5784,
      "shell": 5785,
      "vivant": 5786,
      "touts": 5787,
      "marchait": 5788,
      "prefer": 5789,
      "metres": 5790,
      "santé": 5791,
      "pierres": 5792,
      "rapi": 5793,
      "eyre": 5794,
      "tranquill": 5795,
      "perdue": 5796,
      "instrument": 5797,
      "étudi": 5798,
      "communication": 5799,
      "apartment": 5800,
      "mortimer": 5801,
      "cité": 5802,
      "jadis": 5803,
      "sante": 5804,
      "ètement": 5805,
      "etes": 5806,
      "lizzy": 5807,
      "étro": 5808,
      "excur": 5809,
      "manteau": 5810,
      "shame": 5811,
      "cries": 5812,
      "rouges": 5813,
      "cally": 5814,
      "impro": 5815,
      "ruin": 5816,
      "intense": 5817,
      "sorti": 5818,
      "physion": 5819,
      "miserable": 5820,
      "events": 5821,
      "siècle": 5822,
      "recognized": 5823,
      "language": 5824,
      "rentrer": 5825,
      "ox": 5826,
      "py": 5827,
      "sher": 5828,
      "sés": 5829,
      "smil": 5830,
      "infin": 5831,
      "isn": 5832,
      "verrières": 5833,
      "forêt": 5834,
      "comprit": 5835,
      "cook": 5836,
      "plong": 5837,
      "charmante": 5838,
      "welling": 5839,
      "rugg": 5840,
      "telling": 5841,
      "appartement": 5842,
      "occasions": 5843,
      "navig": 5844,
      "croyais": 5845,
      "instruments": 5846,
      "miere": 5847,
      "soldier": 5848,
      "membres": 5849,
      "équipage": 5850,
      "galerie": 5851,
      "égypti": 5852,
      "period": 5853,
      "bli": 5854,
      "level": 5855,
      "delà": 5856,
      "cepti": 5857,
      "ingram": 5858,
      "lives": 5859,
      "combat": 5860,
      "passions": 5861,
      "upper": 5862,
      "mies": 5863,
      "témoi": 5864,
      "looks": 5865,
      "indivi": 5866,
      "scand": 5867,
      "facilement": 5868,
      "grégo": 5869,
      "recolle": 5870,
      "mounted": 5871,
      "réfléch": 5872,
      "leaning": 5873,
      "curiosity": 5874,
      "style": 5875,
      "ouvriers": 5876,
      "extrémité": 5877,
      "cès": 5878,
      "fame": 5879,
      "lor": 5880,
      "maient": 5881,
      "pée": 5882,
      "anes": 5883,
      "dete": 5884,
      "agent": 5885,
      "dimin": 5886,
      "déser": 5887,
      "surrounded": 5888,
      "fold": 5889,
      "ceiving": 5890,
      "fault": 5891,
      "hurried": 5892,
      "seize": 5893,
      "envoyer": 5894,
      "curiosité": 5895,
      "familiar": 5896,
      "ades": 5897,
      "electric": 5898,
      "gê": 5899,
      "lly": 5900,
      "xed": 5901,
      "laquais": 5902,
      "rique": 5903,
      "rival": 5904,
      "pool": 5905,
      "illons": 5906,
      "ords": 5907,
      "prepar": 5908,
      "rale": 5909,
      "partis": 5910,
      "correspond": 5911,
      "curtain": 5912,
      "gaze": 5913,
      "atteindre": 5914,
      "reconnaissance": 5915,
      "gradually": 5916,
      "absolutely": 5917,
      "oak": 5918,
      "rôle": 5919,
      "tow": 5920,
      "manif": 5921,
      "grac": 5922,
      "bonadventure": 5923,
      "clef": 5924,
      "everyone": 5925,
      "valu": 5926,
      "fumée": 5927,
      "demandé": 5928,
      "patient": 5929,
      "étranger": 5930,
      "bottle": 5931,
      "delighted": 5932,
      "obligé": 5933,
      "directly": 5934,
      "découvrir": 5935,
      "disturbed": 5936,
      "intelligent": 5937,
      "smiling": 5938,
      "pente": 5939,
      "çà": 5940,
      "secr": 5941,
      "aurez": 5942,
      "riant": 5943,
      "antic": 5944,
      "étiez": 5945,
      "parlez": 5946,
      "descent": 5947,
      "cheer": 5948,
      "terms": 5949,
      "poli": 5950,
      "hers": 5951,
      "montra": 5952,
      "exac": 5953,
      "food": 5954,
      "niers": 5955,
      "ération": 5956,
      "imagined": 5957,
      "hurry": 5958,
      "écouter": 5959,
      "raconter": 5960,
      "convinced": 5961,
      "triumph": 5962,
      "figures": 5963,
      "bless": 5964,
      "cune": 5965,
      "cers": 5966,
      "gam": 5967,
      "évan": 5968,
      "remit": 5969,
      "unfortunate": 5970,
      "changer": 5971,
      "conde": 5972,
      "share": 5973,
      "handker": 5974,
      "accue": 5975,
      "earnest": 5976,
      "ramen": 5977,
      "regarde": 5978,
      "couvert": 5979,
      "virgin": 5980,
      "rencontrer": 5981,
      "faithful": 5982,
      "expliquer": 5983,
      "répéta": 5984,
      "tira": 5985,
      "vaut": 5986,
      "rever": 5987,
      "este": 5988,
      "chai": 5989,
      "sière": 5990,
      "address": 5991,
      "respon": 5992,
      "pipe": 5993,
      "rail": 5994,
      "couru": 5995,
      "breaking": 5996,
      "profession": 5997,
      "tels": 5998,
      "built": 5999,
      "premières": 6000,
      "parent": 6001,
      "base": 6002,
      "brick": 6003,
      "domesti": 6004,
      "gallo": 6005,
      "semblable": 6006,
      "apparent": 6007,
      "carrying": 6008,
      "robin": 6009,
      "slip": 6010,
      "meilleur": 6011,
      "ridicule": 6012,
      "reconnut": 6013,
      "tongue": 6014,
      "dange": 6015,
      "gés": 6016,
      "orous": 6017,
      "thr": 6018,
      "stif": 6019,
      "addressed": 6020,
      "rendu": 6021,
      "timi": 6022,
      "permit": 6023,
      "ueux": 6024,
      "meral": 6025,
      "afternoon": 6026,
      "current": 6027,
      "belcher": 6028,
      "pharma": 6029,
      "trade": 6030,
      "quantité": 6031,
      "moyens": 6032,
      "dangerous": 6033,
      "fauteuil": 6034,
      "mountains": 6035,
      "details": 6036,
      "ambition": 6037,
      "eminence": 6038,
      "ency": 6039,
      "indé": 6040,
      "ailed": 6041,
      "sigh": 6042,
      "hie": 6043,
      "dessin": 6044,
      "tram": 6045,
      "brilli": 6046,
      "juger": 6047,
      "longbourn": 6048,
      "mémoire": 6049,
      "offre": 6050,
      "ized": 6051,
      "tourner": 6052,
      "lieuten": 6053,
      "fury": 6054,
      "catch": 6055,
      "craindre": 6056,
      "doigt": 6057,
      "desired": 6058,
      "témoign": 6059,
      "iled": 6060,
      "pais": 6061,
      "tint": 6062,
      "zin": 6063,
      "în": 6064,
      "deb": 6065,
      "admit": 6066,
      "popul": 6067,
      "peux": 6068,
      "dévou": 6069,
      "exas": 6070,
      "angu": 6071,
      "inspir": 6072,
      "sommet": 6073,
      "déter": 6074,
      "rayon": 6075,
      "frequently": 6076,
      "summer": 6077,
      "possessed": 6078,
      "embarrass": 6079,
      "sauvage": 6080,
      "axel": 6081,
      "creek": 6082,
      "costume": 6083,
      "pénible": 6084,
      "hast": 6085,
      "remor": 6086,
      "itution": 6087,
      "thunder": 6088,
      "add": 6089,
      "vering": 6090,
      "ainted": 6091,
      "cien": 6092,
      "grown": 6093,
      "servait": 6094,
      "salut": 6095,
      "rêve": 6096,
      "vérit": 6097,
      "doubtless": 6098,
      "examined": 6099,
      "castle": 6100,
      "sprang": 6101,
      "principal": 6102,
      "misery": 6103,
      "vêtements": 6104,
      "bah": 6105,
      "evil": 6106,
      "nay": 6107,
      "reader": 6108,
      "toit": 6109,
      "ali": 6110,
      "aught": 6111,
      "soil": 6112,
      "pered": 6113,
      "débar": 6114,
      "posait": 6115,
      "mud": 6116,
      "bonté": 6117,
      "appren": 6118,
      "curieux": 6119,
      "opé": 6120,
      "color": 6121,
      "stock": 6122,
      "shoes": 6123,
      "sublime": 6124,
      "blessé": 6125,
      "cheminées": 6126,
      "fastened": 6127,
      "repeat": 6128,
      "félic": 6129,
      "merely": 6130,
      "avouer": 6131,
      "seriously": 6132,
      "refuse": 6133,
      "scrup": 6134,
      "évêque": 6135,
      "domestiques": 6136,
      "pup": 6137,
      "pite": 6138,
      "ano": 6139,
      "enchant": 6140,
      "onne": 6141,
      "design": 6142,
      "chin": 6143,
      "lois": 6144,
      "wear": 6145,
      "mirent": 6146,
      "puits": 6147,
      "breathe": 6148,
      "ignait": 6149,
      "sinis": 6150,
      "drive": 6151,
      "hollow": 6152,
      "superior": 6153,
      "governor": 6154,
      "stupé": 6155,
      "diamond": 6156,
      "staircase": 6157,
      "formidable": 6158,
      "gates": 6159,
      "aronna": 6160,
      "quai": 6161,
      "cel": 6162,
      "avert": 6163,
      "tern": 6164,
      "joli": 6165,
      "ventured": 6166,
      "imper": 6167,
      "igne": 6168,
      "travaille": 6169,
      "personnage": 6170,
      "hunger": 6171,
      "sisters": 6172,
      "occupé": 6173,
      "blus": 6174,
      "slept": 6175,
      "aperçu": 6176,
      "arrêté": 6177,
      "swif": 6178,
      "suffering": 6179,
      "discussion": 6180,
      "execution": 6181,
      "humble": 6182,
      "olivier": 6183,
      "powder": 6184,
      "paix": 6185,
      "cacambo": 6186,
      "aronnax": 6187,
      "kiss": 6188,
      "yor": 6189,
      "revenait": 6190,
      "thian": 6191,
      "dign": 6192,
      "estim": 6193,
      "mange": 6194,
      "insen": 6195,
      "fail": 6196,
      "crown": 6197,
      "eurent": 6198,
      "assise": 6199,
      "appears": 6200,
      "intended": 6201,
      "grosses": 6202,
      "grima": 6203,
      "aware": 6204,
      "pensez": 6205,
      "agitation": 6206,
      "cieuse": 6207,
      "entrance": 6208,
      "souvenirs": 6209,
      "belonged": 6210,
      "commencement": 6211,
      "hanging": 6212,
      "mystérie": 6213,
      "accompanied": 6214,
      "dil": 6215,
      "vont": 6216,
      "informed": 6217,
      "ises": 6218,
      "isme": 6219,
      "sevent": 6220,
      "neige": 6221,
      "rot": 6222,
      "étroit": 6223,
      "monta": 6224,
      "victi": 6225,
      "marine": 6226,
      "bos": 6227,
      "pression": 6228,
      "milit": 6229,
      "matters": 6230,
      "cloak": 6231,
      "impert": 6232,
      "everybody": 6233,
      "voices": 6234,
      "scat": 6235,
      "succès": 6236,
      "flung": 6237,
      "écoutait": 6238,
      "stayed": 6239,
      "ignorant": 6240,
      "experien": 6241,
      "barry": 6242,
      "cais": 6243,
      "gallant": 6244,
      "hit": 6245,
      "ivement": 6246,
      "rat": 6247,
      "vine": 6248,
      "épuis": 6249,
      "annoy": 6250,
      "inces": 6251,
      "enthu": 6252,
      "aloud": 6253,
      "libr": 6254,
      "conso": 6255,
      "vif": 6256,
      "bore": 6257,
      "bonnet": 6258,
      "fortnight": 6259,
      "corre": 6260,
      "répondait": 6261,
      "liez": 6262,
      "feuille": 6263,
      "faudrait": 6264,
      "cluse": 6265,
      "raisonn": 6266,
      "souffle": 6267,
      "complètement": 6268,
      "wilson": 6269,
      "separated": 6270,
      "hâte": 6271,
      "document": 6272,
      "lés": 6273,
      "resemb": 6274,
      "arse": 6275,
      "asser": 6276,
      "tower": 6277,
      "elder": 6278,
      "edie": 6279,
      "male": 6280,
      "appla": 6281,
      "abrup": 6282,
      "explan": 6283,
      "dozen": 6284,
      "procur": 6285,
      "miner": 6286,
      "sév": 6287,
      "working": 6288,
      "classe": 6289,
      "space": 6290,
      "poudre": 6291,
      "hence": 6292,
      "generally": 6293,
      "ancient": 6294,
      "profondeur": 6295,
      "naturellement": 6296,
      "kilom": 6297,
      "sherlock": 6298,
      "fanci": 6299,
      "rendait": 6300,
      "mess": 6301,
      "gious": 6302,
      "creus": 6303,
      "telles": 6304,
      "buried": 6305,
      "deeply": 6306,
      "soldat": 6307,
      "obstacle": 6308,
      "mysterious": 6309,
      "hidden": 6310,
      "mélanco": 6311,
      "knife": 6312,
      "physionomie": 6313,
      "30": 6314,
      "ying": 6315,
      "dedans": 6316,
      "severe": 6317,
      "chute": 6318,
      "nobles": 6319,
      "pension": 6320,
      "grel": 6321,
      "contri": 6322,
      "doulou": 6323,
      "haste": 6324,
      "cloud": 6325,
      "everywhere": 6326,
      "gently": 6327,
      "troupe": 6328,
      "interior": 6329,
      "fuite": 6330,
      "murder": 6331,
      "surely": 6332,
      "joues": 6333,
      "figur": 6334,
      "marchesa": 6335,
      "active": 6336,
      "résolution": 6337,
      "jalou": 6338,
      "cèrent": 6339,
      "imb": 6340,
      "mun": 6341,
      "names": 6342,
      "revenu": 6343,
      "reconnu": 6344,
      "depend": 6345,
      "demie": 6346,
      "verti": 6347,
      "tied": 6348,
      "proof": 6349,
      "prolong": 6350,
      "mbs": 6351,
      "pensais": 6352,
      "picture": 6353,
      "someone": 6354,
      "joined": 6355,
      "century": 6356,
      "portée": 6357,
      "spé": 6358,
      "dropped": 6359,
      "rows": 6360,
      "distin": 6361,
      "égard": 6362,
      "damp": 6363,
      "rayons": 6364,
      "royal": 6365,
      "objets": 6366,
      "private": 6367,
      "acquaintance": 6368,
      "bureau": 6369,
      "biz": 6370,
      "louvre": 6371,
      "wais": 6372,
      "anmoins": 6373,
      "etta": 6374,
      "lignes": 6375,
      "accor": 6376,
      "aison": 6377,
      "désire": 6378,
      "excus": 6379,
      "plaît": 6380,
      "bree": 6381,
      "otherwise": 6382,
      "néanmoins": 6383,
      "torrent": 6384,
      "dormir": 6385,
      "abandonner": 6386,
      "apparence": 6387,
      "species": 6388,
      "exécut": 6389,
      "bér": 6390,
      "cil": 6391,
      "vertu": 6392,
      "sures": 6393,
      "défen": 6394,
      "goat": 6395,
      "autor": 6396,
      "retent": 6397,
      "fortunes": 6398,
      "ferai": 6399,
      "négrel": 6400,
      "credit": 6401,
      "raisons": 6402,
      "sinon": 6403,
      "besogne": 6404,
      "chevalier": 6405,
      "failed": 6406,
      "bringing": 6407,
      "remords": 6408,
      "projets": 6409,
      "singulier": 6410,
      "atmosph": 6411,
      "individu": 6412,
      "exactement": 6413,
      "10": 6414,
      "bone": 6415,
      "fie": 6416,
      "faint": 6417,
      "incapable": 6418,
      "enthou": 6419,
      "hosp": 6420,
      "rentra": 6421,
      "viennent": 6422,
      "marches": 6423,
      "saires": 6424,
      "canon": 6425,
      "mener": 6426,
      "corp": 6427,
      "hastened": 6428,
      "quitt": 6429,
      "daily": 6430,
      "ennemi": 6431,
      "glace": 6432,
      "poissons": 6433,
      "terrain": 6434,
      "flowers": 6435,
      "gulf": 6436,
      "giletti": 6437,
      "barrymore": 6438,
      "?…": 6439,
      "ome": 6440,
      "alt": 6441,
      "aider": 6442,
      "logis": 6443,
      "sale": 6444,
      "trac": 6445,
      "rendit": 6446,
      "ayez": 6447,
      "désor": 6448,
      "pict": 6449,
      "pick": 6450,
      "ménage": 6451,
      "watching": 6452,
      "drove": 6453,
      "stern": 6454,
      "instantly": 6455,
      "prisonnier": 6456,
      "héros": 6457,
      "clearly": 6458,
      "semblables": 6459,
      "stupid": 6460,
      "embarcation": 6461,
      "constantly": 6462,
      "struggle": 6463,
      "clouds": 6464,
      "20": 6465,
      "oti": 6466,
      "pave": 6467,
      "tit": 6468,
      "enois": 6469,
      "insul": 6470,
      "deaf": 6471,
      "arde": 6472,
      "entert": 6473,
      "nearer": 6474,
      "irai": 6475,
      "diana": 6476,
      "hopes": 6477,
      "notes": 6478,
      "shed": 6479,
      "mark": 6480,
      "puissance": 6481,
      "mates": 6482,
      "sortait": 6483,
      "franch": 6484,
      "mason": 6485,
      "accout": 6486,
      "linen": 6487,
      "consequence": 6488,
      "croisenois": 6489,
      "occupation": 6490,
      "entering": 6491,
      "various": 6492,
      "blows": 6493,
      "fetch": 6494,
      "bât": 6495,
      "reviend": 6496,
      "essa": 6497,
      "attemp": 6498,
      "toir": 6499,
      "mel": 6500,
      "maint": 6501,
      "madam": 6502,
      "consis": 6503,
      "confusion": 6504,
      "lots": 6505,
      "soins": 6506,
      "vements": 6507,
      "ests": 6508,
      "lucas": 6509,
      "dévelop": 6510,
      "exté": 6511,
      "geor": 6512,
      "managed": 6513,
      "propres": 6514,
      "brand": 6515,
      "pugn": 6516,
      "misfortune": 6517,
      "puissant": 6518,
      "clever": 6519,
      "médit": 6520,
      "prétex": 6521,
      "portant": 6522,
      "ols": 6523,
      "tourment": 6524,
      "mouchoir": 6525,
      "céder": 6526,
      "hearts": 6527,
      "toilette": 6528,
      "envoyé": 6529,
      "cadavre": 6530,
      "métier": 6531,
      "proceeded": 6532,
      "chimneys": 6533,
      "enthusias": 6534,
      "billet": 6535,
      "rè": 6536,
      "éb": 6537,
      "infini": 6538,
      "entier": 6539,
      "beheld": 6540,
      "agers": 6541,
      "dévor": 6542,
      "dish": 6543,
      "gives": 6544,
      "worked": 6545,
      "vouloir": 6546,
      "supporter": 6547,
      "islands": 6548,
      "boys": 6549,
      "virtue": 6550,
      "slightly": 6551,
      "fidèle": 6552,
      "git": 6553,
      "len": 6554,
      "nur": 6555,
      "isé": 6556,
      "queue": 6557,
      "aming": 6558,
      "weary": 6559,
      "montrait": 6560,
      "fié": 6561,
      "bohé": 6562,
      "takes": 6563,
      "gui": 6564,
      "ruisse": 6565,
      "spirits": 6566,
      "espérance": 6567,
      "volume": 6568,
      "plunged": 6569,
      "bomb": 6570,
      "tables": 6571,
      "vêt": 6572,
      "yait": 6573,
      "îlot": 6574,
      "ûte": 6575,
      "istr": 6576,
      "nove": 6577,
      "liber": 6578,
      "étaire": 6579,
      "absent": 6580,
      "comprehen": 6581,
      "dust": 6582,
      "divi": 6583,
      "poet": 6584,
      "songeait": 6585,
      "fruit": 6586,
      "plomb": 6587,
      "défaut": 6588,
      "discours": 6589,
      "cting": 6590,
      "inture": 6591,
      "pièces": 6592,
      "faça": 6593,
      "charged": 6594,
      "devais": 6595,
      "join": 6596,
      "nécess": 6597,
      "colour": 6598,
      "ize": 6599,
      "crew": 6600,
      "armée": 6601,
      "famil": 6602,
      "gaz": 6603,
      "ouvert": 6604,
      "voyageurs": 6605,
      "doesn": 6606,
      "severina": 6607,
      "sanseverina": 6608,
      "clerk": 6609,
      "vapeur": 6610,
      "mentioned": 6611,
      "relief": 6612,
      "approaching": 6613,
      "reckon": 6614,
      "réflexions": 6615,
      "announced": 6616,
      "declared": 6617,
      "chagrin": 6618,
      "meralda": 6619,
      "lieutenant": 6620,
      "york": 6621,
      ").": 6622,
      "lance": 6623,
      "rance": 6624,
      "retenir": 6625,
      "infer": 6626,
      "limit": 6627,
      "agno": 6628,
      "lothian": 6629,
      "pear": 6630,
      "illant": 6631,
      "placer": 6632,
      "souliers": 6633,
      "claim": 6634,
      "granit": 6635,
      "palace": 6636,
      "gathered": 6637,
      "attached": 6638,
      "confused": 6639,
      "marchese": 6640,
      "hatred": 6641,
      "supply": 6642,
      "group": 6643,
      "lackey": 6644,
      "lifted": 6645,
      ",»": 6646,
      "guns": 6647,
      "ip": 6648,
      "zi": 6649,
      "îte": 6650,
      "recu": 6651,
      "retired": 6652,
      "sters": 6653,
      "neaux": 6654,
      "sienne": 6655,
      "cons": 6656,
      "dull": 6657,
      "treated": 6658,
      "acity": 6659,
      "colo": 6660,
      "ounce": 6661,
      "ouvrait": 6662,
      "pensai": 6663,
      "whence": 6664,
      "guess": 6665,
      "apporter": 6666,
      "numer": 6667,
      "léon": 6668,
      "travaux": 6669,
      "bust": 6670,
      "connue": 6671,
      "connaissez": 6672,
      "quitta": 6673,
      "affairs": 6674,
      "wallow": 6675,
      "sincere": 6676,
      "ships": 6677,
      "jeunesse": 6678,
      "avança": 6679,
      "sérieusement": 6680,
      "invitation": 6681,
      "mystery": 6682,
      "false": 6683,
      "résultat": 6684,
      "enthousias": 6685,
      "date": 6686,
      "ètre": 6687,
      "redu": 6688,
      "encour": 6689,
      "arily": 6690,
      "aside": 6691,
      "auberge": 6692,
      "convent": 6693,
      "lys": 6694,
      "veuve": 6695,
      "renon": 6696,
      "distress": 6697,
      "ull": 6698,
      "vile": 6699,
      "prove": 6700,
      "donnant": 6701,
      "whenever": 6702,
      "pensé": 6703,
      "couche": 6704,
      "arts": 6705,
      "comptait": 6706,
      "widow": 6707,
      "cutting": 6708,
      "study": 6709,
      "quarrel": 6710,
      "commandant": 6711,
      "découverte": 6712,
      "excited": 6713,
      "fraîche": 6714,
      "waist": 6715,
      "emer": 6716,
      "fête": 6717,
      "image": 6718,
      "ky": 6719,
      "sn": 6720,
      "vau": 6721,
      "inière": 6722,
      "seine": 6723,
      "liar": 6724,
      "beach": 6725,
      "jected": 6726,
      "moll": 6727,
      "aining": 6728,
      "ference": 6729,
      "bowed": 6730,
      "finir": 6731,
      "coron": 6732,
      "begun": 6733,
      "masses": 6734,
      "voisine": 6735,
      "savage": 6736,
      "probablement": 6737,
      "whist": 6738,
      "ically": 6739,
      "tabor": 6740,
      "événement": 6741,
      "épouser": 6742,
      "nécessité": 6743,
      "retirer": 6744,
      "retraite": 6745,
      "liver": 6746,
      "comtesse": 6747,
      "permis": 6748,
      "project": 6749,
      "ouvrage": 6750,
      "tenue": 6751,
      "mistake": 6752,
      "gique": 6753,
      "deviner": 6754,
      "sortes": 6755,
      "continuer": 6756,
      "struction": 6757,
      "détru": 6758,
      "club": 6759,
      "painful": 6760,
      "naturally": 6761,
      "conclusion": 6762,
      "barely": 6763,
      "season": 6764,
      "circonstance": 6765,
      "souriant": 6766,
      "degrés": 6767,
      "substance": 6768,
      "fled": 6769,
      "faus": 6770,
      "range": 6771,
      "sœur": 6772,
      "».": 6773,
      "iture": 6774,
      "delle": 6775,
      "esmeralda": 6776,
      "lament": 6777,
      "siez": 6778,
      "apprit": 6779,
      "ardent": 6780,
      "fièvre": 6781,
      "foyer": 6782,
      "crier": 6783,
      "nuages": 6784,
      "jetait": 6785,
      "jetant": 6786,
      "descended": 6787,
      "mount": 6788,
      "employed": 6789,
      "concern": 6790,
      "particulier": 6791,
      "guillau": 6792,
      "volontiers": 6793,
      "pacific": 6794,
      ".)": 6795,
      "dangers": 6796,
      "flight": 6797,
      "hither": 6798,
      "nè": 6799,
      "swallow": 6800,
      "reaux": 6801,
      "quis": 6802,
      "teaux": 6803,
      "commission": 6804,
      "tering": 6805,
      "déchir": 6806,
      "récla": 6807,
      "bored": 6808,
      "obsc": 6809,
      "pressure": 6810,
      "séjour": 6811,
      "préfé": 6812,
      "impu": 6813,
      "supérieure": 6814,
      "value": 6815,
      "ics": 6816,
      "saisit": 6817,
      "flew": 6818,
      "affreux": 6819,
      "bonnemort": 6820,
      "solemn": 6821,
      "rays": 6822,
      "qualité": 6823,
      "allai": 6824,
      "bearing": 6825,
      "comprends": 6826,
      "foolish": 6827,
      "ennui": 6828,
      "fréquent": 6829,
      "experience": 6830,
      "fantas": 6831,
      "settlement": 6832,
      "amérique": 6833,
      "delicate": 6834,
      "contempl": 6835,
      "èche": 6836,
      "leon": 6837,
      "ashed": 6838,
      "rivers": 6839,
      "étage": 6840,
      "abatt": 6841,
      "forcé": 6842,
      "modest": 6843,
      "déce": 6844,
      "urel": 6845,
      "seront": 6846,
      "lessly": 6847,
      "persons": 6848,
      "chapel": 6849,
      "drop": 6850,
      "morts": 6851,
      "bibli": 6852,
      "pavé": 6853,
      "expéri": 6854,
      "cheeks": 6855,
      "grégoire": 6856,
      "évanou": 6857,
      "brilliant": 6858,
      "paces": 6859,
      "relie": 6860,
      "remains": 6861,
      "ony": 6862,
      "arade": 6863,
      "laine": 6864,
      "ands": 6865,
      "popu": 6866,
      "frame": 6867,
      "débarr": 6868,
      "fection": 6869,
      "manage": 6870,
      "brise": 6871,
      "criait": 6872,
      "passaient": 6873,
      "chambres": 6874,
      "rers": 6875,
      "drowned": 6876,
      "ennemis": 6877,
      "ifice": 6878,
      "remarqua": 6879,
      "sank": 6880,
      "gouverneur": 6881,
      "furnished": 6882,
      "souffr": 6883,
      "wishes": 6884,
      "abominable": 6885,
      "occuper": 6886,
      "handkerchief": 6887,
      "sévère": 6888,
      "gâ": 6889,
      "gained": 6890,
      "heap": 6891,
      "def": 6892,
      "adèle": 6893,
      "commo": 6894,
      "divers": 6895,
      "pole": 6896,
      "goû": 6897,
      "vivait": 6898,
      "proportion": 6899,
      "placé": 6900,
      "lettes": 6901,
      "joyeux": 6902,
      "match": 6903,
      "regardai": 6904,
      "mouvements": 6905,
      "magistr": 6906,
      "linge": 6907,
      "highly": 6908,
      "ancienne": 6909,
      "cabare": 6910,
      "abandoned": 6911,
      "meaning": 6912,
      "officers": 6913,
      "conviction": 6914,
      "obtained": 6915,
      "devoted": 6916,
      "audience": 6917,
      "cret": 6918,
      "eleg": 6919,
      "farm": 6920,
      "fureur": 6921,
      "harm": 6922,
      "jon": 6923,
      "pait": 6924,
      "écu": 6925,
      "request": 6926,
      "decl": 6927,
      "etres": 6928,
      "laise": 6929,
      "sex": 6930,
      "sien": 6931,
      "loint": 6932,
      "rency": 6933,
      "frapper": 6934,
      "works": 6935,
      "metho": 6936,
      "valait": 6937,
      "sorts": 6938,
      "suspect": 6939,
      "péri": 6940,
      "camarade": 6941,
      "illage": 6942,
      "reflected": 6943,
      "governess": 6944,
      "possibly": 6945,
      "nourrit": 6946,
      "persuad": 6947,
      "événements": 6948,
      "gendarmes": 6949,
      "remorse": 6950,
      "experienced": 6951,
      "?...": 6952,
      "wet": 6953,
      "eds": 6954,
      "éter": 6955,
      "forgive": 6956,
      "dép": 6957,
      "vious": 6958,
      "judi": 6959,
      "raw": 6960,
      "nervous": 6961,
      "store": 6962,
      "setting": 6963,
      "pala": 6964,
      "steamer": 6965,
      "harmon": 6966,
      "détach": 6967,
      "espagno": 6968,
      "expressed": 6969,
      "apparais": 6970,
      "maladie": 6971,
      "établir": 6972,
      "sympat": 6973,
      "gloomy": 6974,
      "éviter": 6975,
      "coffee": 6976,
      "tons": 6977,
      "remis": 6978,
      "removed": 6979,
      "inexplic": 6980,
      "istes": 6981,
      "verse": 6982,
      "conserv": 6983,
      "unex": 6984,
      "fru": 6985,
      "marché": 6986,
      "shade": 6987,
      "iteur": 6988,
      "cloth": 6989,
      "clopin": 6990,
      "circle": 6991,
      "feuilles": 6992,
      "catastro": 6993,
      "arrivés": 6994,
      "woods": 6995,
      "fellows": 6996,
      "différent": 6997,
      "deserted": 6998,
      "equ": 6999,
      "gell": 7000,
      "tut": 7001,
      "têtes": 7002,
      "ango": 7003,
      "quad": 7004,
      "asses": 7005,
      "meanti": 7006,
      "chais": 7007,
      "size": 7008,
      "sivement": 7009,
      "paraly": 7010,
      "composed": 7011,
      "desper": 7012,
      "exped": 7013,
      "serons": 7014,
      "iennes": 7015,
      "premiere": 7016,
      "olé": 7017,
      "emporter": 7018,
      "passeng": 7019,
      "sortie": 7020,
      "bourse": 7021,
      "poussait": 7022,
      "named": 7023,
      "faudra": 7024,
      "trembled": 7025,
      "longueur": 7026,
      "danse": 7027,
      "humili": 7028,
      "pavement": 7029,
      "meantime": 7030,
      "gou": 7031,
      "taire": 7032,
      "épou": 7033,
      "encourage": 7034,
      "aries": 7035,
      "ality": 7036,
      "apon": 7037,
      "chemise": 7038,
      "track": 7039,
      "dévo": 7040,
      "fired": 7041,
      "bye": 7042,
      "pirer": 7043,
      "picked": 7044,
      "gib": 7045,
      "rouen": 7046,
      "larges": 7047,
      "sourd": 7048,
      "présente": 7049,
      "woke": 7050,
      "banc": 7051,
      "occupait": 7052,
      "hautes": 7053,
      "nouveaux": 7054,
      "xiii": 7055,
      "recovered": 7056,
      "politique": 7057,
      "mercier": 7058,
      "cautions": 7059,
      "catastrophe": 7060,
      "aches": 7061,
      "sar": 7062,
      "reign": 7063,
      "theat": 7064,
      "enth": 7065,
      "lié": 7066,
      "usually": 7067,
      "ressemb": 7068,
      "aby": 7069,
      "prê": 7070,
      "pecu": 7071,
      "ieusement": 7072,
      "tiv": 7073,
      "boots": 7074,
      "posing": 7075,
      "courte": 7076,
      "lées": 7077,
      "torn": 7078,
      "quarters": 7079,
      "prend": 7080,
      "produit": 7081,
      "custom": 7082,
      "battait": 7083,
      "plainly": 7084,
      "troubled": 7085,
      "sûre": 7086,
      "chevê": 7087,
      "throat": 7088,
      "assurance": 7089,
      "cenzi": 7090,
      "provided": 7091,
      "considérable": 7092,
      "building": 7093,
      "crescenzi": 7094,
      "égyptienne": 7095,
      "peculiar": 7096,
      "bac": 7097,
      "odeur": 7098,
      "élect": 7099,
      "devenue": 7100,
      "destruction": 7101,
      "aster": 7102,
      "seurel": 7103,
      "chées": 7104,
      "nether": 7105,
      "irt": 7106,
      "contempt": 7107,
      "lowered": 7108,
      "dul": 7109,
      "monster": 7110,
      "plon": 7111,
      "déliv": 7112,
      "michaud": 7113,
      "crack": 7114,
      "ueuse": 7115,
      "couteau": 7116,
      "minded": 7117,
      "guar": 7118,
      "capri": 7119,
      "cuir": 7120,
      "valeur": 7121,
      "fuir": 7122,
      "fusse": 7123,
      "fleuve": 7124,
      "commencé": 7125,
      "endeav": 7126,
      "example": 7127,
      "amongst": 7128,
      "acheter": 7129,
      "enemies": 7130,
      "remarqué": 7131,
      "jury": 7132,
      "princesse": 7133,
      "napole": 7134,
      "compliment": 7135,
      "tristesse": 7136,
      "inclination": 7137,
      "shape": 7138,
      "ailles": 7139,
      "dai": 7140,
      "éve": 7141,
      "restr": 7142,
      "recue": 7143,
      "chèvre": 7144,
      "commer": 7145,
      "disparut": 7146,
      "donnez": 7147,
      "brain": 7148,
      "southern": 7149,
      "objection": 7150,
      "press": 7151,
      "sentis": 7152,
      "directed": 7153,
      "ruined": 7154,
      "tourn": 7155,
      "seuil": 7156,
      "istan": 7157,
      "related": 7158,
      "tombée": 7159,
      "flamme": 7160,
      "hurt": 7161,
      "awak": 7162,
      "observations": 7163,
      "music": 7164,
      "découvert": 7165,
      "bouteille": 7166,
      "lâche": 7167,
      "rous": 7168,
      "lava": 7169,
      "chu": 7170,
      "resto": 7171,
      "sachant": 7172,
      "grain": 7173,
      "goth": 7174,
      "proposed": 7175,
      "shone": 7176,
      "piano": 7177,
      "elling": 7178,
      "pressing": 7179,
      "assom": 7180,
      "offen": 7181,
      "jaune": 7182,
      "effor": 7183,
      "consequently": 7184,
      "attendais": 7185,
      "dernières": 7186,
      "tombé": 7187,
      "lecture": 7188,
      "accordingly": 7189,
      "bazin": 7190,
      "formerly": 7191,
      "bird": 7192,
      "concerned": 7193,
      "déclara": 7194,
      "vêtu": 7195,
      "morceaux": 7196,
      "information": 7197,
      "dragged": 7198,
      "***": 7199,
      "obscure": 7200,
      "bber": 7201,
      "daient": 7202,
      "mation": 7203,
      "renew": 7204,
      "arose": 7205,
      "orient": 7206,
      "alarm": 7207,
      "noires": 7208,
      "abat": 7209,
      "terrest": 7210,
      "tregell": 7211,
      "wealth": 7212,
      "pourra": 7213,
      "exhaus": 7214,
      "illés": 7215,
      "crit": 7216,
      "bled": 7217,
      "plaine": 7218,
      "minuit": 7219,
      "preci": 7220,
      "posée": 7221,
      "seeking": 7222,
      "missed": 7223,
      "toucher": 7224,
      "strang": 7225,
      "regagn": 7226,
      "worst": 7227,
      "cale": 7228,
      "empire": 7229,
      "drunk": 7230,
      "empl": 7231,
      "plume": 7232,
      "présenter": 7233,
      "rêver": 7234,
      "tranquil": 7235,
      "visiter": 7236,
      "difficulté": 7237,
      "uniform": 7238,
      "douceur": 7239,
      "thorough": 7240,
      "assumed": 7241,
      "princess": 7242,
      "rejoindre": 7243,
      "prevented": 7244,
      "throwing": 7245,
      "franklin": 7246,
      "kissed": 7247,
      "rapidité": 7248,
      "spéci": 7249,
      "netherfield": 7250,
      "tregellis": 7251,
      "maire": 7252,
      "pét": 7253,
      "ènes": 7254,
      "hell": 7255,
      "retreat": 7256,
      "enard": 7257,
      "dece": 7258,
      "arine": 7259,
      "needed": 7260,
      "tient": 7261,
      "pendu": 7262,
      "rette": 7263,
      "guet": 7264,
      "contained": 7265,
      "matel": 7266,
      "faisais": 7267,
      "masters": 7268,
      "adele": 7269,
      "rank": 7270,
      "stuff": 7271,
      "pirates": 7272,
      "reasons": 7273,
      "necessity": 7274,
      "mousqueton": 7275,
      "champion": 7276,
      "leading": 7277,
      "attendu": 7278,
      "conséquent": 7279,
      "pacifique": 7280,
      "réflexion": 7281,
      "penetr": 7282,
      "prétexte": 7283,
      "fare": 7284,
      "ively": 7285,
      "tles": 7286,
      "vest": 7287,
      "élev": 7288,
      "deck": 7289,
      "tomorrow": 7290,
      "meat": 7291,
      "edu": 7292,
      "convey": 7293,
      "loo": 7294,
      "rendered": 7295,
      "sheet": 7296,
      "disais": 7297,
      "viole": 7298,
      "fined": 7299,
      "guise": 7300,
      "affli": 7301,
      "truly": 7302,
      "kindness": 7303,
      "tendresse": 7304,
      "sleeping": 7305,
      "violently": 7306,
      "maigre": 7307,
      "naples": 7308,
      "napolé": 7309,
      "plantation": 7310,
      "uttering": 7311,
      "procure": 7312,
      "réfléchir": 7313,
      "crushed": 7314,
      "yonville": 7315,
      "america": 7316,
      "appointment": 7317,
      "excursion": 7318,
      "bau": 7319,
      "bath": 7320,
      "hong": 7321,
      "lheureux": 7322,
      "vô": 7323,
      "ested": 7324,
      "asing": 7325,
      "neau": 7326,
      "neurs": 7327,
      "limbs": 7328,
      "abais": 7329,
      "pol": 7330,
      "veget": 7331,
      "mesur": 7332,
      "shak": 7333,
      "angel": 7334,
      "crimes": 7335,
      "ferr": 7336,
      "noms": 7337,
      "folk": 7338,
      "empe": 7339,
      "accab": 7340,
      "bruy": 7341,
      "showing": 7342,
      "frequent": 7343,
      "groupe": 7344,
      "ignorance": 7345,
      "apercevait": 7346,
      "extrêmement": 7347,
      "siège": 7348,
      "commissaire": 7349,
      "jealousy": 7350,
      "province": 7351,
      "keeper": 7352,
      "sincère": 7353,
      "hospital": 7354,
      "ost": 7355,
      "recouv": 7356,
      "remonter": 7357,
      "enclo": 7358,
      "dee": 7359,
      "archevê": 7360,
      "irré": 7361,
      "étour": 7362,
      "logne": 7363,
      "sois": 7364,
      "terres": 7365,
      "permettre": 7366,
      "procession": 7367,
      "brit": 7368,
      "assistance": 7369,
      "lands": 7370,
      "préf": 7371,
      "friendship": 7372,
      "stead": 7373,
      "sourit": 7374,
      "wooden": 7375,
      "cabin": 7376,
      "souffrir": 7377,
      "freed": 7378,
      "environs": 7379,
      "promener": 7380,
      "james": 7381,
      "glimp": 7382,
      "douter": 7383,
      "citadelle": 7384,
      "higher": 7385,
      "espérer": 7386,
      "violemment": 7387,
      "gif": 7388,
      "ius": 7389,
      "task": 7390,
      "insu": 7391,
      "leap": 7392,
      "termes": 7393,
      "ludo": 7394,
      "rencon": 7395,
      "dernie": 7396,
      "discut": 7397,
      "pens": 7398,
      "tail": 7399,
      "couches": 7400,
      "useful": 7401,
      "sémin": 7402,
      "forehead": 7403,
      "fermer": 7404,
      "fermée": 7405,
      "ontaire": 7406,
      "offrir": 7407,
      "pouvons": 7408,
      "begged": 7409,
      "berg": 7410,
      "saisir": 7411,
      "secure": 7412,
      "érir": 7413,
      "habitants": 7414,
      "roman": 7415,
      "mousquetaire": 7416,
      "knee": 7417,
      "demeura": 7418,
      "provision": 7419,
      "rempla": 7420,
      "indul": 7421,
      "changé": 7422,
      "exprimer": 7423,
      "gaieté": 7424,
      "signora": 7425,
      "spark": 7426,
      "peasant": 7427,
      "consolation": 7428,
      "kong": 7429,
      "nou": 7430,
      "recalled": 7431,
      "enva": 7432,
      "chon": 7433,
      "chor": 7434,
      "concent": 7435,
      "abî": 7436,
      "formes": 7437,
      "prouve": 7438,
      "dim": 7439,
      "extended": 7440,
      "illir": 7441,
      "drebber": 7442,
      "tempête": 7443,
      "ferrier": 7444,
      "trouvant": 7445,
      "certaines": 7446,
      "hardi": 7447,
      "blanches": 7448,
      "toiles": 7449,
      "publique": 7450,
      "vagues": 7451,
      "décider": 7452,
      "crying": 7453,
      "reproach": 7454,
      "slipped": 7455,
      "rencontré": 7456,
      "climbed": 7457,
      "détermin": 7458,
      "applau": 7459,
      "jalousie": 7460,
      "accoutu": 7461,
      ",—": 7462,
      "13": 7463,
      "cable": 7464,
      "cass": 7465,
      "fasse": 7466,
      "gor": 7467,
      "mast": 7468,
      "nan": 7469,
      "ples": 7470,
      "rout": 7471,
      "arrest": 7472,
      "quill": 7473,
      "étince": 7474,
      "dessein": 7475,
      "server": 7476,
      "mendi": 7477,
      "réputation": 7478,
      "coupable": 7479,
      "justifi": 7480,
      "trava": 7481,
      "cercle": 7482,
      "berks": 7483,
      "habitation": 7484,
      "apparition": 7485,
      "connaît": 7486,
      "trompe": 7487,
      "gagné": 7488,
      "essaya": 7489,
      "accepted": 7490,
      "établis": 7491,
      "nullement": 7492,
      "mérite": 7493,
      "condem": 7494,
      "library": 7495,
      "bail": 7496,
      "cées": 7497,
      "daign": 7498,
      "loun": 7499,
      "lèrent": 7500,
      "sap": 7501,
      "army": 7502,
      "espace": 7503,
      "stret": 7504,
      "rican": 7505,
      "addition": 7506,
      "morency": 7507,
      "acqui": 7508,
      "allon": 7509,
      "tible": 7510,
      "manu": 7511,
      "manners": 7512,
      "disco": 7513,
      "shill": 7514,
      "souci": 7515,
      "sentin": 7516,
      "joye": 7517,
      "hume": 7518,
      "caché": 7519,
      "rum": 7520,
      "supérieur": 7521,
      "tournait": 7522,
      "quator": 7523,
      "montmorency": 7524,
      "pousser": 7525,
      "entends": 7526,
      "roads": 7527,
      "vanity": 7528,
      "reçut": 7529,
      "govern": 7530,
      "jugement": 7531,
      "solid": 7532,
      "dirai": 7533,
      "construction": 7534,
      "gascon": 7535,
      "ketty": 7536,
      "interrompit": 7537,
      "musketeer": 7538,
      "citadel": 7539,
      "victim": 7540,
      "bombay": 7541,
      "guillaume": 7542,
      "gus": 7543,
      "hag": 7544,
      "hanged": 7545,
      "ust": 7546,
      "umb": 7547,
      "labor": 7548,
      "tools": 7549,
      "soie": 7550,
      "desert": 7551,
      "treas": 7552,
      "weep": 7553,
      "renver": 7554,
      "monté": 7555,
      "monstre": 7556,
      "venais": 7557,
      "shaking": 7558,
      "gid": 7559,
      "érature": 7560,
      "anybody": 7561,
      "tuous": 7562,
      "spare": 7563,
      "signs": 7564,
      "sorrow": 7565,
      "domaine": 7566,
      "grivet": 7567,
      "changement": 7568,
      "reasonable": 7569,
      "affected": 7570,
      "baiser": 7571,
      "assurer": 7572,
      "resolution": 7573,
      "convenable": 7574,
      "gund": 7575,
      "silencieux": 7576,
      "cunég": 7577,
      "christi": 7578,
      "cunegund": 7579,
      "nourriture": 7580,
      "25": 7581,
      "brie": 7582,
      "hale": 7583,
      "jas": 7584,
      "llo": 7585,
      "lons": 7586,
      "oes": 7587,
      "entrait": 7588,
      "simil": 7589,
      "sively": 7590,
      "advent": 7591,
      "appointed": 7592,
      "abun": 7593,
      "agu": 7594,
      "mono": 7595,
      "tile": 7596,
      "résign": 7597,
      "proposition": 7598,
      "whale": 7599,
      "boats": 7600,
      "central": 7601,
      "passée": 7602,
      "commençai": 7603,
      "pursued": 7604,
      "zzo": 7605,
      "deliver": 7606,
      "suppli": 7607,
      "reflection": 7608,
      "amener": 7609,
      "gouvernante": 7610,
      "chase": 7611,
      "dirty": 7612,
      "frappé": 7613,
      "guilty": 7614,
      "hérit": 7615,
      "montrant": 7616,
      "étendue": 7617,
      "suspicion": 7618,
      "bizarre": 7619,
      "atmosphère": 7620,
      "désormais": 7621,
      "exhausted": 7622,
      "cunégonde": 7623,
      "lof": 7624,
      "nut": 7625,
      "savant": 7626,
      "tâche": 7627,
      "uary": 7628,
      "quences": 7629,
      "toler": 7630,
      "utions": 7631,
      "abra": 7632,
      "loaded": 7633,
      "tière": 7634,
      "blew": 7635,
      "retard": 7636,
      "lows": 7637,
      "greg": 7638,
      "charmant": 7639,
      "overcome": 7640,
      "mater": 7641,
      "porté": 7642,
      "auriez": 7643,
      "phant": 7644,
      "naked": 7645,
      "wicked": 7646,
      "anean": 7647,
      "terrified": 7648,
      "furieux": 7649,
      "apparut": 7650,
      "awk": 7651,
      "inquired": 7652,
      "pronounced": 7653,
      "birth": 7654,
      "meilleure": 7655,
      "froidement": 7656,
      "services": 7657,
      "sauta": 7658,
      "uneasy": 7659,
      "inexplicable": 7660,
      "abraham": 7661,
      "cay": 7662,
      "flying": 7663,
      "gress": 7664,
      "wants": 7665,
      "xvi": 7666,
      "hest": 7667,
      "issue": 7668,
      "arou": 7669,
      "qués": 7670,
      "sements": 7671,
      "entifi": 7672,
      "avon": 7673,
      "stared": 7674,
      "confus": 7675,
      "ability": 7676,
      "sonner": 7677,
      "désh": 7678,
      "vico": 7679,
      "mars": 7680,
      "inscri": 7681,
      "imprudence": 7682,
      "imprudent": 7683,
      "sédu": 7684,
      "charme": 7685,
      "directeur": 7686,
      "restée": 7687,
      "boule": 7688,
      "shown": 7689,
      "saison": 7690,
      "folly": 7691,
      "folded": 7692,
      "cécile": 7693,
      "glor": 7694,
      "formait": 7695,
      "flood": 7696,
      "excepté": 7697,
      "joue": 7698,
      "grimp": 7699,
      "mineurs": 7700,
      "owed": 7701,
      "wanting": 7702,
      "eighty": 7703,
      "excitement": 7704,
      "atteint": 7705,
      "avoue": 7706,
      "consult": 7707,
      "singulière": 7708,
      "illumin": 7709,
      "goutte": 7710,
      "betrayed": 7711,
      "exploration": 7712,
      "impertin": 7713,
      "explanation": 7714,
      "rô": 7715,
      "tun": 7716,
      "îles": 7717,
      "associ": 7718,
      "thurs": 7719,
      "rogue": 7720,
      "loon": 7721,
      "prét": 7722,
      "ams": 7723,
      "pourvu": 7724,
      "régn": 7725,
      "fian": 7726,
      "illis": 7727,
      "grin": 7728,
      "persis": 7729,
      "boîte": 7730,
      "wholly": 7731,
      "couché": 7732,
      "criant": 7733,
      "charger": 7734,
      "nerfs": 7735,
      "milly": 7736,
      "pointing": 7737,
      "vieilles": 7738,
      "répondu": 7739,
      "phé": 7740,
      "quoiqu": 7741,
      "vécu": 7742,
      "côtes": 7743,
      "plupart": 7744,
      "ajouter": 7745,
      "suffit": 7746,
      "understanding": 7747,
      "acquainted": 7748,
      "philosopher": 7749,
      "absorbed": 7750,
      "rolling": 7751,
      "faiblesse": 7752,
      "înt": 7753,
      "fancied": 7754,
      "divided": 7755,
      "mollus": 7756,
      "unexpected": 7757,
      "bous": 7758,
      "evi": 7759,
      "fab": 7760,
      "jes": 7761,
      "nis": 7762,
      "tan": 7763,
      "vus": 7764,
      "semin": 7765,
      "mechan": 7766,
      "uring": 7767,
      "ading": 7768,
      "estate": 7769,
      "hadn": 7770,
      "colu": 7771,
      "marée": 7772,
      "mince": 7773,
      "longitude": 7774,
      "mercer": 7775,
      "bond": 7776,
      "daylight": 7777,
      "clart": 7778,
      "génie": 7779,
      "bouquet": 7780,
      "household": 7781,
      "shock": 7782,
      "buy": 7783,
      "gazing": 7784,
      "conduit": 7785,
      "fausta": 7786,
      "handed": 7787,
      "politesse": 7788,
      "essayer": 7789,
      "adresser": 7790,
      "succeed": 7791,
      "oiseau": 7792,
      "description": 7793,
      "comfortable": 7794,
      "transports": 7795,
      "reconnus": 7796,
      "splendid": 7797,
      "wretch": 7798,
      "cellu": 7799,
      "raisonnable": 7800,
      "pictures": 7801,
      "palazzo": 7802,
      "discovery": 7803,
      "barri": 7804,
      "baie": 7805,
      "hate": 7806,
      "mout": 7807,
      "yton": 7808,
      "reusement": 7809,
      "thed": 7810,
      "parfait": 7811,
      "formé": 7812,
      "dimanche": 7813,
      "holy": 7814,
      "cocher": 7815,
      "frappa": 7816,
      "gown": 7817,
      "disput": 7818,
      "bra": 7819,
      "couper": 7820,
      "impré": 7821,
      "finish": 7822,
      "souver": 7823,
      "érait": 7824,
      "contact": 7825,
      "pleurer": 7826,
      "mettant": 7827,
      "oped": 7828,
      "mouquette": 7829,
      "approcher": 7830,
      "interested": 7831,
      "balloon": 7832,
      "purse": 7833,
      "vanité": 7834,
      "tremble": 7835,
      "navires": 7836,
      "papers": 7837,
      "interesting": 7838,
      "donnaient": 7839,
      "furniture": 7840,
      "disturb": 7841,
      "manifest": 7842,
      "corpse": 7843,
      "georgi": 7844,
      "cate": 7845,
      "faux": 7846,
      "gay": 7847,
      "glan": 7848,
      "smal": 7849,
      "thie": 7850,
      "audit": 7851,
      "stage": 7852,
      "lesquelles": 7853,
      "adver": 7854,
      "conom": 7855,
      "sacré": 7856,
      "prai": 7857,
      "song": 7858,
      "extent": 7859,
      "crains": 7860,
      "rades": 7861,
      "contessa": 7862,
      "pleins": 7863,
      "directement": 7864,
      "seconds": 7865,
      "slee": 7866,
      "chairs": 7867,
      "summit": 7868,
      "estime": 7869,
      "saurait": 7870,
      "beasts": 7871,
      "naufr": 7872,
      "shouting": 7873,
      "knocked": 7874,
      "recognised": 7875,
      "maréchal": 7876,
      "paisible": 7877,
      "travailler": 7878,
      "dirait": 7879,
      "mend": 7880,
      "ood": 7881,
      "sne": 7882,
      "ébran": 7883,
      "élevé": 7884,
      "inking": 7885,
      "arrested": 7886,
      "laun": 7887,
      "aved": 7888,
      "utmost": 7889,
      "éta": 7890,
      "divine": 7891,
      "accoun": 7892,
      "frant": 7893,
      "tale": 7894,
      "miners": 7895,
      "final": 7896,
      "choose": 7897,
      "érité": 7898,
      "cordi": 7899,
      "mén": 7900,
      "préhen": 7901,
      "raising": 7902,
      "younger": 7903,
      "pause": 7904,
      "empoison": 7905,
      "sauvé": 7906,
      "communi": 7907,
      "ouverture": 7908,
      "skill": 7909,
      "mingled": 7910,
      "fascin": 7911,
      "zzled": 7912,
      "chacune": 7913,
      "inclined": 7914,
      "énormes": 7915,
      "traverser": 7916,
      "mystère": 7917,
      "musique": 7918,
      "succession": 7919,
      "statue": 7920,
      "explication": 7921,
      "arrangement": 7922,
      "coquenard": 7923,
      "expérience": 7924,
      "card": 7925,
      "gren": 7926,
      "oil": 7927,
      "ront": 7928,
      "radi": 7929,
      "wreck": 7930,
      "ashes": 7931,
      "mered": 7932,
      "altogether": 7933,
      "teach": 7934,
      "chif": 7935,
      "robert": 7936,
      "adop": 7937,
      "libér": 7938,
      "saf": 7939,
      "compla": 7940,
      "chemist": 7941,
      "tristan": 7942,
      "amuse": 7943,
      "voler": 7944,
      "résister": 7945,
      "perceive": 7946,
      "vio": 7947,
      "retira": 7948,
      "complet": 7949,
      "lowood": 7950,
      "sombres": 7951,
      "goods": 7952,
      "faced": 7953,
      "drôle": 7954,
      "magas": 7955,
      "promp": 7956,
      "prompt": 7957,
      "forms": 7958,
      "frollo": 7959,
      "rascal": 7960,
      "présenta": 7961,
      "blancs": 7962,
      "examine": 7963,
      "secrets": 7964,
      "abandonné": 7965,
      "officiers": 7966,
      "golden": 7967,
      "rappeler": 7968,
      "examiner": 7969,
      "wonderful": 7970,
      "prononcer": 7971,
      "shadows": 7972,
      "................": 7973,
      "améric": 7974,
      "anguish": 7975,
      "georgiana": 7976,
      "!--": 7977,
      "bêtes": 7978,
      "cort": 7979,
      "émer": 7980,
      "islet": 7981,
      "chons": 7982,
      "chances": 7983,
      "sident": 7984,
      "admitted": 7985,
      "forti": 7986,
      "soient": 7987,
      "terie": 7988,
      "mond": 7989,
      "monu": 7990,
      "brun": 7991,
      "cram": 7992,
      "pretended": 7993,
      "couraient": 7994,
      "llen": 7995,
      "sentier": 7996,
      "pendre": 7997,
      "bought": 7998,
      "promesse": 7999,
      "midnight": 8000,
      "behavi": 8001,
      "flame": 8002,
      "langage": 8003,
      "distinguish": 8004,
      "comprenait": 8005,
      "victime": 8006,
      "favorable": 8007,
      "cott": 8008,
      "légèrement": 8009,
      "preserved": 8010,
      "prochaine": 8011,
      "enthousiasme": 8012,
      "ludovic": 8013,
      "behaviour": 8014,
      "dwelling": 8015,
      "fins": 8016,
      "èque": 8017,
      "remer": 8018,
      "inch": 8019,
      "ata": 8020,
      "seld": 8021,
      "stache": 8022,
      "mac": 8023,
      "maman": 8024,
      "roir": 8025,
      "roses": 8026,
      "render": 8027,
      "rences": 8028,
      "sonnet": 8029,
      "fril": 8030,
      "désert": 8031,
      "exhi": 8032,
      "réfu": 8033,
      "réserve": 8034,
      "whit": 8035,
      "bows": 8036,
      "craw": 8037,
      "wouldn": 8038,
      "guests": 8039,
      "humain": 8040,
      "reputation": 8041,
      "indicated": 8042,
      "exception": 8043,
      "sauter": 8044,
      "archbishop": 8045,
      "patri": 8046,
      "toires": 8047,
      "tenter": 8048,
      "regarded": 8049,
      "paysan": 8050,
      "remarquer": 8051,
      "lasted": 8052,
      "reflections": 8053,
      "rappelait": 8054,
      "lestrade": 8055,
      "concluded": 8056,
      "heights": 8057,
      "explosion": 8058,
      "atmosphere": 8059,
      "highest": 8060,
      "jumped": 8061,
      "imbé": 8062,
      "passengers": 8063,
      "frantz": 8064,
      ".”": 8065,
      "kor": 8066,
      "narr": 8067,
      "revi": 8068,
      "devez": 8069,
      "ery": 8070,
      "ering": 8071,
      "meal": 8072,
      "cep": 8073,
      "aimais": 8074,
      "confir": 8075,
      "modi": 8076,
      "duel": 8077,
      "plants": 8078,
      "nice": 8079,
      "impas": 8080,
      "devin": 8081,
      "coral": 8082,
      "vieillard": 8083,
      "arrivant": 8084,
      "assit": 8085,
      "mets": 8086,
      "cleared": 8087,
      "regardaient": 8088,
      "nommé": 8089,
      "...,": 8090,
      "grandeur": 8091,
      "poussière": 8092,
      "crust": 8093,
      "flus": 8094,
      "descendait": 8095,
      "suffo": 8096,
      "vagabond": 8097,
      "désirait": 8098,
      "multip": 8099,
      "torture": 8100,
      "nombreux": 8101,
      "speedy": 8102,
      "energy": 8103,
      "inhabited": 8104,
      "yonder": 8105,
      "fâché": 8106,
      "suggest": 8107,
      "establish": 8108,
      "pénétrer": 8109,
      "gallop": 8110,
      "enthusiasm": 8111,
      "lounge": 8112,
      "cine": 8113,
      "eating": 8114,
      "mât": 8115,
      "nin": 8116,
      "reinte": 8117,
      "invisible": 8118,
      "ceremon": 8119,
      "tear": 8120,
      "usse": 8121,
      "sade": 8122,
      "lydie": 8123,
      "duquel": 8124,
      "extrav": 8125,
      "fices": 8126,
      "perte": 8127,
      "façons": 8128,
      "canons": 8129,
      "tumul": 8130,
      "acting": 8131,
      "hedge": 8132,
      "opération": 8133,
      "horn": 8134,
      "boue": 8135,
      "suivis": 8136,
      "affreuse": 8137,
      "banks": 8138,
      "doubted": 8139,
      "lantern": 8140,
      "ondered": 8141,
      "sunday": 8142,
      "anciens": 8143,
      "inquiet": 8144,
      "paraissaient": 8145,
      "avançait": 8146,
      "whispered": 8147,
      "invited": 8148,
      "rappela": 8149,
      "eaten": 8150,
      "demeurait": 8151,
      "proceed": 8152,
      "arracher": 8153,
      "actually": 8154,
      "indignation": 8155,
      "appareil": 8156,
      "convaincu": 8157,
      "napoleon": 8158,
      "similar": 8159,
      "thursday": 8160,
      "frilair": 8161,
      "dal": 8162,
      "eul": 8163,
      "fain": 8164,
      "glow": 8165,
      "osait": 8166,
      "épi": 8167,
      "aris": 8168,
      "robes": 8169,
      "rochers": 8170,
      "ressemblait": 8171,
      "soi": 8172,
      "divis": 8173,
      "allong": 8174,
      "dissait": 8175,
      "proté": 8176,
      "marble": 8177,
      "whel": 8178,
      "crav": 8179,
      "mute": 8180,
      "somewhere": 8181,
      "devoured": 8182,
      "jock": 8183,
      "likewise": 8184,
      "supported": 8185,
      "valent": 8186,
      "traveller": 8187,
      "chapelle": 8188,
      "satur": 8189,
      "subitement": 8190,
      "frot": 8191,
      "stupe": 8192,
      "voisins": 8193,
      "épan": 8194,
      "coutume": 8195,
      "chette": 8196,
      "cousine": 8197,
      "cieusement": 8198,
      "activ": 8199,
      "distinguer": 8200,
      "éloigner": 8201,
      "écoutez": 8202,
      "tiré": 8203,
      "stories": 8204,
      "solide": 8205,
      "destinée": 8206,
      "fantais": 8207,
      "recherche": 8208,
      "énergie": 8209,
      "liverpool": 8210,
      "réfugi": 8211,
      "extravag": 8212,
      "equi": 8213,
      "vation": 8214,
      "rope": 8215,
      "apparti": 8216,
      "réquill": 8217,
      "uption": 8218,
      "appli": 8219,
      "charpent": 8220,
      "attes": 8221,
      "corne": 8222,
      "arron": 8223,
      "impri": 8224,
      "underwater": 8225,
      "travel": 8226,
      "sortis": 8227,
      "chanter": 8228,
      "prisonniers": 8229,
      "matinée": 8230,
      "borne": 8231,
      "incidents": 8232,
      "souvarine": 8233,
      "rappel": 8234,
      "savages": 8235,
      "respectable": 8236,
      "imaginer": 8237,
      "delivered": 8238,
      "sufficiently": 8239,
      "article": 8240,
      "offrait": 8241,
      "liquid": 8242,
      "fameux": 8243,
      "correct": 8244,
      "biblioth": 8245,
      "réquillart": 8246,
      "retire": 8247,
      "laires": 8248,
      "ceinture": 8249,
      "altesse": 8250,
      "sacre": 8251,
      "trad": 8252,
      "amused": 8253,
      "ieuses": 8254,
      "désign": 8255,
      "manières": 8256,
      "upstairs": 8257,
      "marbre": 8258,
      "marier": 8259,
      "touché": 8260,
      "précaution": 8261,
      "cases": 8262,
      "price": 8263,
      "instance": 8264,
      "servante": 8265,
      "vég": 8266,
      "sixty": 8267,
      "blessure": 8268,
      "miracle": 8269,
      "secous": 8270,
      "commune": 8271,
      "commend": 8272,
      "cisely": 8273,
      "careful": 8274,
      "highness": 8275,
      "produce": 8276,
      "xiv": 8277,
      "confes": 8278,
      "sensations": 8279,
      "wardes": 8280,
      "frere": 8281,
      "instructions": 8282,
      "théâtre": 8283,
      "fighting": 8284,
      "raconta": 8285,
      "chalou": 8286,
      "incessant": 8287,
      "napoléon": 8288,
      "condemned": 8289,
      "bbing": 8290,
      "iment": 8291,
      "raft": 8292,
      "tart": 8293,
      "vend": 8294,
      "én": 8295,
      "relle": 8296,
      "inclu": 8297,
      "thither": 8298,
      "roar": 8299,
      "convenu": 8300,
      "apprehen": 8301,
      "comrades": 8302,
      "prête": 8303,
      "tremp": 8304,
      "poon": 8305,
      "withstanding": 8306,
      "vex": 8307,
      "renvoy": 8308,
      "déso": 8309,
      "pired": 8310,
      "pretend": 8311,
      "troop": 8312,
      "restaient": 8313,
      "trouvais": 8314,
      "counted": 8315,
      "hunting": 8316,
      "forming": 8317,
      "gather": 8318,
      "exceed": 8319,
      "toral": 8320,
      "échou": 8321,
      "échange": 8322,
      "levai": 8323,
      "avancer": 8324,
      "briser": 8325,
      "guessed": 8326,
      "movements": 8327,
      "nulle": 8328,
      "protection": 8329,
      "cavalier": 8330,
      "arguments": 8331,
      "remarkable": 8332,
      "commerce": 8333,
      "freedom": 8334,
      "manufact": 8335,
      "jasmin": 8336,
      "aque": 8337,
      "eigh": 8338,
      "fallu": 8339,
      "hut": 8340,
      "irent": 8341,
      "oath": 8342,
      "xim": 8343,
      "enable": 8344,
      "ino": 8345,
      "isation": 8346,
      "issent": 8347,
      "today": 8348,
      "lim": 8349,
      "moin": 8350,
      "outils": 8351,
      "pember": 8352,
      "viously": 8353,
      "viande": 8354,
      "plaire": 8355,
      "quelconque": 8356,
      "raced": 8357,
      "chosen": 8358,
      "assist": 8359,
      "overwhel": 8360,
      "impul": 8361,
      "aurions": 8362,
      "tressaill": 8363,
      "vingts": 8364,
      "nails": 8365,
      "lication": 8366,
      "connus": 8367,
      "salt": 8368,
      "céré": 8369,
      "rassur": 8370,
      "poussé": 8371,
      "égal": 8372,
      "passionate": 8373,
      "dormait": 8374,
      "issante": 8375,
      "couverte": 8376,
      "repeating": 8377,
      "branch": 8378,
      "employer": 8379,
      "haz": 8380,
      "fierce": 8381,
      "reaching": 8382,
      "aventures": 8383,
      "dreams": 8384,
      "nécessaires": 8385,
      "résolus": 8386,
      "caresses": 8387,
      "causait": 8388,
      "welcome": 8389,
      "american": 8390,
      "personnages": 8391,
      "pharmacien": 8392,
      "scattered": 8393,
      "breeze": 8394,
      "pemberley": 8395,
      "fous": 8396,
      "écor": 8397,
      "ôme": 8398,
      "ersi": 8399,
      "orage": 8400,
      "ceiling": 8401,
      "molue": 8402,
      "lodo": 8403,
      "sovere": 8404,
      "dug": 8405,
      "herbes": 8406,
      "défi": 8407,
      "ferez": 8408,
      "doi": 8409,
      "manqué": 8410,
      "gray": 8411,
      "grate": 8412,
      "dite": 8413,
      "derville": 8414,
      "disci": 8415,
      "disgust": 8416,
      "miche": 8417,
      "bodies": 8418,
      "niveau": 8419,
      "carpet": 8420,
      "precisely": 8421,
      "meryton": 8422,
      "partage": 8423,
      "greve": 8424,
      "charmolue": 8425,
      "douzaine": 8426,
      "ferva": 8427,
      "raise": 8428,
      "barque": 8429,
      "approchait": 8430,
      "harpon": 8431,
      "happily": 8432,
      "niece": 8433,
      "generous": 8434,
      "vanished": 8435,
      "soufflait": 8436,
      "cliff": 8437,
      "sûreté": 8438,
      "tromper": 8439,
      "channel": 8440,
      "daughters": 8441,
      "raversi": 8442,
      "chasser": 8443,
      "annoncer": 8444,
      "breathing": 8445,
      "lourd": 8446,
      "précipita": 8447,
      "études": 8448,
      "éprouvait": 8449,
      "misérables": 8450,
      "neighbourhood": 8451,
      "weakness": 8452,
      "inhabitants": 8453,
      "inquir": 8454,
      "distribu": 8455,
      "étroite": 8456,
      "diminu": 8457,
      "towers": 8458,
      "ruisseau": 8459,
      "reduced": 8460,
      "cellule": 8461,
      "remercie": 8462,
      "bibliothèque": 8463,
      "sovereign": 8464,
      "fervaques": 8465,
      ",”": 8466,
      "11": 8467,
      "gaston": 8468,
      "haven": 8469,
      "sper": 8470,
      "éto": 8471,
      "écur": 8472,
      "resign": 8473,
      "inut": 8474,
      "ories": 8475,
      "mam": 8476,
      "formal": 8477,
      "amoun": 8478,
      "expense": 8479,
      "cian": 8480,
      "perspe": 8481,
      "vid": 8482,
      "donnée": 8483,
      "selle": 8484,
      "plafond": 8485,
      "greet": 8486,
      "gies": 8487,
      "choc": 8488,
      "cathe": 8489,
      "prier": 8490,
      "motions": 8491,
      "quitte": 8492,
      "détail": 8493,
      "simplic": 8494,
      "conduisait": 8495,
      "prends": 8496,
      "présentait": 8497,
      "arrivèrent": 8498,
      "swept": 8499,
      "distinguished": 8500,
      "écoute": 8501,
      "circumstance": 8502,
      "victoire": 8503,
      "procès": 8504,
      "emporté": 8505,
      "répéter": 8506,
      "judgment": 8507,
      "élança": 8508,
      "stammered": 8509,
      "stirred": 8510,
      "threatened": 8511,
      "established": 8512,
      "épargn": 8513,
      "absurd": 8514,
      "apparently": 8515,
      "numerous": 8516,
      "archevêque": 8517,
      "awkward": 8518,
      "column": 8519,
      "lodovico": 8520,
      "cils": 8521,
      "kers": 8522,
      "nons": 8523,
      "naire": 8524,
      "owe": 8525,
      "ril": 8526,
      "—\"": 8527,
      "septe": 8528,
      "teenth": 8529,
      "chure": 8530,
      "stable": 8531,
      "régiment": 8532,
      "butter": 8533,
      "marchant": 8534,
      "arest": 8535,
      "posit": 8536,
      "posant": 8537,
      "bones": 8538,
      "température": 8539,
      "kingdom": 8540,
      "humour": 8541,
      "porta": 8542,
      "certitude": 8543,
      "prirent": 8544,
      "nail": 8545,
      "germain": 8546,
      "ignant": 8547,
      "sources": 8548,
      "paying": 8549,
      "accès": 8550,
      "talent": 8551,
      "fouet": 8552,
      "prisoners": 8553,
      "vraie": 8554,
      "endez": 8555,
      "syl": 8556,
      "décida": 8557,
      "caverne": 8558,
      "fishing": 8559,
      "stopping": 8560,
      "dancing": 8561,
      "livrer": 8562,
      "glisser": 8563,
      "hesitated": 8564,
      "offrit": 8565,
      "augustin": 8566,
      "besançon": 8567,
      "caisse": 8568,
      "façade": 8569,
      "relieved": 8570,
      "derniere": 8571,
      "lofty": 8572,
      "sages": 8573,
      "âtres": 8574,
      "releva": 8575,
      "receiving": 8576,
      "recluse": 8577,
      "endirent": 8578,
      "eries": 8579,
      "essu": 8580,
      "thy": 8581,
      "text": 8582,
      "confort": 8583,
      "loose": 8584,
      "comprenez": 8585,
      "committed": 8586,
      "trap": 8587,
      "supre": 8588,
      "accomp": 8589,
      "pourrai": 8590,
      "geaient": 8591,
      "mangé": 8592,
      "serra": 8593,
      "perdus": 8594,
      "proie": 8595,
      "sell": 8596,
      "minds": 8597,
      "cherchant": 8598,
      "croit": 8599,
      "prévenir": 8600,
      "troublé": 8601,
      "passèrent": 8602,
      "certainty": 8603,
      "sings": 8604,
      "bule": 8605,
      "trick": 8606,
      "harpoon": 8607,
      "indian": 8608,
      "louche": 8609,
      "plaisait": 8610,
      "balcon": 8611,
      "candles": 8612,
      "helped": 8613,
      "syste": 8614,
      "tendit": 8615,
      "closely": 8616,
      "contented": 8617,
      "excellence": 8618,
      "employé": 8619,
      "aimez": 8620,
      "refuser": 8621,
      "italie": 8622,
      "expecting": 8623,
      "describe": 8624,
      "chent": 8625,
      "jeudi": 8626,
      "philosophi": 8627,
      "tambour": 8628,
      "rideaux": 8629,
      "déserte": 8630,
      "dangereux": 8631,
      "glimpse": 8632,
      "fabio": 8633,
      "safety": 8634,
      "cathedr": 8635,
      "bars": 8636,
      "scri": 8637,
      "ttes": 8638,
      "regiment": 8639,
      "deceived": 8640,
      "iso": 8641,
      "ari": 8642,
      "ilst": 8643,
      "straw": 8644,
      "rocher": 8645,
      "pardieu": 8646,
      "concert": 8647,
      "appréci": 8648,
      "forster": 8649,
      "agan": 8650,
      "despite": 8651,
      "dious": 8652,
      "accompany": 8653,
      "coarse": 8654,
      "tien": 8655,
      "fears": 8656,
      "réalité": 8657,
      "illit": 8658,
      "graves": 8659,
      "disappear": 8660,
      "vibr": 8661,
      "whilst": 8662,
      "inspe": 8663,
      "span": 8664,
      "tonner": 8665,
      "naï": 8666,
      "embou": 8667,
      "floating": 8668,
      "demanded": 8669,
      "rochelle": 8670,
      "bébert": 8671,
      "appartenait": 8672,
      "kindly": 8673,
      "issance": 8674,
      "situated": 8675,
      "complète": 8676,
      "richelieu": 8677,
      "slightest": 8678,
      "radeau": 8679,
      "graphi": 8680,
      "eagerly": 8681,
      "hastily": 8682,
      "extéri": 8683,
      "desperate": 8684,
      "flatter": 8685,
      "gaie": 8686,
      "jard": 8687,
      "éli": 8688,
      "évent": 8689,
      "recall": 8690,
      "leather": 8691,
      "ators": 8692,
      "assé": 8693,
      "mahi": 8694,
      "abroad": 8695,
      "holl": 8696,
      "coats": 8697,
      "timid": 8698,
      "feux": 8699,
      "réserv": 8700,
      "progress": 8701,
      "marins": 8702,
      "shaw": 8703,
      "shining": 8704,
      "auté": 8705,
      "couleurs": 8706,
      "letting": 8707,
      "cherche": 8708,
      "choice": 8709,
      "nuage": 8710,
      "appela": 8711,
      "lane": 8712,
      "silk": 8713,
      "lightning": 8714,
      "deneul": 8715,
      "murde": 8716,
      "friendly": 8717,
      "approche": 8718,
      "effroi": 8719,
      "bride": 8720,
      "jouait": 8721,
      "balle": 8722,
      "balbut": 8723,
      "occupée": 8724,
      "violente": 8725,
      "striking": 8726,
      "suffi": 8727,
      "pull": 8728,
      "décidément": 8729,
      "sacred": 8730,
      "françois": 8731,
      "neighbor": 8732,
      "religious": 8733,
      "ashamed": 8734,
      "stroke": 8735,
      "admire": 8736,
      "invest": 8737,
      "uneasiness": 8738,
      "naissance": 8739,
      "vulg": 8740,
      "bastille": 8741,
      "humide": 8742,
      "clarté": 8743,
      "deneulin": 8744,
      "100": 8745,
      "bré": 8746,
      "jok": 8747,
      "sounded": 8748,
      "illo": 8749,
      "lame": 8750,
      "stars": 8751,
      "siens": 8752,
      "beating": 8753,
      "commit": 8754,
      "holes": 8755,
      "acité": 8756,
      "acious": 8757,
      "début": 8758,
      "répugn": 8759,
      "grille": 8760,
      "discourse": 8761,
      "disparaître": 8762,
      "shaft": 8763,
      "bob": 8764,
      "plains": 8765,
      "imprison": 8766,
      "devel": 8767,
      "arrang": 8768,
      "négli": 8769,
      "resting": 8770,
      "cursed": 8771,
      "athé": 8772,
      "nights": 8773,
      "ggs": 8774,
      "paque": 8775,
      "fourth": 8776,
      "cédé": 8777,
      "conseils": 8778,
      "expan": 8779,
      "complex": 8780,
      "sounds": 8781,
      "trompé": 8782,
      "badly": 8783,
      "diamants": 8784,
      "original": 8785,
      "provinci": 8786,
      "gigantic": 8787,
      "rabbit": 8788,
      "reprenait": 8789,
      "besancon": 8790,
      "désespéré": 8791,
      "élève": 8792,
      "abruptly": 8793,
      "border": 8794,
      "vesti": 8795,
      "wondered": 8796,
      "ému": 8797,
      "écart": 8798,
      "élevée": 8799,
      "êle": 8800,
      "recent": 8801,
      "ané": 8802,
      "insupport": 8803,
      "quay": 8804,
      "laur": 8805,
      "sear": 8806,
      "stiff": 8807,
      "nois": 8808,
      "adminis": 8809,
      "loves": 8810,
      "lovely": 8811,
      "chere": 8812,
      "acknowled": 8813,
      "plantes": 8814,
      "déli": 8815,
      "exposed": 8816,
      "exagger": 8817,
      "sheep": 8818,
      "penses": 8819,
      "cartes": 8820,
      "journ": 8821,
      "auxquels": 8822,
      "precious": 8823,
      "mens": 8824,
      "choix": 8825,
      "devons": 8826,
      "fermait": 8827,
      "cloche": 8828,
      "type": 8829,
      "aurons": 8830,
      "itudes": 8831,
      "northern": 8832,
      "mayor": 8833,
      "suspected": 8834,
      "emmen": 8835,
      "égay": 8836,
      "wedding": 8837,
      "pereur": 8838,
      "obstacles": 8839,
      "crossing": 8840,
      "compliments": 8841,
      "accompagner": 8842,
      "temperature": 8843,
      "eternal": 8844,
      "detective": 8845,
      "grimace": 8846,
      "fausse": 8847,
      "theatre": 8848,
      "thoroughly": 8849,
      "chaloupe": 8850,
      "doivent": 8851,
      "supreme": 8852,
      "aked": 8853,
      "fought": 8854,
      "fûmes": 8855,
      "gil": 8856,
      "hull": 8857,
      "ration": 8858,
      "taught": 8859,
      "édu": 8860,
      "isant": 8861,
      "lade": 8862,
      "sees": 8863,
      "alz": 8864,
      "novel": 8865,
      "soigne": 8866,
      "comble": 8867,
      "chevre": 8868,
      "wept": 8869,
      "réser": 8870,
      "manoeuvre": 8871,
      "cier": 8872,
      "gol": 8873,
      "disaient": 8874,
      "message": 8875,
      "marks": 8876,
      "purent": 8877,
      "piet": 8878,
      "angles": 8879,
      "littoral": 8880,
      "devour": 8881,
      "cordes": 8882,
      "ferais": 8883,
      "metal": 8884,
      "morale": 8885,
      "coloured": 8886,
      "german": 8887,
      "valley": 8888,
      "norbert": 8889,
      "farou": 8890,
      "throughout": 8891,
      "effroy": 8892,
      "mariée": 8893,
      "sauve": 8894,
      "balan": 8895,
      "quantity": 8896,
      "pains": 8897,
      "produire": 8898,
      "couvent": 8899,
      "souffert": 8900,
      "passées": 8901,
      "agitated": 8902,
      "consideration": 8903,
      "whisper": 8904,
      "possibility": 8905,
      "chasseur": 8906,
      "étranges": 8907,
      "étrangers": 8908,
      "souffrance": 8909,
      "attacked": 8910,
      "softly": 8911,
      "yield": 8912,
      "désirer": 8913,
      "gigantes": 8914,
      "obeyed": 8915,
      "ceptible": 8916,
      "procurator": 8917,
      "cabaret": 8918,
      "elegant": 8919,
      "cérémon": 8920,
      "';": 8921,
      ".—": 8922,
      "12": 8923,
      "cathé": 8924,
      "jer": 8925,
      "écus": 8926,
      "élevait": 8927,
      "reuses": 8928,
      "erreur": 8929,
      "memes": 8930,
      "urg": 8931,
      "chok": 8932,
      "aim": 8933,
      "stained": 8934,
      "bec": 8935,
      "anson": 8936,
      "notwithstanding": 8937,
      "tiend": 8938,
      "fication": 8939,
      "vienne": 8940,
      "intens": 8941,
      "anglaise": 8942,
      "enceinte": 8943,
      "muette": 8944,
      "caprice": 8945,
      "somebody": 8946,
      "fulness": 8947,
      "prises": 8948,
      "clois": 8949,
      "voulaient": 8950,
      "ptions": 8951,
      "april": 8952,
      "counsel": 8953,
      "igner": 8954,
      "turns": 8955,
      "barbe": 8956,
      "souris": 8957,
      "submer": 8958,
      "risque": 8959,
      "sauf": 8960,
      "terribles": 8961,
      "nouvel": 8962,
      "sensi": 8963,
      "scientifi": 8964,
      "huss": 8965,
      "bords": 8966,
      "palis": 8967,
      "reality": 8968,
      "tortue": 8969,
      "profondeurs": 8970,
      "chandelle": 8971,
      "entrant": 8972,
      "gouvernement": 8973,
      "lourde": 8974,
      "volcano": 8975,
      "épouvante": 8976,
      "kisses": 8977,
      "operation": 8978,
      "étouff": 8979,
      "promettre": 8980,
      "infiniment": 8981,
      "nurse": 8982,
      "apparaissait": 8983,
      "government": 8984,
      "christian": 8985,
      "perspective": 8986,
      "embouchure": 8987,
      "cathédra": 8988,
      "muttered": 8989,
      "pled": 8990,
      "ronde": 8991,
      "sances": 8992,
      "vaine": 8993,
      "égar": 8994,
      "heels": 8995,
      "recon": 8996,
      "represent": 8997,
      "chants": 8998,
      "chèrent": 8999,
      "advis": 9000,
      "conject": 9001,
      "losing": 9002,
      "pement": 9003,
      "herbe": 9004,
      "plates": 9005,
      "survey": 9006,
      "series": 9007,
      "venger": 9008,
      "marty": 9009,
      "anges": 9010,
      "hum": 9011,
      "nuits": 9012,
      "landed": 9013,
      "rug": 9014,
      "instin": 9015,
      "singing": 9016,
      "glasses": 9017,
      "busy": 9018,
      "torches": 9019,
      "béné": 9020,
      "arrivaient": 9021,
      "rapporter": 9022,
      "admiral": 9023,
      "burned": 9024,
      "iii": 9025,
      "donnai": 9026,
      "viendrait": 9027,
      "oblige": 9028,
      "écolier": 9029,
      "described": 9030,
      "générale": 9031,
      "rempli": 9032,
      "honorable": 9033,
      "ridicul": 9034,
      "accomplished": 9035,
      "require": 9036,
      "hesitation": 9037,
      "beaten": 9038,
      "intimate": 9039,
      "craignait": 9040,
      "aveugle": 9041,
      "brutal": 9042,
      "christ": 9043,
      "véritablement": 9044,
      "expedition": 9045,
      "tonnerre": 9046,
      "alzire": 9047,
      "wake": 9048,
      "étoiles": 9049,
      "headed": 9050,
      "armé": 9051,
      "escla": 9052,
      "chass": 9053,
      "chron": 9054,
      "austri": 9055,
      "ailes": 9056,
      "rirent": 9057,
      "rome": 9058,
      "apt": 9059,
      "wearing": 9060,
      "tight": 9061,
      "timber": 9062,
      "extingu": 9063,
      "permettait": 9064,
      "vict": 9065,
      "placée": 9066,
      "carte": 9067,
      "coude": 9068,
      "mises": 9069,
      "nerve": 9070,
      "préparer": 9071,
      "ruine": 9072,
      "regardais": 9073,
      "supéri": 9074,
      "jetée": 9075,
      "passages": 9076,
      "personal": 9077,
      "nomen": 9078,
      "buff": 9079,
      "serviteur": 9080,
      "darde": 9081,
      "risquer": 9082,
      "bruits": 9083,
      "constitution": 9084,
      "battu": 9085,
      "marchiennes": 9086,
      "increase": 9087,
      "amené": 9088,
      "smooth": 9089,
      "illusion": 9090,
      "arrêtait": 9091,
      "introduced": 9092,
      "exécution": 9093,
      "diverses": 9094,
      "octobre": 9095,
      "tranquillité": 9096,
      "equally": 9097,
      "ferrante": 9098,
      "quatorze": 9099,
      "éducation": 9100,
      "vrais": 9101,
      "âne": 9102,
      "oudarde": 9103,
      "alarmed": 9104,
      "contenait": 9105,
      "apais": 9106,
      "fortement": 9107,
      "agen": 9108,
      "suez": 9109,
      "aisément": 9110,
      "montré": 9111,
      "geô": 9112,
      "prop": 9113,
      "bosom": 9114,
      "brul": 9115,
      "pirogue": 9116,
      "rares": 9117,
      "ralement": 9118,
      "chercha": 9119,
      "tempest": 9120,
      "ffes": 9121,
      "attente": 9122,
      "fermé": 9123,
      "milord": 9124,
      "spec": 9125,
      "shores": 9126,
      "embraced": 9127,
      "sixteen": 9128,
      "accused": 9129,
      "formation": 9130,
      "descendu": 9131,
      "flor": 9132,
      "qualités": 9133,
      "groups": 9134,
      "saurais": 9135,
      "jacob": 9136,
      "philosophe": 9137,
      "enjoyed": 9138,
      "reprises": 9139,
      "jackson": 9140,
      "delightful": 9141,
      "destroyed": 9142,
      "indifférence": 9143,
      "bohémienne": 9144,
      "renoncer": 9145,
      "egy": 9146,
      "gap": 9147,
      "hay": 9148,
      "haie": 9149,
      "lomb": 9150,
      "mity": 9151,
      "wings": 9152,
      "remont": 9153,
      "delouche": 9154,
      "esto": 9155,
      "entré": 9156,
      "united": 9157,
      "limp": 9158,
      "abus": 9159,
      "forêts": 9160,
      "modes": 9161,
      "menton": 9162,
      "sam": 9163,
      "poing": 9164,
      "songé": 9165,
      "pourraient": 9166,
      "gos": 9167,
      "whither": 9168,
      "soupe": 9169,
      "menace": 9170,
      "calmer": 9171,
      "causes": 9172,
      "drinking": 9173,
      "passport": 9174,
      "franc": 9175,
      "grotte": 9176,
      "basses": 9177,
      "risen": 9178,
      "rochefort": 9179,
      "produisit": 9180,
      "muscles": 9181,
      "excellente": 9182,
      "allusion": 9183,
      "royau": 9184,
      "staring": 9185,
      "chiens": 9186,
      "possibilité": 9187,
      "vapor": 9188,
      "tabac": 9189,
      "hills": 9190,
      "embarrassed": 9191,
      "conséquence": 9192,
      "échappait": 9193,
      "cheek": 9194,
      "crater": 9195,
      "intervals": 9196,
      "prochain": 9197,
      "triomphe": 9198,
      "distinctly": 9199,
      "preferred": 9200,
      "angoisse": 9201,
      "cathedral": 9202,
      "mahiette": 9203,
      "fling": 9204,
      "ians": 9205,
      "nèrent": 9206,
      "slu": 9207,
      "ware": 9208,
      "wrapp": 9209,
      "ètres": 9210,
      "indifference": 9211,
      "isa": 9212,
      "orna": 9213,
      "thres": 9214,
      "ombres": 9215,
      "austr": 9216,
      "stanger": 9217,
      "neg": 9218,
      "rosings": 9219,
      "resis": 9220,
      "aging": 9221,
      "tery": 9222,
      "pots": 9223,
      "sonna": 9224,
      "notion": 9225,
      "dépit": 9226,
      "exhau": 9227,
      "cigare": 9228,
      "upset": 9229,
      "marque": 9230,
      "marsh": 9231,
      "penole": 9232,
      "carré": 9233,
      "positions": 9234,
      "gical": 9235,
      "nerves": 9236,
      "attir": 9237,
      "classi": 9238,
      "voulant": 9239,
      "downstairs": 9240,
      "passagers": 9241,
      "lisière": 9242,
      "écrivit": 9243,
      "barrel": 9244,
      "rush": 9245,
      "connaissais": 9246,
      "blame": 9247,
      "planches": 9248,
      "fonds": 9249,
      "dawn": 9250,
      "ranera": 9251,
      "facts": 9252,
      "satisfait": 9253,
      "confession": 9254,
      "regardez": 9255,
      "allure": 9256,
      "increasing": 9257,
      "official": 9258,
      "brusque": 9259,
      "italy": 9260,
      "ballon": 9261,
      "dogs": 9262,
      "turtle": 9263,
      "gestes": 9264,
      "frémis": 9265,
      "leaned": 9266,
      "execu": 9267,
      "appelé": 9268,
      "measure": 9269,
      "coppenole": 9270,
      "slope": 9271,
      "valuable": 9272,
      "décembre": 9273,
      "gregson": 9274,
      "pietranera": 9275,
      "stangerson": 9276,
      "exhaust": 9277,
      "21": 9278,
      "bible": 9279,
      "câ": 9280,
      "cards": 9281,
      "ek": 9282,
      "echo": 9283,
      "hound": 9284,
      "knot": 9285,
      "lout": 9286,
      "nit": 9287,
      "nue": 9288,
      "pli": 9289,
      "ranger": 9290,
      "sut": 9291,
      "yok": 9292,
      "rew": 9293,
      "quins": 9294,
      "escort": 9295,
      "tos": 9296,
      "alli": 9297,
      "chil": 9298,
      "stout": 9299,
      "resistance": 9300,
      "parvenir": 9301,
      "verrons": 9302,
      "conver": 9303,
      "abilité": 9304,
      "local": 9305,
      "poète": 9306,
      "acé": 9307,
      "ieres": 9308,
      "frég": 9309,
      "pourrez": 9310,
      "poursuivit": 9311,
      "endless": 9312,
      "perdait": 9313,
      "pendi": 9314,
      "coupe": 9315,
      "couloir": 9316,
      "rets": 9317,
      "drez": 9318,
      "gic": 9319,
      "forts": 9320,
      "directions": 9321,
      "cules": 9322,
      "friar": 9323,
      "emper": 9324,
      "supposer": 9325,
      "list": 9326,
      "dences": 9327,
      "barbar": 9328,
      "enflam": 9329,
      "saisi": 9330,
      "paysans": 9331,
      "parois": 9332,
      "attentivement": 9333,
      "balance": 9334,
      "satisfy": 9335,
      "heavens": 9336,
      "sanglots": 9337,
      "meurtri": 9338,
      "confident": 9339,
      "fairly": 9340,
      "terminé": 9341,
      "superbe": 9342,
      "gravement": 9343,
      "blowing": 9344,
      "éloigna": 9345,
      "printemps": 9346,
      "viendra": 9347,
      "espérait": 9348,
      "dirigea": 9349,
      "forests": 9350,
      "cratère": 9351,
      "feverish": 9352,
      "gramme": 9353,
      "authority": 9354,
      "possédait": 9355,
      "réveilla": 9356,
[...]
