<unk>	0
<s>	0
</s>	0
▁t	-0
he	-1
▁a	-2
in	-3
▁the	-4
er	-5
on	-6
▁,	-7
re	-8
▁s	-9
ed	-10
▁w	-11
▁o	-12
nd	-13
at	-14
▁.	-15
or	-16
en	-17
▁c	-18
it	-19
▁f	-20
is	-21
es	-22
ar	-23
▁b	-24
▁of	-25
an	-26
▁in	-27
al	-28
ing	-29
▁p	-30
as	-31
▁and	-32
▁to	-33
ic	-34
ro	-35
▁m	-36
▁d	-37
▁h	-38
ion	-39
le	-40
ou	-41
▁T	-42
▁re	-43
▁=	-44
▁S	-45
il	-46
▁A	-47
ent	-48
▁"	-49
▁1	-50
▁th	-51
st	-52
▁l	-53
el	-54
▁C	-55
▁@	-56
▁e	-57
om	-58
am	-59
▁n	-60
ad	-61
ac	-62
▁was	-63
▁M	-64
▁on	-65
ec	-66
▁B	-67
▁The	-68
ly	-69
▁'	-70
ur	-71
et	-72
id	-73
▁g	-74
ol	-75
im	-76
▁I	-77
-@	-78
▁@-@	-79
▁for	-80
ir	-81
ig	-82
iv	-83
ot	-84
ter	-85
ut	-86
▁H	-87
▁as	-88
us	-89
ow	-90
ith	-91
ay	-92
▁2	-93
▁st	-94
▁P	-95
▁he	-96
ver	-97
ation	-98
▁with	-99
▁be	-100
▁that	-101
▁R	-102
ce	-103
▁D	-104
un	-105
em	-106
▁wh	-107
▁W	-108
▁by	-109
▁F	-110
ch	-111
▁al	-112
th	-113
▁is	-114
ul	-115
▁con	-116
▁L	-117
▁at	-118
ers	-119
ct	-120
▁N	-121
ain	-122
▁19	-123
and	-124
▁an	-125
os	-126
▁it	-127
her	-128
rom	-129
ag	-130
av	-131
um	-132
est	-133
00	-134
▁his	-135
▁r	-136
ri	-137
od	-138
▁from	-139
ist	-140
▁com	-141
ap	-142
▁pro	-143
▁v	-144
op	-145
if	-146
ore	-147
ill	-148
ld	-149
up	-150
ere	-151
ew	-152
res	-153
igh	-154
▁In	-155
ies	-156
▁de	-157
art	-158
ber	-159
ard	-160
ort	-161
▁se	-162
▁were	-163
ich	-164
ate	-165
ak	-166
all	-167
ab	-168
ant	-169
oc	-170
ud	-171
▁ex	-172
ong	-173
▁or	-174
▁ch	-175
gh	-176
ear	-177
ated	-178
▁pl	-179
▁sh	-180
ess	-181
ity	-182
ip	-183
ive	-184
ame	-185
▁had	-186
ect	-187
ack	-188
our	-189
▁St	-190
▁su	-191
red	-192
ast	-193
se	-194
▁which	-195
▁k	-196
ment	-197
▁le	-198
ge	-199
und	-200
▁are	-201
ov	-202
ian	-203
ial	-204
▁not	-205
▁sp	-206
ell	-207
ost	-208
▁y	-209
ight	-210
▁tr	-211
ord	-212
ust	-213
ary	-214
ia	-215
ther	-216
rit	-217
pt	-218
ine	-219
oun	-220
ical	-221
ave	-222
pp	-223
▁Ch	-224
▁un	-225
ue	-226
▁200	-227
cc	-228
▁inc	-229
fter	-230
ould	-231
▁but	-232
irst	-233
ish	-234
ous	-235
ions	-236
te	-237
▁comp	-238
so	-239
ff	-240
▁20	-241
ide	-242
▁whe	-243
▁ro	-244
ure	-245
▁ar	-246
▁cont	-247
ra	-248
ub	-249
▁first	-250
ign	-251
▁cl	-252
wo	-253
▁her	-254
ie	-255
▁its	-256
▁their	-257
og	-258
orm	-259
ass	-260
ork	-261
▁int	-262
▁res	-263
ok	-264
▁He	-265
ater	-266
▁also	-267
▁ab	-268
▁ad	-269
ome	-270
ond	-271
out	-272
age	-273
ry	-274
mer	-275
ire	-276
hed	-277
▁us	-278
du	-279
ime	-280
low	-281
ru	-282
▁per	-283
per	-284
ans	-285
▁who	-286
▁one	-287
▁have	-288
▁Th	-289
▁sc	-290
pl	-291
ally	-292
own	-293
ile	-294
ance	-295
▁rec	-296
ted	-297
.@	-298
▁@.@	-299
▁two	-300
ition	-301
ugh	-302
ree	-303
ence	-304
uring	-305
port	-306
▁been	-307
▁part	-308
▁bec	-309
ts	-310
▁has	-311
ice	-312
▁ag	-313
▁app	-314
▁Al	-315
▁201	-316
,@	-317
▁@,@	-318
ough	-319
▁en	-320
▁dis	-321
lud	-322
▁over	-323
▁this	-324
▁ser	-325
ory	-326
▁year	-327
ely	-328
ations	-329
are	-330
ember	-331
ction	-332
ound	-333
ke	-334
▁off	-335
▁after	-336
▁up	-337
ach	-338
▁play	-339
▁des	-340
land	-341
▁It	-342
ace	-343
over	-344
ark	-345
ric	-346
▁they	-347
▁out	-348
▁te	-349
ade	-350
▁other	-351
act	-352
▁man	-353
ib	-354
▁im	-355
ult	-356
▁includ	-357
ress	-358
ced	-359
ail	-360
urn	-361
wn	-362
▁would	-363
ens	-364
ind	-365
▁time	-366
▁into	-367
man	-368
▁pre	-369
ang	-370
one	-371
ep	-372
ward	-373
▁him	-374
▁we	-375
oin	-376
we	-377
ite	-378
ates	-379
▁she	-380
les	-381
ren	-382
▁ev	-383
able	-384
▁att	-385
ased	-386
ilm	-387
ited	-388
amp	-389
end	-390
ever	-391
ied	-392
ase	-393
▁comm	-394
ors	-395
▁inter	-396
rough	-397
ount	-398
oy	-399
ne	-400
form	-401
ons	-402
▁all	-403
▁more	-404
▁work	-405
ood	-406
ces	-407
ered	-408
old	-409
aw	-410
ings	-411
vel	-412
▁Ar	-413
ild	-414
▁new	-415
▁sec	-416
▁bet	-417
▁An	-418
ual	-419
ick	-420
ose	-421
▁when	-422
▁film	-423
inal	-424
ve	-425
▁fe	-426
ents	-427
ious	-428
ake	-429
way	-430
aus	-431
fer	-432
att	-433
reat	-434
ft	-435
▁cons	-436
iss	-437
round	-438
▁Mar	-439
▁rem	-440
gan	-441
rib	-442
rop	-443
ved	-444
ason	-445
▁dec	-446
▁during	-447
▁und	-448
orth	-449
ubl	-450
▁again	-451
hip	-452
▁most	-453
▁game	-454
▁9	-455
▁pr	-456
▁As	-457
▁them	-458
▁199	-459
▁only	-460
oth	-461
ween	-462
▁ear	-463
ix	-464
ollow	-465
▁than	-466
ath	-467
▁sup	-468
▁ne	-469
ational	-470
fore	-471
▁Se	-472
▁New	-473
▁about	-474
▁produ	-475
ob	-476
▁cent	-477
▁ret	-478
tern	-479
▁char	-480
▁song	-481
▁can	-482
outh	-483
ug	-484
▁between	-485
▁later	-486
▁rele	-487
▁under	-488
▁three	-489
▁kn	-490
ict	-491
▁col	-492
▁act	-493
ton	-494
iew	-495
▁00	-496
aid	-497
ron	-498
▁through	-499
hn	-500
orld	-501
▁num	-502
ook	-503
▁so	-504
▁acc	-505
▁me	-506
▁rel	-507
▁while	-508
▁end	-509
meric	-510
ank	-511
▁Americ	-512
lect	-513
▁Le	-514
▁fl	-515
ters	-516
▁pos	-517
ral	-518
ock	-519
▁sub	-520
ning	-521
▁ass	-522
▁where	-523
ular	-524
ating	-525
▁ver	-526
▁Re	-527
▁day	-528
▁reg	-529
▁second	-530
▁bu	-531
ener	-532
▁made	-533
▁Com	-534
ames	-535
ision	-536
ived	-537
ck	-538
▁pe	-539
▁record	-540
hes	-541
▁def	-542
bum	-543
▁four	-544
son	-545
▁gro	-546
▁follow	-547
▁season	-548
▁000	-549
▁form	-550
▁some	-551
▁ep	-552
als	-553
▁such	-554
ished	-555
▁am	-556
▁mov	-557
ool	-558
▁before	-559
ained	-560
▁mus	-561
▁there	-562
▁writ	-563
ph	-564
▁Sp	-565
▁spec	-566
ics	-567
ike	-568
▁10	-569
▁years	-570
▁team	-571
iel	-572
▁sy	-573
io	-574
ode	-575
▁This	-576
▁At	-577
ident	-578
▁lar	-579
▁album	-580
▁ind	-581
owever	-582
ily	-583
▁used	-584
▁ent	-585
▁gr	-586
ros	-587
hen	-588
▁call	-589
▁sur	-590
ific	-591
▁high	-592
▁ac	-593
▁publ	-594
ury	-595
▁Sh	-596
▁being	-597
▁epis	-598
▁then	-599
orn	-600
velop	-601
▁do	-602
▁loc	-603
led	-604
▁exp	-605
ten	-606
ife	-607
▁against	-608
▁inv	-609
other	-610
ris	-611
▁pres	-612
▁bl	-613
anc	-614
▁number	-615
▁show	-616
▁After	-617
▁charac	-618
ane	-619
▁0	-620
▁sever	-621
▁add	-622
▁set	-623
▁co	-624
ince	-625
▁became	-626
▁rece	-627
▁Brit	-628
ause	-629
ale	-630
▁lead	-631
▁perform	-632
▁including	-633
▁br	-634
▁sing	-635
▁no	-636
ars	-637
ather	-638
erm	-639
nited	-640
▁found	-641
▁well	-642
ines	-643
ek	-644
▁rep	-645
▁mon	-646
▁pol	-647
air	-648
▁back	-649
▁both	-650
▁series	-651
▁cap	-652
▁Sc	-653
ng	-654
▁12	-655
ober	-656
▁ship	-657
ier	-658
ower	-659
ement	-660
ired	-661
ures	-662
▁Con	-663
its	-664
▁main	-665
▁Wh	-666
ivers	-667
▁She	-668
ert	-669
▁min	-670
ley	-671
pen	-672
overn	-673
▁did	-674
iet	-675
▁go	-676
der	-677
▁cre	-678
elf	-679
▁develop	-680
▁imp	-681
ram	-682
ities	-683
ohn	-684
▁long	-685
▁met	-686
ik	-687
iver	-688
ised	-689
any	-690
ven	-691
olog	-692
ting	-693
ared	-694
▁mill	-695
ird	-696
▁em	-697
▁air	-698
uch	-699
ful	-700
▁mat	-701
▁episode	-702
tend	-703
irect	-704
ll	-705
▁said	-706
▁stud	-707
▁many	-708
▁bro	-709
ute	-710
ann	-711
▁dep	-712
▁could	-713
ative	-714
ually	-715
▁orig	-716
▁car	-717
▁contin	-718
▁war	-719
▁several	-720
▁American	-721
though	-722
▁dif	-723
▁inst	-724
▁pop	-725
▁Ind	-726
▁Cl	-727
ash	-728
ouse	-729
ield	-730
▁known	-731
emb	-732
ise	-733
ty	-734
▁Aust	-735
▁conc	-736
ued	-737
til	-738
▁Br	-739
▁11	-740
iam	-741
view	-742
ins	-743
▁War	-744
erson	-745
▁ob	-746
▁return	-747
▁began	-748
▁any	-749
▁sm	-750
▁comple	-751
▁design	-752
▁desc	-753
▁sign	-754
ople	-755
▁Be	-756
chool	-757
ross	-758
ange	-759
my	-760
▁est	-761
▁Fr	-762
aking	-763
ccess	-764
▁trans	-765
▁De	-766
▁prov	-767
▁feat	-768
oot	-769
ah	-770
▁inf	-771
▁run	-772
▁early	-773
hy	-774
ern	-775
▁art	-776
▁music	-777
▁own	-778
▁dist	-779
▁near	-780
▁released	-781
ided	-782
▁until	-783
▁Bl	-784
rap	-785
▁called	-786
ism	-787
▁eff	-788
imes	-789
▁Col	-790
▁resp	-791
ues	-792
▁bel	-793
▁ma	-794
▁pass	-795
une	-796
ured	-797
stem	-798
▁fin	-799
ially	-800
▁May	-801
ists	-802
▁down	-803
ution	-804
▁disc	-805
▁crit	-806
ments	-807
osed	-808
▁direct	-809
▁gener	-810
▁along	-811
xt	-812
▁ins	-813
▁million	-814
▁prev	-815
▁British	-816
erman	-817
▁group	-818
▁offic	-819
▁fam	-820
enn	-821
▁these	-822
ium	-823
ull	-824
▁mod	-825
▁may	-826
▁open	-827
ected	-828
cept	-829
▁mil	-830
▁poin	-831
els	-832
ains	-833
▁Ad	-834
▁land	-835
▁sim	-836
gest	-837
▁hist	-838
▁govern	-839
▁Aug	-840
▁Sept	-841
eb	-842
▁success	-843
ger	-844
▁str	-845
erv	-846
▁September	-847
▁August	-848
▁States	-849
▁World	-850
▁oper	-851
▁count	-852
▁attack	-853
ible	-854
uc	-855
▁same	-856
▁use	-857
▁gu	-858
▁Ap	-859
wards	-860
▁describ	-861
▁people	-862
ets	-863
▁For	-864
▁character	-865
aced	-866
▁because	-867
ner	-868
amed	-869
ink	-870
▁All	-871
aining	-872
▁Is	-873
▁like	-874
yp	-875
▁serv	-876
▁around	-877
▁though	-878
▁start	-879
aving	-880
▁ed	-881
▁km	-882
▁win	-883
▁const	-884
▁took	-885
▁occ	-886
▁Austral	-887
ruct	-888
▁batt	-889
▁Pl	-890
▁support	-891
ove	-892
ped	-893
▁following	-894
▁dr	-895
▁six	-896
▁Nov	-897
▁north	-898
▁Tr	-899
▁ele	-900
▁However	-901
▁system	-902
▁appear	-903
▁final	-904
▁received	-905
▁class	-906
uss	-907
▁Car	-908
ctober	-909
▁consid	-910
▁prom	-911
▁head	-912
ives	-913
ey	-914
▁ann	-915
ection	-916
ants	-917
uly	-918
▁Dec	-919
▁191	-920
ility	-921
▁ever	-922
▁state	-923
▁build	-924
ene	-925
▁each	-926
ically	-927
▁five	-928
ling	-929
▁adv	-930
▁ext	-931
anu	-932
▁Pro	-933
▁century	-934
▁aut	-935
▁area	-936
▁var	-937
ret	-938
▁will	-939
▁They	-940
▁small	-941
ately	-942
▁bo	-943
rol	-944
▁partic	-945
▁life	-946
gin	-947
▁North	-948
iving	-949
▁report	-950
get	-951
ects	-952
ored	-953
tle	-954
oss	-955
▁By	-956
ording	-957
ril	-958
▁city	-959
▁Me	-960
▁week	-961
▁public	-962
ians	-963
▁mar	-964
ax	-965
ission	-966
ina	-967
▁conf	-968
▁band	-969
▁ref	-970
▁November	-971
med	-972
urch	-973
▁Har	-974
▁rest	-975
▁Comm	-976
▁world	-977
▁since	-978
▁Will	-979
inc	-980
▁med	-981
▁single	-982
raft	-983
▁April	-984
esp	-985
por	-986
lish	-987
▁det	-988
▁March	-989
ried	-990
▁last	-991
▁Pr	-992
omet	-993
..	-994
hest	-995
ural	-996
ional	-997
▁turn	-998
ively	-999
▁allow	-1000
▁Mc	-1001
▁hel	-1002
aim	-1003
ilt	-1004
▁Can	-1005
ient	-1006
▁arr	-1007
▁po	-1008
▁left	-1009
ague	-1010
▁large	-1011
▁line	-1012
▁differ	-1013
idge	-1014
uent	-1015
▁care	-1016
▁South	-1017
cl	-1018
▁south	-1019
▁During	-1020
▁...	-1021
ales	-1022
ified	-1023
▁book	-1024
▁vers	-1025
▁school	-1026
empt	-1027
rist	-1028
▁December	-1029
▁third	-1030
avy	-1031
▁sl	-1032
ble	-1033
▁incre	-1034
ats	-1035
▁month	-1036
▁due	-1037
▁appro	-1038
ined	-1039
▁played	-1040
▁much	-1041
▁event	-1042
▁if	-1043
▁another	-1044
rote	-1045
anuary	-1046
▁included	-1047
▁192	-1048
▁what	-1049
row	-1050
▁based	-1051
▁place	-1052
eng	-1053
▁short	-1054
aged	-1055
▁II	-1056
by	-1057
▁government	-1058
▁expl	-1059
▁Ph	-1060
ograp	-1061
▁person	-1062
▁wrote	-1063
▁When	-1064
▁track	-1065
ony	-1066
ball	-1067
▁camp	-1068
▁old	-1069
▁tit	-1070
ney	-1071
▁name	-1072
apan	-1073
▁death	-1074
▁bre	-1075
alf	-1076
▁port	-1077
▁ph	-1078
ages	-1079
▁elect	-1080
▁won	-1081
ience	-1082
ple	-1083
▁child	-1084
▁lit	-1085
▁prot	-1086
▁kill	-1087
▁eng	-1088
▁story	-1089
▁prog	-1090
ideo	-1091
▁power	-1092
oad	-1093
▁review	-1094
ody	-1095
▁vis	-1096
▁home	-1097
ital	-1098
▁led	-1099
▁Bro	-1100
▁described	-1101
▁previous	-1102
▁cour	-1103
▁family	-1104
▁gun	-1105
▁Te	-1106
oman	-1107
▁way	-1108
ott	-1109
▁named	-1110
▁right	-1111
▁now	-1112
urther	-1113
▁dem	-1114
▁even	-1115
iven	-1116
▁make	-1117
iod	-1118
▁Mus	-1119
▁men	-1120
embers	-1121
ilar	-1122
urop	-1123
▁leg	-1124
ged	-1125
iversity	-1126
▁attempt	-1127
ister	-1128
reen	-1129
▁best	-1130
ention	-1131
itions	-1132
omin	-1133
▁repl	-1134
ivision	-1135
▁opp	-1136
▁100	-1137
▁games	-1138
cy	-1139
rench	-1140
aff	-1141
ached	-1142
▁term	-1143
▁command	-1144
▁top	-1145
ior	-1146
▁hand	-1147
▁poss	-1148
ival	-1149
eor	-1150
▁belie	-1151
▁very	-1152
▁dam	-1153
▁those	-1154
▁His	-1155
▁And	-1156
ness	-1157
▁Feb	-1158
ont	-1159
mp	-1160
ruary	-1161
▁February	-1162
▁iss	-1163
▁still	-1164
▁organ	-1165
▁next	-1166
▁species	-1167
▁Fl	-1168
▁view	-1169
riend	-1170
ances	-1171
self	-1172
▁Christ	-1173
▁par	-1174
▁capt	-1175
▁There	-1176
ps	-1177
▁National	-1178
aken	-1179
▁original	-1180
oci	-1181
ature	-1182
▁spe	-1183
ences	-1184
▁water	-1185
▁addition	-1186
uest	-1187
ox	-1188
ched	-1189
urope	-1190
▁list	-1191
sh	-1192
ery	-1193
▁We	-1194
▁within	-1195
▁period	-1196
▁members	-1197
▁mark	-1198
▁held	-1199
▁built	-1200
▁French	-1201
▁deb	-1202
▁exper	-1203
▁infl	-1204
▁release	-1205
▁2010	-1206
▁although	-1207
▁late	-1208
▁former	-1209
hor	-1210
▁great	-1211
▁match	-1212
▁Bar	-1213
rew	-1214
alk	-1215
lev	-1216
▁sold	-1217
▁dest	-1218
augh	-1219
uted	-1220
▁cur	-1221
tended	-1222
▁video	-1223
line	-1224
▁caus	-1225
▁storm	-1226
ring	-1227
▁West	-1228
ards	-1229
▁cover	-1230
▁init	-1231
▁Par	-1232
▁role	-1233
▁present	-1234
▁21	-1235
ropical	-1236
▁William	-1237
▁came	-1238
▁estab	-1239
▁av	-1240
▁tri	-1241
▁days	-1242
▁result	-1243
▁Am	-1244
▁mid	-1245
▁control	-1246
uad	-1247
ption	-1248
▁stand	-1249
▁real	-1250
▁polit	-1251
ulation	-1252
na	-1253
af	-1254
ides	-1255
ech	-1256
▁however	-1257
ler	-1258
oon	-1259
itary	-1260
hel	-1261
▁cr	-1262
▁my	-1263
▁2009	-1264
▁prop	-1265
▁few	-1266
▁town	-1267
aster	-1268
▁wind	-1269
ense	-1270
▁you	-1271
▁side	-1272
▁tw	-1273
▁different	-1274
▁continued	-1275
▁often	-1276
akes	-1277
atic	-1278
▁Man	-1279
▁local	-1280
▁sk	-1281
▁2011	-1282
▁post	-1283
▁among	-1284
▁say	-1285
▁similar	-1286
ham	-1287
ruction	-1288
tal	-1289
▁Air	-1290
omb	-1291
▁Char	-1292
▁Her	-1293
▁Mich	-1294
▁Min	-1295
▁claim	-1296
ead	-1297
▁hum	-1298
au	-1299
elt	-1300
gy	-1301
estern	-1302
ngland	-1303
omen	-1304
side	-1305
ator	-1306
reet	-1307
br	-1308
▁No	-1309
▁sug	-1310
read	-1311
ract	-1312
let	-1313
▁beh	-1314
▁del	-1315
▁further	-1316
▁typ	-1317
ying	-1318
ese	-1319
▁sent	-1320
▁Rec	-1321
▁level	-1322
ves	-1323
▁considered	-1324
▁take	-1325
▁Dav	-1326
▁law	-1327
ology	-1328
▁fre	-1329
▁22	-1330
ops	-1331
▁career	-1332
eter	-1333
uck	-1334
par	-1335
ots	-1336
▁production	-1337
esc	-1338
▁half	-1339
urs	-1340
▁Park	-1341
▁having	-1342
ices	-1343
▁City	-1344
ampions	-1345
ms	-1346
nglish	-1347
▁Acc	-1348
app	-1349
uar	-1350
ung	-1351
▁moved	-1352
▁east	-1353
▁road	-1354
yl	-1355
▁mag	-1356
▁ant	-1357
▁without	-1358
▁every	-1359
▁west	-1360
▁Although	-1361
me	-1362
▁Co	-1363
ering	-1364
rodu	-1365
▁cor	-1366
▁appe	-1367
▁player	-1368
▁2012	-1369
▁position	-1370
▁become	-1371
▁plan	-1372
▁Cent	-1373
▁history	-1374
▁version	-1375
▁conv	-1376
ondon	-1377
▁Ang	-1378
bo	-1379
ront	-1380
▁Count	-1381
▁cast	-1382
▁London	-1383
▁el	-1384
▁house	-1385
vers	-1386
ches	-1387
▁sound	-1388
resent	-1389
ford	-1390
▁commun	-1391
ones	-1392
yle	-1393
▁fore	-1394
▁suggest	-1395
▁Cal	-1396
▁club	-1397
▁strong	-1398
▁invol	-1399
▁Batt	-1400
▁written	-1401
irc	-1402
atter	-1403
▁190	-1404
▁With	-1405
▁less	-1406
▁bas	-1407
▁stat	-1408
▁announ	-1409
utes	-1410
aul	-1411
▁foot	-1412
▁River	-1413
▁order	-1414
ape	-1415
▁refer	-1416
iety	-1417
rest	-1418
▁Canad	-1419
iment	-1420
▁prof	-1421
craft	-1422
▁point	-1423
▁given	-1424
▁aff	-1425
▁tem	-1426
▁low	-1427
▁trad	-1428
▁hig	-1429
▁want	-1430
niversity	-1431
▁gave	-1432
▁rad	-1433
▁ke	-1434
rent	-1435
▁far	-1436
▁import	-1437
▁never	-1438
▁While	-1439
▁chang	-1440
▁defe	-1441
ailed	-1442
ald	-1443
▁returned	-1444
▁pat	-1445
▁soc	-1446
ories	-1447
▁total	-1448
▁vict	-1449
▁tro	-1450
▁fact	-1451
▁good	-1452
▁High	-1453
▁Pol	-1454
▁company	-1455
▁went	-1456
▁country	-1457
aly	-1458
▁comb	-1459
▁fire	-1460
▁friend	-1461
cess	-1462
▁published	-1463
roy	-1464
▁hour	-1465
ison	-1466
sp	-1467
▁produced	-1468
ai	-1469
ges	-1470
levision	-1471
▁find	-1472
▁reported	-1473
aun	-1474
▁origin	-1475
isc	-1476
▁youn	-1477
ably	-1478
▁lost	-1479
▁stated	-1480
aign	-1481
▁common	-1482
▁program	-1483
ille	-1484
▁particular	-1485
▁light	-1486
▁ord	-1487
▁adm	-1488
▁Sm	-1489
con	-1490
▁include	-1491
err	-1492
ington	-1493
▁According	-1494
echn	-1495
urric	-1496
▁compet	-1497
▁recorded	-1498
used	-1499
▁building	-1500
▁press	-1501
hing	-1502
ief	-1503
▁need	-1504
gr	-1505
▁forces	-1506
▁bus	-1507
▁Sy	-1508
▁nort	-1509
▁ships	-1510
▁should	-1511
▁using	-1512
▁eight	-1513
▁interest	-1514
ument	-1515
nt	-1516
▁Ab	-1517
▁performance	-1518
▁service	-1519
▁popular	-1520
▁These	-1521
▁ide	-1522
ploy	-1523
▁times	-1524
▁influ	-1525
raw	-1526
▁making	-1527
▁aircraft	-1528
▁ten	-1529
▁himself	-1530
▁author	-1531
oyal	-1532
ned	-1533
▁father	-1534
▁military	-1535
tain	-1536
▁fun	-1537
iness	-1538
▁Australia	-1539
▁Sw	-1540
osp	-1541
▁battle	-1542
▁anim	-1543
ampionship	-1544
▁Ma	-1545
lear	-1546
▁Sec	-1547
▁sit	-1548
▁lim	-1549
▁songs	-1550
▁somet	-1551
▁Ass	-1552
atch	-1553
▁fr	-1554
▁read	-1555
outher	-1556
▁Ne	-1557
▁critic	-1558
ensive	-1559
▁development	-1560
play	-1561
▁Af	-1562
ither	-1563
xim	-1564
eneral	-1565
ords	-1566
▁how	-1567
alth	-1568
▁sw	-1569
itive	-1570
▁State	-1571
olution	-1572
▁Ste	-1573
▁gl	-1574
outhern	-1575
eder	-1576
ases	-1577
ae	-1578
▁cross	-1579
▁Cor	-1580
▁represent	-1581
▁ground	-1582
▁Dr	-1583
▁ft	-1584
cer	-1585
▁star	-1586
▁remained	-1587
astern	-1588
acy	-1589
▁characters	-1590
▁Army	-1591
▁national	-1592
▁get	-1593
▁ste	-1594
▁months	-1595
▁suff	-1596
▁died	-1597
ks	-1598
oll	-1599
▁Pres	-1600
ray	-1601
▁gen	-1602
▁developed	-1603
ries	-1604
▁title	-1605
ublic	-1606
rie	-1607
work	-1608
▁sum	-1609
▁Comp	-1610
▁chart	-1611
dom	-1612
▁campaign	-1613
urricane	-1614
▁force	-1615
fic	-1616
▁children	-1617
▁League	-1618
ration	-1619
ream	-1620
▁introdu	-1621
bs	-1622
▁promot	-1623
▁tour	-1624
ency	-1625
itted	-1626
eth	-1627
▁signific	-1628
▁Bo	-1629
▁across	-1630
isted	-1631
lands	-1632
▁son	-1633
▁away	-1634
ression	-1635
▁relations	-1636
▁red	-1637
hern	-1638
▁obs	-1639
▁official	-1640
▁field	-1641
▁histor	-1642
▁Division	-1643
ael	-1644
▁fav	-1645
▁pra	-1646
▁felt	-1647
▁effect	-1648
▁America	-1649
rick	-1650
lege	-1651
▁noted	-1652
yn	-1653
▁fac	-1654
▁night	-1655
most	-1656
▁announced	-1657
▁reached	-1658
▁Russ	-1659
▁intern	-1660
▁Sim	-1661
▁created	-1662
▁County	-1663
▁areas	-1664
▁destroy	-1665
▁television	-1666
vent	-1667
apanese	-1668
▁station	-1669
▁Road	-1670
▁Rep	-1671
▁coun	-1672
alt	-1673
▁successful	-1674
ressed	-1675
uently	-1676
ole	-1677
▁rock	-1678
▁Mor	-1679
uel	-1680
▁Sup	-1681
▁arm	-1682
▁Street	-1683
▁various	-1684
▁val	-1685
▁political	-1686
▁seen	-1687
reg	-1688
▁followed	-1689
▁aver	-1690
▁too	-1691
▁Mad	-1692
▁bar	-1693
▁rank	-1694
▁trav	-1695
▁Mon	-1696
▁performed	-1697
iting	-1698
ising	-1699
▁Rober	-1700
lin	-1701
▁cult	-1702
▁served	-1703
▁players	-1704
eorge	-1705
cast	-1706
iber	-1707
▁Reg	-1708
▁29	-1709
▁full	-1710
▁cond	-1711
▁rev	-1712
▁begin	-1713
▁prim	-1714
ope	-1715
duct	-1716
▁black	-1717
elling	-1718
▁fle	-1719
▁put	-1720
▁earl	-1721
▁circ	-1722
abor	-1723
field	-1724
▁cost	-1725
idence	-1726
▁see	-1727
▁sol	-1728
▁Hen	-1729
▁process	-1730
omp	-1731
hem	-1732
▁style	-1733
▁look	-1734
▁test	-1735
▁div	-1736
▁seven	-1737
▁enc	-1738
▁To	-1739
▁killed	-1740
▁aud	-1741
▁help	-1742
▁Phil	-1743
rict	-1744
▁let	-1745
lished	-1746
▁throughout	-1747
▁vol	-1748
▁taken	-1749
▁Ser	-1750
▁able	-1751
▁tropical	-1752
▁Bill	-1753
day	-1754
▁fight	-1755
▁discover	-1756
▁non	-1757
▁agre	-1758
▁little	-1759
ertain	-1760
oint	-1761
▁wid	-1762
ecut	-1763
▁becom	-1764
▁cy	-1765
▁significant	-1766
▁age	-1767
▁fem	-1768
ett	-1769
▁meet	-1770
▁hit	-1771
bor	-1772
▁ident	-1773
ination	-1774
▁special	-1775
▁techn	-1776
ways	-1777
▁writing	-1778
▁er	-1779
oice	-1780
ili	-1781
▁struct	-1782
▁thought	-1783
▁established	-1784
▁broad	-1785
irl	-1786
▁cop	-1787
▁mm	-1788
enced	-1789
▁body	-1790
▁front	-1791
▁appeared	-1792
▁does	-1793
▁David	-1794
▁Act	-1795
▁entire	-1796
▁Australian	-1797
▁Part	-1798
epend	-1799
▁points	-1800
▁coast	-1801
▁miles	-1802
▁coll	-1803
▁award	-1804
aval	-1805
uired	-1806
▁impro	-1807
▁route	-1808
▁member	-1809
▁decl	-1810
▁Rich	-1811
ought	-1812
ground	-1813
▁women	-1814
▁activ	-1815
▁range	-1816
den	-1817
odes	-1818
▁caused	-1819
▁started	-1820
▁decided	-1821
ript	-1822
urg	-1823
ingdom	-1824
▁La	-1825
▁features	-1826
▁general	-1827
lected	-1828
▁Afric	-1829
▁Med	-1830
▁pain	-1831
▁eventually	-1832
ana	-1833
ara	-1834
▁Per	-1835
less	-1836
hys	-1837
aves	-1838
iron	-1839
conom	-1840
▁Royal	-1841
▁race	-1842
ask	-1843
ators	-1844
iec	-1845
▁vot	-1846
ming	-1847
▁grow	-1848
▁manag	-1849
▁arch	-1850
▁feet	-1851
ster	-1852
ogn	-1853
gether	-1854
▁together	-1855
iers	-1856
▁added	-1857
rison	-1858
▁hold	-1859
▁House	-1860
▁Hist	-1861
cil	-1862
▁cut	-1863
▁Pe	-1864
▁once	-1865
▁white	-1866
here	-1867
ivid	-1868
▁My	-1869
▁formed	-1870
ample	-1871
▁tre	-1872
▁organi	-1873
▁located	-1874
▁nov	-1875
▁stri	-1876
itar	-1877
▁arg	-1878
reek	-1879
▁Sch	-1880
▁conn	-1881
ament	-1882
▁modern	-1883
▁instead	-1884
rought	-1885
ius	-1886
bert	-1887
▁round	-1888
emy	-1889
men	-1890
▁esc	-1891
umb	-1892
orts	-1893
▁Black	-1894
dle	-1895
aces	-1896
▁ball	-1897
▁important	-1898
hic	-1899
▁mix	-1900
omm	-1901
▁Intern	-1902
▁crew	-1903
▁pri	-1904
▁saw	-1905
▁action	-1906
▁ra	-1907
urb	-1908
▁completed	-1909
cing	-1910
oined	-1911
▁redu	-1912
off	-1913
head	-1914
▁playing	-1915
▁Indian	-1916
ades	-1917
oney	-1918
oe	-1919
cent	-1920
▁insp	-1921
▁population	-1922
▁mater	-1923
▁invest	-1924
▁base	-1925
▁surv	-1926
▁Michael	-1927
▁mot	-1928
ells	-1929
▁voc	-1930
▁rather	-1931
▁occur	-1932
▁ask	-1933
▁opened	-1934
▁stage	-1935
▁behind	-1936
▁others	-1937
ush	-1938
▁fall	-1939
▁guns	-1940
▁brother	-1941
ceed	-1942
asing	-1943
▁comment	-1944
▁lik	-1945
igned	-1946
ements	-1947
▁fif	-1948
▁site	-1949
▁live	-1950
▁works	-1951
aps	-1952
▁loss	-1953
stit	-1954
▁France	-1955
▁worked	-1956
▁bomb	-1957
ficult	-1958
▁heavy	-1959
▁miss	-1960
ays	-1961
int	-1962
▁subse	-1963
▁pred	-1964
▁lack	-1965
▁School	-1966
medi	-1967
▁party	-1968
▁proble	-1969
▁difficult	-1970
▁close	-1971
lection	-1972
wood	-1973
▁construction	-1974
uick	-1975
nder	-1976
▁Wash	-1977
▁know	-1978
▁Some	-1979
▁relationship	-1980
▁weeks	-1981
▁host	-1982
ivil	-1983
▁originally	-1984
gg	-1985
▁separ	-1986
▁associ	-1987
▁Ham	-1988
▁upon	-1989
uk	-1990
▁pract	-1991
▁Henry	-1992
▁leading	-1993
▁San	-1994
▁Nor	-1995
▁almost	-1996
▁vill	-1997
▁young	-1998
▁Robert	-1999
▁peak	-2000
▁damage	-2001
istic	-2002
▁born	-2003
▁scored	-2004
ata	-2005
▁fourth	-2006
▁Port	-2007
▁inform	-2008
▁2000	-2009
▁reve	-2010
osition	-2011
▁provided	-2012
▁Best	-2013
ividual	-2014
arch	-2015
▁mer	-2016
▁Ale	-2017
▁mi	-2018
▁Music	-2019
▁case	-2020
▁goal	-2021
▁clos	-2022
▁engine	-2023
anch	-2024
▁creat	-2025
▁reb	-2026
▁Battle	-2027
▁accept	-2028
▁mor	-2029
▁scene	-2030
▁human	-2031
board	-2032
▁dev	-2033
▁Star	-2034
▁brought	-2035
▁Desp	-2036
ellow	-2037
▁free	-2038
unk	-2039
▁featured	-2040
▁ren	-2041
▁mother	-2042
▁President	-2043
▁Red	-2044
▁Paul	-2045
▁least	-2046
▁allowed	-2047
▁working	-2048
▁resul	-2049
▁laun	-2050
▁Cour	-2051
▁average	-2052
ological	-2053
▁towards	-2054
▁wanted	-2055
▁Rou	-2056
▁tradition	-2057
▁indust	-2058
▁region	-2059
▁business	-2060
▁Washington	-2061
ule	-2062
angu	-2063
ama	-2064
aur	-2065
▁troops	-2066
▁placed	-2067
▁either	-2068
▁respect	-2069
▁office	-2070
▁critics	-2071
▁avail	-2072
▁ve	-2073
antic	-2074
▁reach	-2075
▁Cap	-2076
▁example	-2077
▁mult	-2078
▁Play	-2079
▁runs	-2080
▁material	-2081
▁profess	-2082
▁hon	-2083
▁econom	-2084
▁recogn	-2085
▁wife	-2086
▁Hol	-2087
ula	-2088
▁Mil	-2089
ened	-2090
iff	-2091
be	-2092
▁estim	-2093
earch	-2094
▁army	-2095
▁neg	-2096
▁foc	-2097
oid	-2098
chie	-2099
▁Despite	-2100
iol	-2101
▁Bel	-2102
▁sex	-2103
▁Follow	-2104
arm	-2105
rey	-2106
▁sour	-2107
▁generally	-2108
ength	-2109
▁mass	-2110
▁ce	-2111
ica	-2112
▁Ag	-2113
▁rail	-2114
uadron	-2115
▁Thom	-2116
▁proper	-2117
▁dou	-2118
▁current	-2119
▁Angel	-2120
▁individual	-2121
aut	-2122
▁Hill	-2123
▁events	-2124
▁believed	-2125
▁Cup	-2126
ving	-2127
ourn	-2128
▁particip	-2129
▁ter	-2130
▁bill	-2131
▁Following	-2132
▁Hall	-2133
▁fig	-2134
enes	-2135
▁First	-2136
ino	-2137
uff	-2138
▁Mary	-2139
to	-2140
sc	-2141
▁victory	-2142
▁replaced	-2143
▁designed	-2144
▁mph	-2145
artment	-2146
▁rul	-2147
oh	-2148
▁soon	-2149
▁nomin	-2150
itch	-2151
iction	-2152
▁island	-2153
▁Lou	-2154
oring	-2155
itte	-2156
▁fund	-2157
lic	-2158
▁hours	-2159
uropean	-2160
▁employ	-2161
▁Two	-2162
ky	-2163
xic	-2164
▁president	-2165
erous	-2166
▁involved	-2167
oms	-2168
▁surf	-2169
▁finished	-2170
▁stru	-2171
ification	-2172
▁Championship	-2173
merc	-2174
asion	-2175
▁break	-2176
oor	-2177
west	-2178
inist	-2179
▁saying	-2180
fall	-2181
aled	-2182
▁si	-2183
aper	-2184
▁hor	-2185
▁court	-2186
▁threat	-2187
▁shot	-2188
▁opening	-2189
▁score	-2190
▁Mart	-2191
▁Roman	-2192
▁regular	-2193
emor	-2194
ago	-2195
go	-2196
key	-2197
▁director	-2198
▁length	-2199
▁desp	-2200
uit	-2201
▁indic	-2202
▁conduct	-2203
▁largest	-2204
▁Scott	-2205
▁contrib	-2206
ecutive	-2207
▁possible	-2208
▁unc	-2209
▁highway	-2210
▁minutes	-2211
▁Route	-2212
▁southern	-2213
▁ill	-2214
▁Dan	-2215
▁Mid	-2216
▁dro	-2217
ville	-2218
ee	-2219
BC	-2220
▁exc	-2221
▁highest	-2222
▁ly	-2223
▁remov	-2224
▁earlier	-2225
ishing	-2226
▁From	-2227
▁initially	-2228
▁Don	-2229
▁2001	-2230
ander	-2231
of	-2232
▁hom	-2233
irgin	-2234
▁available	-2235
▁particularly	-2236
▁personal	-2237
▁percent	-2238
▁Mal	-2239
▁Atl	-2240
antry	-2241
now	-2242
anned	-2243
▁training	-2244
ude	-2245
arn	-2246
▁hard	-2247
▁Republic	-2248
leg	-2249
▁Sing	-2250
cher	-2251
▁forced	-2252
▁exist	-2253
▁Cro	-2254
▁must	-2255
▁Met	-2256
ply	-2257
ently	-2258
▁grad	-2259
▁contr	-2260
▁Wil	-2261
▁Charles	-2262
▁Navy	-2263
ights	-2264
▁park	-2265
hib	-2266
iding	-2267
inn	-2268
▁ended	-2269
▁respons	-2270
▁Mac	-2271
li	-2272
▁maga	-2273
ography	-2274
asy	-2275
▁turned	-2276
rian	-2277
ateg	-2278
▁Thomas	-2279
▁social	-2280
▁International	-2281
ipp	-2282
▁wall	-2283
ority	-2284
uture	-2285
▁studio	-2286
rand	-2287
iforn	-2288
▁change	-2289
▁langu	-2290
oul	-2291
▁praised	-2292
ems	-2293
▁passed	-2294
▁Dep	-2295
▁hy	-2296
▁McC	-2297
▁White	-2298
▁increased	-2299
▁piec	-2300
▁priv	-2301
▁But	-2302
▁hurricane	-2303
▁Mag	-2304
▁educ	-2305
▁regard	-2306
▁northern	-2307
atural	-2308
▁Brown	-2309
heast	-2310
▁2002	-2311
▁Res	-2312
▁keep	-2313
▁central	-2314
▁Church	-2315
rup	-2316
▁phys	-2317
▁novel	-2318
▁Canada	-2319
uation	-2320
▁relig	-2321
▁appearance	-2322
▁Californ	-2323
▁units	-2324
▁speed	-2325
sel	-2326
itor	-2327
ership	-2328
▁super	-2329
▁past	-2330
ointed	-2331
▁church	-2332
▁stop	-2333
▁immedi	-2334
ended	-2335
anks	-2336
ocr	-2337
▁Smith	-2338
▁Rock	-2339
▁sym	-2340
▁ordered	-2341
▁meas	-2342
▁Sen	-2343
▁Ber	-2344
▁Cam	-2345
uter	-2346
aughter	-2347
▁disp	-2348
▁treat	-2349
▁Bay	-2350
▁taking	-2351
ference	-2352
▁Richard	-2353
ittee	-2354
nion	-2355
▁love	-2356
▁independ	-2357
▁signed	-2358
▁move	-2359
ios	-2360
anding	-2361
▁California	-2362
▁achie	-2363
▁Alex	-2364
ston	-2365
ilities	-2366
▁better	-2367
▁Sl	-2368
etwork	-2369
rem	-2370
val	-2371
▁Sam	-2372
aker	-2373
pped	-2374
▁pers	-2375
▁Pal	-2376
ecess	-2377
arily	-2378
▁winds	-2379
▁Ir	-2380
▁Island	-2381
▁enough	-2382
▁commerc	-2383
▁positive	-2384
agon	-2385
▁inn	-2386
▁wat	-2387
arth	-2388
apt	-2389
▁according	-2390
▁Court	-2391
▁spent	-2392
ears	-2393
▁hous	-2394
▁going	-2395
rated	-2396
▁above	-2397
uare	-2398
aren	-2399
▁outside	-2400
elled	-2401
▁slow	-2402
▁ap	-2403
▁films	-2404
nel	-2405
ump	-2406
▁pot	-2407
▁feel	-2408
ume	-2409
▁told	-2410
▁football	-2411
▁Award	-2412
▁Cong	-2413
▁previously	-2414
▁recording	-2415
▁clear	-2416
▁states	-2417
▁1990	-2418
▁mean	-2419
▁Mill	-2420
▁Associ	-2421
▁nine	-2422
▁failed	-2423
▁assist	-2424
▁come	-2425
usion	-2426
▁Company	-2427
▁pur	-2428
▁elements	-2429
▁bi	-2430
▁prob	-2431
osing	-2432
reng	-2433
ermany	-2434
ship	-2435
▁India	-2436
nes	-2437
alion	-2438
com	-2439
▁ey	-2440
▁reviews	-2441
edy	-2442
ida	-2443
▁interview	-2444
▁cru	-2445
▁lower	-2446
▁parts	-2447
▁Stud	-2448
▁itself	-2449
atin	-2450
▁Art	-2451
▁think	-2452
▁Christian	-2453
▁pay	-2454
▁directed	-2455
oph	-2456
▁Peter	-2457
▁Mark	-2458
▁nar	-2459
rd	-2460
▁abs	-2461
▁despite	-2462
for	-2463
▁Cr	-2464
▁flow	-2465
▁cred	-2466
▁Ac	-2467
▁esp	-2468
▁sil	-2469
▁contract	-2470
▁That	-2471
▁debut	-2472
▁phot	-2473
▁rain	-2474
ibility	-2475
▁Times	-2476
▁Mer	-2477
erved	-2478
ready	-2479
▁access	-2480
isl	-2481
▁beginning	-2482
▁groups	-2483
arly	-2484
▁Tom	-2485
▁College	-2486
het	-2487
oke	-2488
▁viol	-2489
ands	-2490
▁section	-2491
tr	-2492
▁beg	-2493
ma	-2494
▁whose	-2495
onna	-2496
asc	-2497
▁Sov	-2498
asons	-2499
▁claimed	-2500
onse	-2501
hester	-2502
ows	-2503
▁asked	-2504
▁Cast	-2505
▁international	-2506
▁Western	-2507
▁lines	-2508
▁transfer	-2509
bers	-2510
▁anti	-2511
▁Pat	-2512
▁rap	-2513
▁cou	-2514
▁streng	-2515
▁give	-2516
▁Soviet	-2517
▁screen	-2518
airs	-2519
iation	-2520
ueen	-2521
rief	-2522
▁additional	-2523
aint	-2524
▁future	-2525
ability	-2526
▁league	-2527
▁whom	-2528
▁Mexic	-2529
▁key	-2530
▁Frank	-2531
▁poor	-2532
▁Span	-2533
berg	-2534
ictor	-2535
uickly	-2536
▁gold	-2537
▁Film	-2538
▁Awards	-2539
eal	-2540
acted	-2541
▁introduced	-2542
▁travel	-2543
▁che	-2544
▁fort	-2545
▁evidence	-2546
uarter	-2547
▁op	-2548
lying	-2549
ki	-2550
uality	-2551
▁prem	-2552
▁sea	-2553
ective	-2554
rig	-2555
▁idea	-2556
▁don	-2557
▁Dem	-2558
▁already	-2559
van	-2560
▁center	-2561
▁bridge	-2562
▁Force	-2563
onst	-2564
▁election	-2565
▁product	-2566
▁Soc	-2567
▁Most	-2568
▁occup	-2569
▁Ben	-2570
▁except	-2571
▁deal	-2572
igan	-2573
▁prevent	-2574
usp	-2575
atory	-2576
uip	-2577
ecially	-2578
▁Coun	-2579
▁usually	-2580
▁arrived	-2581
▁musical	-2582
▁western	-2583
▁pil	-2584
▁pen	-2585
mar	-2586
irth	-2587
▁block	-2588
▁radio	-2589
▁Britain	-2590
anded	-2591
eum	-2592
liam	-2593
ully	-2594
▁cal	-2595
aring	-2596
▁female	-2597
▁sometimes	-2598
▁study	-2599
▁Rob	-2600
▁response	-2601
back	-2602
▁cycl	-2603
▁food	-2604
▁money	-2605
▁decision	-2606
ential	-2607
▁especially	-2608
▁Day	-2609
ids	-2610
▁issue	-2611
▁king	-2612
▁env	-2613
▁Later	-2614
liament	-2615
▁Pac	-2616
▁Hot	-2617
▁surface	-2618
▁flood	-2619
▁might	-2620
▁lab	-2621
▁liter	-2622
▁carried	-2623
▁shows	-2624
▁guitar	-2625
▁Chic	-2626
▁community	-2627
bour	-2628
▁estimated	-2629
▁construct	-2630
unt	-2631
▁remain	-2632
ites	-2633
▁Do	-2634
ha	-2635
▁remaining	-2636
▁1999	-2637
▁eastern	-2638
▁defeated	-2639
▁determ	-2640
irginia	-2641
▁larger	-2642
eck	-2643
inent	-2644
ession	-2645
▁becoming	-2646
▁complete	-2647
▁Mount	-2648
▁police	-2649
ena	-2650
▁wood	-2651
▁suggested	-2652
porary	-2653
▁approxim	-2654
▁media	-2655
▁pressure	-2656
▁entered	-2657
▁shoot	-2658
▁Bur	-2659
▁Franc	-2660
▁teams	-2661
▁Im	-2662
▁commercial	-2663
▁latter	-2664
▁lyric	-2665
▁market	-2666
▁Los	-2667
▁consider	-2668
▁students	-2669
▁doc	-2670
▁surround	-2671
ift	-2672
▁investig	-2673
erve	-2674
ss	-2675
▁brief	-2676
▁concern	-2677
▁Second	-2678
▁lo	-2679
▁certain	-2680
▁prison	-2681
ulf	-2682
ections	-2683
▁discuss	-2684
▁If	-2685
▁Tex	-2686
inct	-2687
▁Inf	-2688
▁effects	-2689
ackson	-2690
▁complet	-2691
▁appointed	-2692
▁bur	-2693
▁summer	-2694
▁hop	-2695
▁episodes	-2696
ederal	-2697
alled	-2698
gen	-2699
acing	-2700
incip	-2701
▁Fle	-2702
change	-2703
▁der	-2704
▁staff	-2705
▁emer	-2706
▁changes	-2707
ises	-2708
▁Flor	-2709
▁Louis	-2710
▁commission	-2711
▁sat	-2712
enth	-2713
▁winning	-2714
lymp	-2715
▁limited	-2716
▁tar	-2717
▁scenes	-2718
▁leaving	-2719
▁fleet	-2720
▁destroyed	-2721
▁river	-2722
ulated	-2723
▁draw	-2724
▁Club	-2725
iti	-2726
NA	-2727
▁Spanish	-2728
pris	-2729
▁self	-2730
▁rights	-2731
nter	-2732
▁provide	-2733
▁writer	-2734
ournal	-2735
▁den	-2736
▁type	-2737
idents	-2738
▁polic	-2739
▁fail	-2740
igade	-2741
▁date	-2742
vey	-2743
▁territ	-2744
▁proposed	-2745
ension	-2746
▁influence	-2747
▁girl	-2748
▁trib	-2749
▁clim	-2750
▁Party	-2751
aries	-2752
iral	-2753
▁overall	-2754
▁arrang	-2755
▁structure	-2756
ires	-2757
▁transport	-2758
iser	-2759
ties	-2760
▁tax	-2761
▁contro	-2762
▁diss	-2763
▁division	-2764
sy	-2765
▁kil	-2766
▁script	-2767
inese	-2768
▁Association	-2769
▁agreed	-2770
▁room	-2771
▁intended	-2772
ores	-2773
dward	-2774
▁running	-2775
▁Chicago	-2776
▁daughter	-2777
▁bow	-2778
▁broadcast	-2779
▁nearly	-2780
▁purch	-2781
▁supported	-2782
ending	-2783
▁big	-2784
▁deep	-2785
▁research	-2786
▁Many	-2787
▁Pri	-2788
▁Mo	-2789
▁wide	-2790
▁establish	-2791
▁di	-2792
▁helped	-2793
▁Adm	-2794
atives	-2795
▁married	-2796
▁movement	-2797
▁Chinese	-2798
▁awarded	-2799
tt	-2800
yr	-2801
II	-2802
▁Council	-2803
ga	-2804
▁Du	-2805
▁lay	-2806
▁multip	-2807
▁Song	-2808
AF	-2809
▁create	-2810
▁favor	-2811
▁display	-2812
▁intens	-2813
atively	-2814
roup	-2815
▁bird	-2816
▁dark	-2817
uing	-2818
▁susp	-2819
▁stars	-2820
teen	-2821
▁longer	-2822
iles	-2823
▁Cont	-2824
▁language	-2825
▁higher	-2826
▁planned	-2827
sen	-2828
▁compared	-2829
▁captured	-2830
▁increasing	-2831
▁fans	-2832
▁stay	-2833
▁conclud	-2834
▁course	-2835
▁changed	-2836
selves	-2837
ohnson	-2838
▁experience	-2839
▁approximately	-2840
▁Serv	-2841
▁related	-2842
▁done	-2843
ari	-2844
▁fifth	-2845
▁feature	-2846
▁living	-2847
▁cat	-2848
▁themselves	-2849
omer	-2850
ounds	-2851
ronic	-2852
▁producer	-2853
▁History	-2854
enty	-2855
▁tracks	-2856
burg	-2857
tained	-2858
▁Ital	-2859
▁temper	-2860
▁mostly	-2861
▁space	-2862
anced	-2863
▁civil	-2864
▁Pacific	-2865
▁ens	-2866
▁Lit	-2867
▁withd	-2868
isions	-2869
abit	-2870
▁Billboard	-2871
▁thus	-2872
▁-	-2873
▁woman	-2874
▁operations	-2875
▁remains	-2876
▁dead	-2877
▁Back	-2878
lo	-2879
▁bring	-2880
▁our	-2881
lor	-2882
▁natural	-2883
▁whether	-2884
▁Not	-2885
olic	-2886
umn	-2887
thing	-2888
▁Bet	-2889
ex	-2890
▁imm	-2891
▁weap	-2892
▁probably	-2893
▁Final	-2894
▁soldiers	-2895
▁concept	-2896
▁dram	-2897
ergy	-2898
▁Sal	-2899
▁App	-2900
▁copies	-2901
andon	-2902
▁Scot	-2903
▁ult	-2904
imin	-2905
▁buildings	-2906
▁leader	-2907
▁extended	-2908
▁voice	-2909
▁Since	-2910
▁Inter	-2911
▁lyrics	-2912
▁face	-2913
▁Atlantic	-2914
▁portray	-2915
▁forward	-2916
▁depart	-2917
can	-2918
▁boy	-2919
▁complex	-2920
▁board	-2921
▁Mont	-2922
▁react	-2923
▁Test	-2924
▁issued	-2925
▁battles	-2926
▁chall	-2927
riage	-2928
▁really	-2929
▁countries	-2930
▁heav	-2931
iring	-2932
▁suffered	-2933
vin	-2934
ospital	-2935
▁Congress	-2936
▁cm	-2937
▁Lake	-2938
▁Love	-2939
▁goals	-2940
▁includes	-2941
▁Florida	-2942
▁Sever	-2943
▁immediately	-2944
ny	-2945
▁attend	-2946
▁Sun	-2947
ams	-2948
▁Both	-2949
▁Fort	-2950
▁deg	-2951
▁breed	-2952
che	-2953
▁mixed	-2954
▁manager	-2955
▁private	-2956
▁capital	-2957
eph	-2958
▁officers	-2959
▁likely	-2960
▁emb	-2961
hood	-2962
▁Big	-2963
▁distrib	-2964
▁cann	-2965
uth	-2966
lebr	-2967
▁removed	-2968
▁Texas	-2969
▁initial	-2970
▁increase	-2971
▁plant	-2972
era	-2973
ien	-2974
▁Bra	-2975
▁mach	-2976
▁Sea	-2977
venue	-2978
▁health	-2979
iant	-2980
▁leave	-2981
▁plans	-2982
▁always	-2983
▁focus	-2984
▁Town	-2985
▁services	-2986
▁network	-2987
▁status	-2988
▁via	-2989
▁mount	-2990
hold	-2991
▁compan	-2992
▁visit	-2993
▁location	-2994
rant	-2995
▁China	-2996
▁Dist	-2997
bury	-2998
▁prior	-2999
arent	-3000
▁Another	-3001
urt	-3002
▁Law	-3003
order	-3004
▁problems	-3005
▁Mr	-3006
▁uns	-3007
▁Lord	-3008
rial	-3009
▁offered	-3010
▁instr	-3011
▁flag	-3012
▁terms	-3013
▁model	-3014
▁How	-3015
▁norm	-3016
▁approach	-3017
aily	-3018
▁colon	-3019
▁something	-3020
▁village	-3021
▁administ	-3022
▁tons	-3023
▁fell	-3024
▁carry	-3025
ounted	-3026
ging	-3027
stant	-3028
▁mur	-3029
▁Camp	-3030
ironment	-3031
ria	-3032
oes	-3033
▁Tor	-3034
▁tow	-3035
▁professional	-3036
▁Canadian	-3037
ctor	-3038
ously	-3039
▁Trans	-3040
▁Boy	-3041
▁Its	-3042
▁meth	-3043
▁tor	-3044
adium	-3045
▁got	-3046
▁Rail	-3047
▁Africa	-3048
arl	-3049
▁cause	-3050
ograph	-3051
icted	-3052
▁minor	-3053
▁consist	-3054
ills	-3055
uries	-3056
▁damaged	-3057
▁inters	-3058
▁Pet	-3059
▁meeting	-3060
▁Wood	-3061
well	-3062
▁appears	-3063
▁Tour	-3064
▁confir	-3065
▁counter	-3066
▁minute	-3067
▁adop	-3068
aches	-3069
etic	-3070
▁Ro	-3071
▁ranked	-3072
▁ran	-3073
▁composed	-3074
▁revealed	-3075
▁Center	-3076
▁Highway	-3077
▁attacks	-3078
▁flight	-3079
▁Russian	-3080
ys	-3081
itect	-3082
cean	-3083
reater	-3084
▁sch	-3085
▁plot	-3086
▁discovered	-3087
▁raised	-3088
▁Tur	-3089
eff	-3090
ware	-3091
▁respectively	-3092
▁financ	-3093
umed	-3094
▁makes	-3095
▁Mur	-3096
ify	-3097
▁Carol	-3098
▁Central	-3099
▁numerous	-3100
▁Sir	-3101
▁Martin	-3102
▁associated	-3103
▁takes	-3104
▁Angeles	-3105
▁altern	-3106
▁III	-3107
mon	-3108
reak	-3109
▁needed	-3110
▁inspired	-3111
aging	-3112
▁domin	-3113
uated	-3114
▁lived	-3115
de	-3116
▁90	-3117
▁Ant	-3118
▁launched	-3119
▁yet	-3120
▁anc	-3121
▁nature	-3122
ription	-3123
olk	-3124
▁occurred	-3125
uf	-3126
irt	-3127
ibr	-3128
▁Bow	-3129
▁contains	-3130
▁vehic	-3131
▁coach	-3132
▁shown	-3133
▁cand	-3134
▁bene	-3135
▁attempted	-3136
ails	-3137
▁pow	-3138
estival	-3139
▁attacked	-3140
▁moving	-3141
▁conditions	-3142
uments	-3143
▁upper	-3144
ault	-3145
▁amb	-3146
▁sales	-3147
vert	-3148
▁dig	-3149
▁accomp	-3150
▁collect	-3151
mpire	-3152
down	-3153
▁issues	-3154
▁Miss	-3155
aught	-3156
▁Rh	-3157
▁birth	-3158
gely	-3159
▁whole	-3160
▁information	-3161
▁exam	-3162
▁yards	-3163
uire	-3164
uestion	-3165
▁slight	-3166
▁Rad	-3167
itt	-3168
▁Mel	-3169
▁referred	-3170
▁box	-3171
urity	-3172
▁critical	-3173
▁mom	-3174
▁numbers	-3175
▁finally	-3176
▁incor	-3177
▁smaller	-3178
▁elected	-3179
▁resulted	-3180
▁selected	-3181
▁defeat	-3182
reme	-3183
▁Rev	-3184
▁grant	-3185
▁scient	-3186
▁active	-3187
▁singer	-3188
win	-3189
▁bad	-3190
▁sen	-3191
▁Des	-3192
▁princip	-3193
▁standard	-3194
▁Super	-3195
▁secret	-3196
▁celebr	-3197
▁mission	-3198
▁industry	-3199
▁sal	-3200
ste	-3201
▁Italian	-3202
▁coin	-3203
▁largely	-3204
▁grand	-3205
▁i	-3206
▁operation	-3207
enant	-3208
▁ultim	-3209
itation	-3210
▁assigned	-3211
▁link	-3212
▁pit	-3213
ortun	-3214
co	-3215
▁cer	-3216
▁earned	-3217
▁saf	-3218
▁analy	-3219
▁legisl	-3220
▁Del	-3221
▁commented	-3222
▁Lu	-3223
▁thr	-3224
ecting	-3225
▁Penn	-3226
▁ang	-3227
▁expected	-3228
▁male	-3229
▁prec	-3230
amb	-3231
▁Corps	-3232
itude	-3233
▁listed	-3234
▁audience	-3235
▁roy	-3236
ods	-3237
▁covered	-3238
▁artic	-3239
uence	-3240
▁unable	-3241
▁Crit	-3242
▁purp	-3243
▁sched	-3244
▁traditional	-3245
▁education	-3246
uarters	-3247
irection	-3248
▁trade	-3249
▁artist	-3250
▁friends	-3251
▁heart	-3252
▁newsp	-3253
▁double	-3254
▁closed	-3255
▁refused	-3256
▁sem	-3257
▁Bu	-3258
▁underst	-3259
▁attention	-3260
▁recover	-3261
▁primary	-3262
arian	-3263
ounts	-3264
use	-3265
▁sister	-3266
▁Ter	-3267
aine	-3268
▁kind	-3269
▁talk	-3270
▁Michigan	-3271
ogue	-3272
▁reason	-3273
onic	-3274
oly	-3275
ighter	-3276
▁letter	-3277
▁officer	-3278
ken	-3279
nce	-3280
▁below	-3281
▁Ha	-3282
▁contem	-3283
▁Dis	-3284
SA	-3285
▁Wales	-3286
aded	-3287
▁ability	-3288
▁depression	-3289
▁meant	-3290
▁performances	-3291
kin	-3292
▁declared	-3293
▁plat	-3294
ples	-3295
▁walk	-3296
▁giving	-3297
▁Nort	-3298
undred	-3299
ector	-3300
▁word	-3301
▁fighting	-3302
▁blood	-3303
▁middle	-3304
▁commander	-3305
▁religious	-3306
▁More	-3307
▁books	-3308
oud	-3309
▁Mass	-3310
▁theat	-3311
isher	-3312
▁Cath	-3313
▁sett	-3314
▁rate	-3315
ider	-3316
▁hot	-3317
▁records	-3318
iled	-3319
▁matches	-3320
▁names	-3321
ims	-3322
▁Democr	-3323
▁constit	-3324
▁Step	-3325
▁Acad	-3326
90	-3327
▁produce	-3328
bed	-3329
▁Ra	-3330
▁Str	-3331
aped	-3332
▁compl	-3333
▁Bec	-3334
▁competition	-3335
antasy	-3336
▁serious	-3337
▁Cle	-3338
▁Care	-3339
▁centre	-3340
▁Pre	-3341
▁unit	-3342
▁Team	-3343
▁vocals	-3344
▁disapp	-3345
bridge	-3346
▁Minister	-3347
▁Several	-3348
▁touch	-3349
utch	-3350
▁mention	-3351
odies	-3352
▁1992	-3353
iences	-3354
▁account	-3355
ounded	-3356
▁abandon	-3357
▁document	-3358
▁Long	-3359
▁rapid	-3360
ady	-3361
▁energy	-3362
shire	-3363
▁necess	-3364
▁Arch	-3365
ali	-3366
rug	-3367
road	-3368
▁kilomet	-3369
icient	-3370
▁dra	-3371
ervation	-3372
▁constructed	-3373
▁dut	-3374
▁traff	-3375
ona	-3376
lit	-3377
ening	-3378
▁Cons	-3379
▁theme	-3380
▁Fore	-3381
▁ris	-3382
echan	-3383
iest	-3384
▁royal	-3385
▁nearby	-3386
▁highly	-3387
▁pick	-3388
ishop	-3389
▁Time	-3390
ealand	-3391
▁separate	-3392
▁train	-3393
oses	-3394
▁continue	-3395
▁annual	-3396
▁chief	-3397
▁Fox	-3398
alley	-3399
▁effort	-3400
▁presented	-3401
edic	-3402
▁combat	-3403
rier	-3404
▁har	-3405
▁prep	-3406
▁drum	-3407
▁Mexico	-3408
▁positions	-3409
▁reduced	-3410
▁African	-3411
▁Wal	-3412
▁controvers	-3413
▁cas	-3414
▁Four	-3415
▁directly	-3416
ansion	-3417
▁Chris	-3418
ieut	-3419
▁levels	-3420
▁tur	-3421
▁means	-3422
ibly	-3423
▁notes	-3424
▁attended	-3425
▁neigh	-3426
▁tried	-3427
▁sevent	-3428
▁practice	-3429
uan	-3430
▁forest	-3431
▁Matt	-3432
▁compos	-3433
▁cle	-3434
emorial	-3435
ether	-3436
▁Haw	-3437
▁edition	-3438
▁Sum	-3439
▁fast	-3440
▁twenty	-3441
▁accepted	-3442
▁nuc	-3443
arents	-3444
▁Madonna	-3445
vement	-3446
▁stating	-3447
ette	-3448
▁Chart	-3449
▁1991	-3450
▁metal	-3451
▁Wall	-3452
▁maxim	-3453
▁movie	-3454
▁architect	-3455
▁watch	-3456
oper	-3457
anes	-3458
▁text	-3459
▁repe	-3460
▁candid	-3461
cel	-3462
rical	-3463
▁Scotland	-3464
▁concert	-3465
▁advance	-3466
pon	-3467
stitute	-3468
ls	-3469
▁Bob	-3470
track	-3471
▁rein	-3472
▁pair	-3473
acher	-3474
osen	-3475
▁direction	-3476
ersey	-3477
▁Their	-3478
▁seem	-3479
▁schools	-3480
▁lear	-3481
▁dism	-3482
ado	-3483
▁rare	-3484
osh	-3485
ping	-3486
▁marriage	-3487
▁thick	-3488
wide	-3489
▁Department	-3490
▁oil	-3491
▁horse	-3492
illery	-3493
eway	-3494
▁recomm	-3495
▁efforts	-3496
▁managed	-3497
▁asp	-3498
▁Manc	-3499
▁college	-3500
sis	-3501
▁purs	-3502
▁resulting	-3503
▁ending	-3504
20	-3505
▁avoid	-3506
▁legal	-3507
icip	-3508
▁Cross	-3509
▁wing	-3510
ieutenant	-3511
oo	-3512
utions	-3513
▁showed	-3514
▁Three	-3515
▁dropped	-3516
ka	-3517
▁responsible	-3518
▁Infantry	-3519
▁guest	-3520
▁Tre	-3521
▁inside	-3522
tered	-3523
▁nation	-3524
inem	-3525
▁cases	-3526
▁kept	-3527
▁environment	-3528
band	-3529
▁Arab	-3530
irit	-3531
ani	-3532
▁cust	-3533
▁culture	-3534
▁meaning	-3535
▁Foot	-3536
▁Bost	-3537
▁Ann	-3538
▁cyclone	-3539
▁Dou	-3540
house	-3541
▁begins	-3542
▁incorpor	-3543
light	-3544
▁Hel	-3545
▁variety	-3546
hips	-3547
illed	-3548
▁morning	-3549
▁rat	-3550
▁Tim	-3551
ceeded	-3552
uard	-3553
▁cerem	-3554
▁houses	-3555
▁forms	-3556
isation	-3557
▁dom	-3558
▁championship	-3559
▁Service	-3560
▁words	-3561
▁Post	-3562
▁arrest	-3563
▁Creek	-3564
peror	-3565
▁yard	-3566
ares	-3567
awn	-3568
▁Stone	-3569
▁Leg	-3570
▁Williams	-3571
▁ge	-3572
▁schol	-3573
▁Records	-3574
like	-3575
▁marked	-3576
▁inches	-3577
▁Hung	-3578
▁Secret	-3579
▁continues	-3580
xford	-3581
▁science	-3582
aph	-3583
▁perm	-3584
▁symb	-3585
cend	-3586
▁cam	-3587
▁uses	-3588
▁Parliament	-3589
▁economic	-3590
▁bank	-3591
gypt	-3592
▁source	-3593
▁BC	-3594
▁recogni	-3595
▁News	-3596
▁critici	-3597
▁defend	-3598
writ	-3599
▁So	-3600
MS	-3601
olf	-3602
thel	-3603
▁hundred	-3604
▁settle	-3605
ulations	-3606
▁Mic	-3607
▁conducted	-3608
▁starting	-3609
▁confl	-3610
▁impact	-3611
▁Arm	-3612
▁Sur	-3613
▁Stan	-3614
▁Fin	-3615
▁your	-3616
▁specific	-3617
cle	-3618
▁strugg	-3619
▁allowing	-3620
ean	-3621
▁Society	-3622
▁Win	-3623
▁presence	-3624
▁ple	-3625
▁Book	-3626
▁amount	-3627
▁beat	-3628
▁viewers	-3629
thur	-3630
▁Dar	-3631
▁sides	-3632
▁metres	-3633
▁dance	-3634
wh	-3635
▁chap	-3636
▁rule	-3637
▁exhib	-3638
▁suppl	-3639
▁Prince	-3640
▁univers	-3641
alle	-3642
▁Stephen	-3643
▁Southern	-3644
▁distinct	-3645
▁multiple	-3646
▁transferred	-3647
▁raid	-3648
▁potential	-3649
▁Committee	-3650
▁foreign	-3651
nown	-3652
▁contrast	-3653
▁peaked	-3654
▁Latin	-3655
irm	-3656
ols	-3657
▁enemy	-3658
ingu	-3659
uate	-3660
la	-3661
▁becomes	-3662
▁captain	-3663
▁traffic	-3664
▁owned	-3665
▁Tri	-3666
▁things	-3667
▁founded	-3668
▁greater	-3669
▁mess	-3670
▁Like	-3671
ding	-3672
eorg	-3673
▁Admiral	-3674
iated	-3675
▁concluded	-3676
▁portion	-3677
▁Spec	-3678
oseph	-3679
▁scoring	-3680
▁castle	-3681
very	-3682
sych	-3683
▁respond	-3684
▁property	-3685
▁stories	-3686
▁attempts	-3687
▁encoun	-3688
▁Boston	-3689
▁opt	-3690
ada	-3691
▁relatively	-3692
ya	-3693
▁Manchester	-3694
▁Chief	-3695
▁Sat	-3696
▁primarily	-3697
iance	-3698
▁demonst	-3699
▁Harrison	-3700
inet	-3701
▁federal	-3702
▁financial	-3703
▁Because	-3704
▁Before	-3705
▁actually	-3706
▁Sar	-3707
▁animals	-3708
ux	-3709
▁Brad	-3710
▁Captain	-3711
▁Class	-3712
ressive	-3713
▁observed	-3714
▁Hurricane	-3715
▁Swed	-3716
ality	-3717
▁collection	-3718
fect	-3719
▁Sol	-3720
ellig	-3721
▁opportun	-3722
ietn	-3723
▁titled	-3724
▁tourn	-3725
▁featuring	-3726
▁lif	-3727
▁Form	-3728
▁writers	-3729
istics	-3730
▁write	-3731
dition	-3732
▁strength	-3733
▁weaken	-3734
▁inch	-3735
▁Bridge	-3736
▁wor	-3737
▁Sil	-3738
ours	-3739
▁situation	-3740
▁distance	-3741
▁Den	-3742
▁spot	-3743
▁paid	-3744
▁premi	-3745
▁wa	-3746
▁mechan	-3747
▁parents	-3748
▁Tw	-3749
▁Commission	-3750
▁independent	-3751
▁Battalion	-3752
ih	-3753
▁figure	-3754
▁Na	-3755
umber	-3756
ita	-3757
▁share	-3758
▁acting	-3759
ini	-3760
▁actor	-3761
▁companies	-3762
right	-3763
▁divided	-3764
▁Def	-3765
▁Fred	-3766
▁onto	-3767
eds	-3768
▁Little	-3769
▁Paris	-3770
▁Hor	-3771
▁collabor	-3772
▁Produ	-3773
gl	-3774
▁mind	-3775
▁slightly	-3776
▁target	-3777
▁piece	-3778
uge	-3779
▁Series	-3780
▁Life	-3781
▁function	-3782
▁selling	-3783
perial	-3784
▁Columb	-3785
▁reform	-3786
▁powerful	-3787
▁Bat	-3788
ricket	-3789
▁innings	-3790
▁rating	-3791
▁concent	-3792
▁torped	-3793
ntertain	-3794
▁plays	-3795
thlet	-3796
▁lot	-3797
▁broke	-3798
rown	-3799
▁rough	-3800
▁today	-3801
▁BBC	-3802
ils	-3803
▁era	-3804
chest	-3805
istry	-3806
▁actions	-3807
▁ultimately	-3808
ran	-3809
▁Croat	-3810
▁waters	-3811
▁mel	-3812
oration	-3813
▁trial	-3814
▁cho	-3815
▁maximum	-3816
▁Luc	-3817
▁dise	-3818
ustice	-3819
▁Histor	-3820
▁tend	-3821
▁pilot	-3822
▁bound	-3823
annel	-3824
astic	-3825
▁Academy	-3826
▁completely	-3827
ining	-3828
▁Max	-3829
▁sought	-3830
acts	-3831
▁interp	-3832
▁1920	-3833
▁du	-3834
▁policy	-3835
▁Pan	-3836
▁vocal	-3837
▁scale	-3838
anna	-3839
▁society	-3840
▁blue	-3841
force	-3842
▁mainly	-3843
▁Mod	-3844
▁behav	-3845
▁Museum	-3846
▁log	-3847
▁Saint	-3848
rupt	-3849
▁Line	-3850
▁designated	-3851
▁ess	-3852
▁hus	-3853
load	-3854
▁minim	-3855
mas	-3856
▁officials	-3857
▁conver	-3858
▁struck	-3859
mond	-3860
▁activity	-3861
▁combined	-3862
▁influenced	-3863
▁wear	-3864
cers	-3865
olved	-3866
▁search	-3867
stein	-3868
ylvan	-3869
ntertainment	-3870
▁Italy	-3871
while	-3872
▁vess	-3873
▁Pop	-3874
▁thous	-3875
▁calling	-3876
▁gar	-3877
▁alongside	-3878
▁Way	-3879
▁northeast	-3880
▁seconds	-3881
rate	-3882
▁batter	-3883
▁Brigade	-3884
▁sout	-3885
▁Americans	-3886
aga	-3887
▁sources	-3888
▁winter	-3889
sw	-3890
orses	-3891
▁background	-3892
▁Lee	-3893
▁webs	-3894
under	-3895
▁Ire	-3896
▁theory	-3897
▁seg	-3898
▁la	-3899
▁ice	-3900
▁recent	-3901
▁suc	-3902
▁gained	-3903
▁nominated	-3904
rative	-3905
mark	-3906
▁thir	-3907
▁electric	-3908
▁crow	-3909
▁platform	-3910
▁artists	-3911
yond	-3912
▁Conf	-3913
▁content	-3914
▁problem	-3915
▁mem	-3916
▁encour	-3917
▁Regiment	-3918
iano	-3919
▁Tod	-3920
▁widely	-3921
▁naval	-3922
▁Wind	-3923
▁systems	-3924
▁promoted	-3925
itan	-3926
illa	-3927
aven	-3928
▁confirmed	-3929
▁news	-3930
▁reaching	-3931
▁Ireland	-3932
▁results	-3933
▁proved	-3934
▁Avenue	-3935
HL	-3936
osaur	-3937
▁passing	-3938
ibrary	-3939
▁albums	-3940
▁transl	-3941
▁explained	-3942
▁Fleet	-3943
▁greatest	-3944
▁conflict	-3945
▁invasion	-3946
ota	-3947
▁wick	-3948
lam	-3949
▁coming	-3950
▁peace	-3951
▁charge	-3952
▁sixth	-3953
ees	-3954
▁hero	-3955
▁resist	-3956
▁northwest	-3957
▁county	-3958
ube	-3959
▁corn	-3960
▁shortly	-3961
▁weather	-3962
night	-3963
▁versions	-3964
oured	-3965
▁serve	-3966
▁causing	-3967
▁says	-3968
▁sust	-3969
hew	-3970
▁expressed	-3971
▁path	-3972
uipment	-3973
▁reception	-3974
pe	-3975
ictoria	-3976
▁Di	-3977
ura	-3978
udd	-3979
▁seek	-3980
▁burn	-3981
▁ir	-3982
▁Ray	-3983
iced	-3984
itness	-3985
▁residents	-3986
▁Catholic	-3987
▁emot	-3988
▁border	-3989
▁Bus	-3990
▁Tropical	-3991
▁soundtrack	-3992
yon	-3993
aling	-3994
▁Ty	-3995
▁cities	-3996
▁seasons	-3997
omy	-3998
▁appearances	-3999
▁favour	-4000
▁sense	-4001
ategory	-4002
▁sn	-4003
tation	-4004
▁Norm	-4005
▁contest	-4006
▁Work	-4007
▁chem	-4008
ented	-4009
▁Nin	-4010
▁hospital	-4011
dd	-4012
town	-4013
ero	-4014
▁green	-4015
▁identified	-4016
▁Charl	-4017
▁physical	-4018
▁Sant	-4019
▁older	-4020
▁Light	-4021
ancy	-4022
onn	-4023
▁Aut	-4024
▁Though	-4025
▁hands	-4026
▁tells	-4027
▁true	-4028
▁offer	-4029
▁Middle	-4030
ala	-4031
▁Live	-4032
▁dedic	-4033
bit	-4034
▁kg	-4035
ighth	-4036
▁iron	-4037
▁artillery	-4038
▁Alb	-4039
▁represented	-4040
▁Commun	-4041
bon	-4042
▁pun	-4043
▁weapons	-4044
ips	-4045
▁Liber	-4046
arden	-4047
▁ahead	-4048
▁Through	-4049
▁Football	-4050
unction	-4051
eption	-4052
ym	-4053
▁Show	-4054
▁gas	-4055
▁negot	-4056
ylvania	-4057
▁heavily	-4058
▁laws	-4059
▁Dev	-4060
▁eas	-4061
▁supp	-4062
uro	-4063
abeth	-4064
▁Dutch	-4065
▁defense	-4066
▁student	-4067
▁image	-4068
▁spread	-4069
▁Hal	-4070
▁alone	-4071
▁apparent	-4072
▁Week	-4073
oung	-4074
▁studies	-4075
▁Direct	-4076
▁officially	-4077
▁husband	-4078
known	-4079
▁executive	-4080
▁district	-4081
▁Tay	-4082
▁Far	-4083
▁Sub	-4084
▁Sa	-4085
▁farm	-4086
▁Carl	-4087
essions	-4088
▁instit	-4089
▁debuted	-4090
▁Dun	-4091
▁Albert	-4092
▁Top	-4093
peration	-4094
▁prominent	-4095
▁capture	-4096
erry	-4097
▁consisted	-4098
▁wild	-4099
▁send	-4100
▁pack	-4101
▁instrument	-4102
▁fired	-4103
▁bit	-4104
adel	-4105
▁stone	-4106
▁pattern	-4107
▁argued	-4108
ef	-4109
▁resc	-4110
▁aired	-4111
▁figures	-4112
▁techni	-4113
bur	-4114
▁prepar	-4115
▁surpris	-4116
▁exped	-4117
10	-4118
▁growth	-4119
▁Ill	-4120
▁couple	-4121
acity	-4122
▁doing	-4123
▁returning	-4124
▁Homer	-4125
▁hun	-4126
▁suit	-4127
▁Bond	-4128
▁contemporary	-4129
pool	-4130
ockey	-4131
▁bud	-4132
▁Rog	-4133
ushed	-4134
▁poet	-4135
rid	-4136
▁Ry	-4137
▁ring	-4138
▁Men	-4139
▁weight	-4140
▁cert	-4141
▁Av	-4142
▁rid	-4143
▁drug	-4144
▁laid	-4145
▁leaders	-4146
▁doub	-4147
olt	-4148
▁affected	-4149
▁Northern	-4150
overnment	-4151
▁matter	-4152
▁pieces	-4153
▁floor	-4154
▁habit	-4155
▁magn	-4156
lers	-4157
lines	-4158
▁step	-4159
▁eth	-4160
▁maintained	-4161
▁propos	-4162
▁Fre	-4163
resp	-4164
▁Ram	-4165
▁earth	-4166
▁Dam	-4167
▁occasion	-4168
appen	-4169
▁visited	-4170
▁tun	-4171
▁rang	-4172
▁here	-4173
▁comes	-4174
▁communic	-4175
▁shell	-4176
▁speech	-4177
▁Daniel	-4178
▁Mat	-4179
▁Storm	-4180
ports	-4181
▁activities	-4182
▁termin	-4183
▁stra	-4184
AA	-4185
▁Carolina	-4186
▁pal	-4187
inson	-4188
▁attract	-4189
ental	-4190
▁citi	-4191
▁exec	-4192
acement	-4193
ifying	-4194
▁tournament	-4195
▁reign	-4196
▁toward	-4197
▁Sk	-4198
▁singles	-4199
▁emph	-4200
▁hall	-4201
emic	-4202
▁trees	-4203
▁reference	-4204
▁ox	-4205
▁crowd	-4206
▁formation	-4207
ocked	-4208
▁Scottish	-4209
▁senior	-4210
▁Che	-4211
▁setting	-4212
elve	-4213
▁adapt	-4214
▁surre	-4215
▁territory	-4216
▁worldwide	-4217
▁medical	-4218
▁Hard	-4219
▁Bre	-4220
▁trying	-4221
▁stations	-4222
▁Marsh	-4223
uy	-4224
uled	-4225
▁System	-4226
ruit	-4227
▁birds	-4228
▁Fantasy	-4229
estic	-4230
▁pan	-4231
▁delay	-4232
▁Writ	-4233
▁Holly	-4234
▁Background	-4235
ners	-4236
▁machine	-4237
overnor	-4238
▁claims	-4239
▁fellow	-4240
▁doll	-4241
▁murder	-4242
▁District	-4243
embly	-4244
▁historian	-4245
▁bul	-4246
▁pict	-4247
▁rainfall	-4248
▁risk	-4249
▁dog	-4250
▁Field	-4251
▁fully	-4252
▁accident	-4253
uct	-4254
▁Penns	-4255
urban	-4256
▁cell	-4257
▁Rom	-4258
▁value	-4259
ivity	-4260
▁load	-4261
▁therefore	-4262
▁Duke	-4263
▁Home	-4264
▁split	-4265
▁chosen	-4266
▁treatment	-4267
▁Civil	-4268
▁Colon	-4269
▁university	-4270
▁Li	-4271
gian	-4272
▁twice	-4273
eed	-4274
omers	-4275
ror	-4276
uls	-4277
▁Tem	-4278
▁Studios	-4279
velopment	-4280
▁terr	-4281
▁supply	-4282
▁Polish	-4283
▁reports	-4284
stone	-4285
rael	-4286
▁Short	-4287
▁leaves	-4288
resh	-4289
▁governor	-4290
▁sens	-4291
▁Senate	-4292
▁remark	-4293
amber	-4294
▁paper	-4295
aved	-4296
stitution	-4297
▁label	-4298
▁faced	-4299
▁agg	-4300
ampion	-4301
▁dyn	-4302
ordin	-4303
▁Beat	-4304
▁opin	-4305
▁walls	-4306
▁hyd	-4307
▁follows	-4308
▁Lew	-4309
▁billion	-4310
ns	-4311
anger	-4312
ledge	-4313
▁operated	-4314
▁grew	-4315
▁Rod	-4316
▁surrounding	-4317
ufact	-4318
uous	-4319
▁Andrew	-4320
rich	-4321
▁steam	-4322
▁contained	-4323
▁degree	-4324
ucky	-4325
▁herself	-4326
▁condition	-4327
onents	-4328
▁Christmas	-4329
▁horses	-4330
▁planet	-4331
▁manufact	-4332
▁MD	-4333
▁accompan	-4334
▁ut	-4335
ayer	-4336
▁wounded	-4337
▁typically	-4338
▁escape	-4339
▁swe	-4340
▁Allied	-4341
▁Lo	-4342
▁visual	-4343
▁passes	-4344
rect	-4345
orter	-4346
▁color	-4347
▁simply	-4348
isco	-4349
▁Mean	-4350
▁master	-4351
illy	-4352
▁fuel	-4353
▁Wilson	-4354
▁Ca	-4355
▁sle	-4356
▁brown	-4357
▁Night	-4358
▁railway	-4359
▁Bart	-4360
▁element	-4361
▁draft	-4362
utation	-4363
▁Taylor	-4364
ety	-4365
▁lives	-4366
eller	-4367
▁editor	-4368
▁orders	-4369
▁arms	-4370
xp	-4371
▁Corn	-4372
▁serving	-4373
▁bal	-4374
▁nothing	-4375
▁Alexander	-4376
▁authority	-4377
▁chose	-4378
gend	-4379
▁opposed	-4380
▁workers	-4381
▁vote	-4382
▁cannot	-4383
▁consecutive	-4384
isters	-4385
▁moment	-4386
▁Mike	-4387
een	-4388
▁newly	-4389
ricult	-4390
antly	-4391
▁native	-4392
▁unknown	-4393
ancing	-4394
▁experiment	-4395
▁participated	-4396
▁casual	-4397
▁growing	-4398
pass	-4399
▁website	-4400
agn	-4401
▁emphas	-4402
▁phil	-4403
uis	-4404
▁attrib	-4405
▁fan	-4406
▁producers	-4407
fully	-4408
▁rear	-4409
isf	-4410
mit	-4411
ographer	-4412
▁bass	-4413
▁fair	-4414
▁benef	-4415
▁losing	-4416
▁Castle	-4417
▁Fam	-4418
▁adopted	-4419
▁advanced	-4420
▁extra	-4421
▁filming	-4422
▁Festival	-4423
ote	-4424
▁Ros	-4425
▁heard	-4426
▁Hum	-4427
▁severe	-4428
▁Pennsylvania	-4429
▁offensive	-4430
▁Pen	-4431
▁feed	-4432
ilies	-4433
andy	-4434
▁fiction	-4435
▁opposition	-4436
imens	-4437
▁extend	-4438
▁spirit	-4439
enge	-4440
▁Det	-4441
▁capacity	-4442
enger	-4443
▁Pers	-4444
▁Islands	-4445
▁What	-4446
▁	-4447
e	-4448
t	-4449
a	-4450
n	-4451
i	-4452
o	-4453
r	-4454
s	-4455
h	-4456
l	-4457
d	-4458
c	-4459
u	-4460
m	-4461
f	-4462
g	-4463
p	-4464
w	-4465
y	-4466
b	-4467
,	-4468
.	-4469
v	-4470
k	-4471
@	-4472
1	-4473
T	-4474
0	-4475
S	-4476
A	-4477
=	-4478
"	-4479
C	-4480
M	-4481
2	-4482
B	-4483
I	-4484
'	-4485
9	-4486
-	-4487
H	-4488
P	-4489
x	-4490
D	-4491
R	-4492
F	-4493
W	-4494
L	-4495
N	-4496
