{
  "version": "1.0",
  "truncation": null,
  "padding": null,
  "added_tokens": [
    {
      "id": 0,
      "content": "[EOS]",
      "single_word": false,
      "lstrip": false,
      "rstrip": false,
      "normalized": false,
      "special": true
    },
    {
      "id": 1,
      "content": "[BOS]",
      "single_word": false,
      "lstrip": false,
      "rstrip": false,
      "normalized": false,
      "special": true
    },
    {
      "id": 2,
      "content": "[PAD]",
      "single_word": false,
      "lstrip": false,
      "rstrip": false,
      "normalized": false,
      "special": true
    },
    {
      "id": 3,
      "content": "[UNK]",
      "single_word": false,
      "lstrip": false,
      "rstrip": false,
      "normalized": false,
      "special": true
    }
  ],
  "normalizer": {
    "type": "Sequence",
    "normalizers": [
      {
        "type": "Lowercase"
      }
    ]
  },
  "pre_tokenizer": {
    "type": "ByteLevel",
    "add_prefix_space": true,
    "trim_offsets": true,
    "use_regex": true
  },
  "post_processor": null,
  "decoder": null,
  "model": {
    "type": "BPE",
    "dropout": null,
    "unk_token": "[UNK]",
    "continuing_subword_prefix": null,
    "end_of_word_suffix": null,
    "fuse_unk": false,
    "byte_fallback": false,
    "ignore_merges": false,
    "vocab": {
      "[EOS]": 0,
      "[BOS]": 1,
      "[PAD]": 2,
      "[UNK]": 3,
      "!": 4,
      "\"": 5,
      "#": 6,
      "$": 7,
      "%": 8,
      "&": 9,
      "'": 10,
      "(": 11,
      ")": 12,
      "*": 13,
      "+": 14,
      ",": 15,
      "-": 16,
      ".": 17,
      "/": 18,
      "0": 19,
      "1": 20,
      "2": 21,
      "3": 22,
      "4": 23,
      "5": 24,
      "6": 25,
      "7": 26,
      "8": 27,
      "9": 28,
      ":": 29,
      ";": 30,
      "<": 31,
      "=": 32,
      ">": 33,
      "?": 34,
      "@": 35,
      "[": 36,
      "\\": 37,
      "]": 38,
      "^": 39,
      "_": 40,
      "`": 41,
      "a": 42,
      "b": 43,
      "c": 44,
      "d": 45,
      "e": 46,
      "f": 47,
      "g": 48,
      "h": 49,
      "i": 50,
      "j": 51,
      "k": 52,
      "l": 53,
      "m": 54,
      "n": 55,
      "o": 56,
      "p": 57,
      "q": 58,
      "r": 59,
      "s": 60,
      "t": 61,
      "u": 62,
      "v": 63,
      "w": 64,
      "x": 65,
      "y": 66,
      "z": 67,
      "{": 68,
      "|": 69,
      "}": 70,
      "~": 71,
      "¡": 72,
      "¢": 73,
      "£": 74,
      "¤": 75,
      "¥": 76,
      "¦": 77,
      "§": 78,
      "¨": 79,
      "©": 80,
      "ª": 81,
      "«": 82,
      "¬": 83,
      "®": 84,
      "¯": 85,
      "°": 86,
      "±": 87,
      "²": 88,
      "³": 89,
      "´": 90,
      "µ": 91,
      "¶": 92,
      "·": 93,
      "¸": 94,
      "¹": 95,
      "º": 96,
      "»": 97,
      "¼": 98,
      "½": 99,
      "¾": 100,
      "¿": 101,
      "Â": 102,
      "Ã": 103,
      "Ä": 104,
      "Å": 105,
      "Æ": 106,
      "Ç": 107,
      "È": 108,
      "É": 109,
      "Ê": 110,
      "Ë": 111,
      "Ì": 112,
      "Í": 113,
      "Î": 114,
      "Ï": 115,
      "Ð": 116,
      "Ñ": 117,
      "Ò": 118,
      "Ó": 119,
      "Ô": 120,
      "Õ": 121,
      "Ö": 122,
      "×": 123,
      "Ø": 124,
      "Ù": 125,
      "Ú": 126,
      "Û": 127,
      "Ü": 128,
      "Ý": 129,
      "Þ": 130,
      "ß": 131,
      "à": 132,
      "á": 133,
      "â": 134,
      "ã": 135,
      "ä": 136,
      "å": 137,
      "æ": 138,
      "ç": 139,
      "è": 140,
      "é": 141,
      "ê": 142,
      "ë": 143,
      "ì": 144,
      "í": 145,
      "î": 146,
      "ï": 147,
      "ð": 148,
      "ñ": 149,
      "ó": 150,
      "ā": 151,
      "Ă": 152,
      "ă": 153,
      "Ą": 154,
      "ą": 155,
      "Ć": 156,
      "ć": 157,
      "Ĉ": 158,
      "ċ": 159,
      "č": 160,
      "Ď": 161,
      "ď": 162,
      "Đ": 163,
      "đ": 164,
      "Ē": 165,
      "ē": 166,
      "Ĕ": 167,
      "ĕ": 168,
      "Ė": 169,
      "ė": 170,
      "Ę": 171,
      "ę": 172,
      "Ě": 173,
      "ě": 174,
      "Ĝ": 175,
      "ĝ": 176,
      "Ğ": 177,
      "ğ": 178,
      "Ġ": 179,
      "ġ": 180,
      "Ģ": 181,
      "ģ": 182,
      "Ĥ": 183,
      "ĥ": 184,
      "Ħ": 185,
      "ħ": 186,
      "Ĩ": 187,
      "ĩ": 188,
      "Ī": 189,
      "ī": 190,
      "Ĭ": 191,
      "ĭ": 192,
      "Į": 193,
      "į": 194,
      "İ": 195,
      "ı": 196,
      "Ĳ": 197,
      "ĳ": 198,
      "Ĵ": 199,
      "ĵ": 200,
      "Ķ": 201,
      "ķ": 202,
      "ĸ": 203,
      "Ĺ": 204,
      "ĺ": 205,
      "Ļ": 206,
      "ļ": 207,
      "Ľ": 208,
      "ľ": 209,
      "Ŀ": 210,
      "ŀ": 211,
      "Ł": 212,
      "ł": 213,
      "Ń": 214,
      "es": 215,
      "Ġd": 216,
      "on": 217,
      "Ġa": 218,
      "en": 219,
      "Ġt": 220,
      "ti": 221,
      "Ã©": 222,
      "Ġl": 223,
      "Ġp": 224,
      "in": 225,
      "Ġc": 226,
      "er": 227,
      "Ġs": 228,
      "re": 229,
      "an": 230,
      "Ġth": 231,
      "tion": 232,
      "Ġde": 233,
      "or": 234,
      "is": 235,
      "ent": 236,
      "Ġthe": 237,
      "it": 238,
      "ou": 239,
      "al": 240,
      "Ġm": 241,
      "Ġe": 242,
      "ar": 243,
      "Ġf": 244,
      "Ġo": 245,
      "ation": 246,
      "Ġin": 247,
      "qu": 248,
      "ro": 249,
      "at": 250,
      "Ġof": 251,
      "Ġb": 252,
      "le": 253,
      "Ġn": 254,
      "ment": 255,
      "Ġan": 256,
      "Ġla": 257,
      "ic": 258,
      "ur": 259,
      "un": 260,
      "om": 261,
      "Ġr": 262,
      "ed": 263,
      "Ġw": 264,
      "il": 265,
      "Ġand": 266,
      "Ġre": 267,
      "Ġet": 268,
      "Ġdes": 269,
      "Ġcon": 270,
      "Ġle": 271,
      "el": 272,
      "âĢ": 273,
      "Ġto": 274,
      "as": 275,
      "Ġpro": 276,
      "Ġles": 277,
      "ec": 278,
      "ra": 279,
      "ce": 280,
      "si": 281,
      "Ġh": 282,
      "ĠÃ": 283,
      "Ġqu": 284,
      "Ġg": 285,
      "Ġen": 286,
      "ing": 287,
      "te": 288,
      "our": 289,
      "us": 290,
      "Ġcom": 291,
      "ĠÃł": 292,
      "Ġun": 293,
      "ant": 294,
      "ri": 295,
      "Ġv": 296,
      "ir": 297,
      "Ġpar": 298,
      "ol": 299,
      "Ġau": 300,
      "et": 301,
      "âĢĻ": 302,
      "Ġ(": 303,
      "Ġdu": 304,
      "ve": 305,
      "ad": 306,
      "ch": 307,
      "pp": 308,
      "00": 309,
      "ci": 310,
      "ul": 311,
      "Ã¨": 312,
      "ter": 313,
      "Ã©s": 314,
      "Ġfor": 315,
      "ta": 316,
      "Ġ1": 317,
      "ĠÃ©": 318,
      "Ġ2": 319,
      "ans": 320,
      "Ġon": 321,
      "im": 322,
      "ement": 323,
      "tr": 324,
      "os": 325,
      "ig": 326,
      "ers": 327,
      "me": 328,
      "au": 329,
      "id": 330,
      "Ġpr": 331,
      "ort": 332,
      "ations": 333,
      "ac": 334,
      "ĠdÃ©": 335,
      "ag": 336,
      "ire": 337,
      "est": 338,
      "Ġsu": 339,
      "ess": 340,
      "bl": 341,
      "Ġex": 342,
      "th": 343,
      "Ġac": 344,
      "Ġpour": 345,
      "Ġas": 346,
      "em": 347,
      "ff": 348,
      "Ġj": 349,
      "Ġcomm": 350,
      "Ġch": 351,
      "ver": 352,
      "Ġbe": 353,
      "sion": 354,
      "Ġis": 355,
      "op": 356,
      "que": 357,
      "Ġor": 358,
      "tu": 359,
      "Ġdans": 360,
      "and": 361,
      "ion": 362,
      "ab": 363,
      "tin": 364,
      "ie": 365,
      "tÃ©": 366,
      "Ġsur": 367,
      "Ġpl": 368,
      "Ġque": 369,
      "end": 370,
      "ate": 371,
      "Ġthat": 372,
      "Ġno": 373,
      "Ġcan": 374,
      "ĠrÃ©": 375,
      "ts": 376,
      "di": 377,
      "tre": 378,
      "itÃ©": 379,
      "Ġ200": 380,
      "am": 381,
      "Ġal": 382,
      "ous": 383,
      "pl": 384,
      "Ã©r": 385,
      "ati": 386,
      "Ġres": 387,
      "iv": 388,
      "ith": 389,
      "du": 390,
      "pr": 391,
      "ay": 392,
      "tions": 393,
      "Ġcons": 394,
      "ill": 395,
      "Ġwh": 396,
      "for": 397,
      "ont": 398,
      "ly": 399,
      "ance": 400,
      "Ġwith": 401,
      "um": 402,
      "oc": 403,
      "vel": 404,
      "Ġou": 405,
      "Ġmo": 406,
      "Ġit": 407,
      "Ġcanad": 408,
      "ity": 409,
      "Ġinter": 410,
      "tic": 411,
      "Ġse": 412,
      "Ġne": 413,
      "Ã©e": 414,
      "Ġune": 415,
      "Ġapp": 416,
      "ence": 417,
      "Ġav": 418,
      "Ġad": 419,
      "ational": 420,
      "onn": 421,
      "iti": 422,
      "Ġqui": 423,
      "ces": 424,
      "ain": 425,
      "Ġim": 426,
      "Ġser": 427,
      "Âł": 428,
      "ĠâĢ": 429,
      "oun": 430,
      "fic": 431,
      "urs": 432,
      "Ġtra": 433,
      "ting": 434,
      "Ġby": 435,
      "ure": 436,
      "de": 437,
      "port": 438,
      "Ġdis": 439,
      "ens": 440,
      "cl": 441,
      "Ġat": 442,
      "Ġcomp": 443,
      "Ġy": 444,
      "form": 445,
      "Ã©es": 446,
      "ow": 447,
      "Ġst": 448,
      "ut": 449,
      "Ġso": 450,
      "st": 451,
      "Ġaux": 452,
      "Ġsec": 453,
      "Ġare": 454,
      "Ġest": 455,
      "Ġtr": 456,
      "ne": 457,
      "Ġfa": 458,
      "ques": 459,
      "mes": 460,
      "ue": 461,
      "ven": 462,
      "ist": 463,
      "gra": 464,
      "ap": 465,
      "res": 466,
      "ons": 467,
      "Ġco": 468,
      "ge": 469,
      "der": 470,
      "Ġper": 471,
      "ies": 472,
      "ere": 473,
      "able": 474,
      "ale": 475,
      "duc": 476,
      "ais": 477,
      "pec": 478,
      "les": 479,
      "pe": 480,
      "Ġgr": 481,
      "app": 482,
      "Ġce": 483,
      "Ġ19": 484,
      "ten": 485,
      "Ġ3": 486,
      "Ġcanada": 487,
      "lement": 488,
      "Ġar": 489,
      "vic": 490,
      "Ġpe": 491,
      "aux": 492,
      "air": 493,
      "âĢ¨": 494,
      "Ã©c": 495,
      "Ġsh": 496,
      "Ã¨re": 497,
      "min": 498,
      "ient": 499,
      "ard": 500,
      "ord": 501,
      "Ġpas": 502,
      "ble": 503,
      "ique": 504,
      "Ġrec": 505,
      "ission": 506,
      "ld": 507,
      "age": 508,
      "ign": 509,
      "Ġi": 510,
      "tri": 511,
      "Ġparti": 512,
      "Ġag": 513,
      "ubl": 514,
      "gram": 515,
      "Ġil": 516,
      "Ġintern": 517,
      "rom": 518,
      "Ġfin": 519,
      "ber": 520,
      "Ġthis": 521,
      "ments": 522,
      "Ġass": 523,
      "Ġ-": 524,
      "Ġpol": 525,
      "gan": 526,
      "Ã©n": 527,
      "Ġacc": 528,
      "Ġprogram": 529,
      "Ġservic": 530,
      "igh": 531,
      "tiv": 532,
      "ants": 533,
      "og": 534,
      "ex": 535,
      "ct": 536,
      "aire": 537,
      "Ãª": 538,
      "Ġmar": 539,
      "Ġk": 540,
      "ux": 541,
      "ite": 542,
      "ud": 543,
      "its": 544,
      "ich": 545,
      "per": 546,
      "Ġprov": 547,
      "ph": 548,
      "Ġreg": 549,
      "vern": 550,
      "Ġeff": 551,
      "Ġnot": 552,
      "Ġmin": 553,
      "Ġcl": 554,
      "ures": 555,
      "out": 556,
      "ated": 557,
      "ond": 558,
      "entre": 559,
      "Ġplus": 560,
      "ision": 561,
      "tive": 562,
      "par": 563,
      "od": 564,
      "Ġfrom": 565,
      "oin": 566,
      "Ã©g": 567,
      "Ġam": 568,
      "Ġpers": 569,
      "ary": 570,
      "all": 571,
      "Ġcommun": 572,
      "Ġdi": 573,
      "pos": 574,
      "__": 575,
      "Ġsa": 576,
      "elle": 577,
      "ang": 578,
      "Ġsont": 579,
      "Ġpre": 580,
      "Ġman": 581,
      "cial": 582,
      "ari": 583,
      "ork": 584,
      "Ġrel": 585,
      "ould": 586,
      "aires": 587,
      "Ġhe": 588,
      "Ġeu": 589,
      "Ġha": 590,
      "Ġinternational": 591,
      "tif": 592,
      "une": 593,
      "ĠâĢ¢": 594,
      "iss": 595,
      "ĠprÃ©": 596,
      "Ġpubl": 597,
      "cer": 598,
      "Ġont": 599,
      "Ġall": 600,
      "Ġme": 601,
      "ien": 602,
      "Ġins": 603,
      "iz": 604,
      "Ġwas": 605,
      "ise": 606,
      "ction": 607,
      "ther": 608,
      "ak": 609,
      "bre": 610,
      "Ã¨s": 611,
      "tat": 612,
      "tain": 613,
      "Ġcoun": 614,
      "ĠÂ": 615,
      "pÃ©": 616,
      "Ġproc": 617,
      "Ġ4": 618,
      "itÃ©s": 619,
      "Ġtrans": 620,
      "ors": 621,
      "plo": 622,
      "Ġter": 623,
      "Ġsy": 624,
      "titu": 625,
      "rÃ©": 626,
      "ted": 627,
      "ail": 628,
      "Ġus": 629,
      "Ġmon": 630,
      "ier": 631,
      "Ġwe": 632,
      "Ġorgan": 633,
      "Ġstr": 634,
      "ine": 635,
      "Ġu": 636,
      "ves": 637,
      "Ġli": 638,
      "Ġmem": 639,
      "ass": 640,
      "Ġ5": 641,
      "Ġgo": 642,
      "ace": 643,
      ").": 644,
      "jec": 645,
      "con": 646,
      "Ġinform": 647,
      "oir": 648,
      "cip": 649,
      "Ġsub": 650,
      "Ġdo": 651,
      "Ġpri": 652,
      "ution": 653,
      "Ġob": 654,
      "ear": 655,
      "til": 656,
      "),": 657,
      "Ġavec": 658,
      "Ġwhich": 659,
      "ements": 660,
      "li": 661,
      "Ġwill": 662,
      "Ġem": 663,
      "Ġhave": 664,
      "velop": 665,
      "Ġeuro": 666,
      "omm": 667,
      "Ã©sent": 668,
      "Ġits": 669,
      "ĠÃ©tÃ©": 670,
      "Ġdevelop": 671,
      "osi": 672,
      "Ġcet": 673,
      "Ġpay": 674,
      "ase": 675,
      "Ġcommission": 676,
      "Ġdire": 677,
      "ait": 678,
      "ities": 679,
      "Ġ:": 680,
      "ide": 681,
      "Ġimp": 682,
      "Ġ199": 683,
      "Ġab": 684,
      "Ġpos": 685,
      "200": 686,
      "..": 687,
      "ture": 688,
      "Ġconf": 689,
      "Ġsou": 690,
      "Ġservices": 691,
      "ates": 692,
      "Ġnational": 693,
      "ours": 694,
      "isation": 695,
      "ech": 696,
      "ell": 697,
      "tres": 698,
      "Ġgrou": 699,
      "Ġses": 700,
      "ip": 701,
      "jet": 702,
      "ish": 703,
      "oll": 704,
      "ore": 705,
      "ĠrÃ©s": 706,
      "Ġind": 707,
      "ial": 708,
      "Ġdro": 709,
      "Ġrapp": 710,
      "Ġhas": 711,
      "Ġes": 712,
      "ins": 713,
      "Ġwork": 714,
      "tes": 715,
      "ents": 716,
      "lic": 717,
      "av": 718,
      "bil": 719,
      "to": 720,
      "che": 721,
      "Ġsupp": 722,
      "Ã´": 723,
      "Ã©ri": 724,
      "eral": 725,
      "'s": 726,
      "Ġinc": 727,
      "ia": 728,
      "Ġpublic": 729,
      "Ġconcer": 730,
      "Ġdem": 731,
      "gh": 732,
      "Ġentre": 733,
      "Ġform": 734,
      "tem": 735,
      "ative": 736,
      "Ġaf": 737,
      "Ġtheir": 738,
      "tabl": 739,
      "ult": 740,
      "iques": 741,
      "Ġtrav": 742,
      "ĠrÃ©g": 743,
      "ong": 744,
      "Ġces": 745,
      "Ġ6": 746,
      "ues": 747,
      "Ġpart": 748,
      "els": 749,
      "vir": 750,
      "are": 751,
      "Ġpersonn": 752,
      "ĠÃª": 753,
      "Ġnations": 754,
      "olog": 755,
      "Ġrequ": 756,
      "ob": 757,
      "tis": 758,
      "gr": 759,
      "Ã¨me": 760,
      "ales": 761,
      "Ġsi": 762,
      "estion": 763,
      "Ġother": 764,
      "trib": 765,
      "Ġactiv": 766,
      "ĠÃªtre": 767,
      "Ġcette": 768,
      "so": 769,
      "ited": 770,
      "ĠgÃ©n": 771,
      "ice": 772,
      "Ġprot": 773,
      "tra": 774,
      "ome": 775,
      "Ġnous": 776,
      "sid": 777,
      "echn": 778,
      "tru": 779,
      "rit": 780,
      "Ã©d": 781,
      "Ġnon": 782,
      "ach": 783,
      "vention": 784,
      "Ġbo": 785,
      "Ġincl": 786,
      "Ġ\"": 787,
      "Ġdiff": 788,
      "conom": 789,
      "Ġro": 790,
      "val": 791,
      "bles": 792,
      "elles": 793,
      "Ġcar": 794,
      "tor": 795,
      "ticle": 796,
      "Ġrepr": 797,
      "opp": 798,
      "Ġvo": 799,
      "Ġinformation": 800,
      "Ġhum": 801,
      "Ġimport": 802,
      "Ġel": 803,
      "ps": 804,
      "Ġtechn": 805,
      "Ġcer": 806,
      "Ġresp": 807,
      "Ġpays": 808,
      "Ġappro": 809,
      "vent": 810,
      "Ġcommit": 811,
      "ust": 812,
      "tats": 813,
      "se": 814,
      "uation": 815,
      "Ġgen": 816,
      "ile": 817,
      "Ġfac": 818,
      "Ġconse": 819,
      "Ġalso": 820,
      "Ġoffic": 821,
      "Ġrapport": 822,
      "Ġnew": 823,
      "Ġunder": 824,
      "Ġsta": 825,
      "ical": 826,
      "Ġnom": 827,
      "Ġperm": 828,
      "Ġreport": 829,
      "Ġpres": 830,
      "gal": 831,
      "fer": 832,
      "lec": 833,
      "ection": 834,
      "Ġmemb": 835,
      "ille": 836,
      "Ġproduc": 837,
      "Ġplan": 838,
      "Ġlo": 839,
      "ian": 840,
      "Ġprogramme": 841,
      "ploy": 842,
      "Ġ7": 843,
      "Ġconcern": 844,
      "Ġann": 845,
      "Ġleur": 846,
      "Ġprin": 847,
      "ĠgÃ©nÃ©r": 848,
      "Ġspec": 849,
      "Ġdoc": 850,
      "velopp": 851,
      "Ġfinan": 852,
      "cri": 853,
      "teur": 854,
      "Ġgovern": 855,
      "ticul": 856,
      "Ġ9": 857,
      "ĠprÃ©sent": 858,
      "Ġcap": 859,
      "ande": 860,
      "Ġcol": 861,
      "enti": 862,
      "mo": 863,
      "Ġbeen": 864,
      "ources": 865,
      "ai": 866,
      "Ġson": 867,
      "Ġrigh": 868,
      "Ġtout": 869,
      "ĠdÃ©velopp": 870,
      "cep": 871,
      "iÃ¨re": 872,
      "ric": 873,
      "Ã¨res": 874,
      "Ġparticul": 875,
      "Ġop": 876,
      "Ġ8": 877,
      "cision": 878,
      "Ġdevelopment": 879,
      "tro": 880,
      "Ġcor": 881,
      "ild": 882,
      "ĠÂ«": 883,
      "Ã©l": 884,
      "ough": 885,
      "Ġdonn": 886,
      "Ġwere": 887,
      "por": 888,
      "Ġnou": 889,
      "____": 890,
      "fication": 891,
      "Ã§": 892,
      "ot": 893,
      "Ġmes": 894,
      "Ġdocu": 895,
      "Ġdev": 896,
      "Ġthere": 897,
      "ouvern": 898,
      "Ġsit": 899,
      "olution": 900,
      "Ġcomme": 901,
      "Ġph": 902,
      "ive": 903,
      "ose": 904,
      "oint": 905,
      "Ġprocess": 906,
      "Ġsoci": 907,
      "Ġaff": 908,
      "Ġconseil": 909,
      "ese": 910,
      "Ġ0": 911,
      "cc": 912,
      "Ġver": 913,
      "ises": 914,
      "alth": 915,
      "Ġje": 916,
      "Ġvis": 917,
      "Ġcas": 918,
      "ences": 919,
      "dition": 920,
      "Ġeffec": 921,
      "posi": 922,
      "Ġgouvern": 923,
      "if": 924,
      "tee": 925,
      "Ġfr": 926,
      "Ġrem": 927,
      "Ġmore": 928,
      "one": 929,
      "Ġdur": 930,
      "Ġenvir": 931,
      "ivers": 932,
      "ke": 933,
      "Ġma": 934,
      "ĠdÃ©veloppement": 935,
      "Ġeurope": 936,
      "Ġgu": 937,
      "istr": 938,
      "Ġindi": 939,
      "Ġshould": 940,
      "acc": 941,
      "raph": 942,
      "Ġtravail": 943,
      "Ġyou": 944,
      "Ġprojet": 945,
      "Ġ$": 946,
      "ouv": 947,
      "ourn": 948,
      "iew": 949,
      "Ġyear": 950,
      "pend": 951,
      "Ġparticip": 952,
      "Ġinv": 953,
      "Ġfait": 954,
      "Ġmay": 955,
      "Ġcontin": 956,
      "ound": 957,
      "Ġhealth": 958,
      "Ġservice": 959,
      "Ġpoliti": 960,
      "Ġmain": 961,
      "abil": 962,
      "ense": 963,
      "arg": 964,
      "Ġunited": 965,
      "ms": 966,
      "Ġout": 967,
      "cy": 968,
      "pri": 969,
      "use": 970,
      "ater": 971,
      "ty": 972,
      "Ġhuman": 973,
      "Ġcertain": 974,
      "Ġcent": 975,
      "agraph": 976,
      "ui": 977,
      "Ġpropos": 978,
      "oci": 979,
      "Ġ10": 980,
      "Ġtou": 981,
      "ions": 982,
      "Ġthese": 983,
      "Ġinstitu": 984,
      "ulation": 985,
      "her": 986,
      "Ġbas": 987,
      "Ġrecomm": 988,
      "Ġcontrib": 989,
      "ual": 990,
      "Ġsys": 991,
      "Ġsign": 992,
      "Ġmet": 993,
      "Ġvi": 994,
      "Ġcommittee": 995,
      "ru": 996,
      "Ġapplic": 997,
      "Ġfun": 998,
      "19": 999,
      "Ġrev": 1000,
      "Ġstates": 1001,
      "cil": 1002,
      "ress": 1003,
      "Ġwould": 1004,
      "cher": 1005,
      "Ġnum": 1006,
      "Ġemploy": 1007,
      "atives": 1008,
      "sible": 1009,
      "Ġsuch": 1010,
      "Ġparagraph": 1011,
      "ple": 1012,
      "Ġthey": 1013,
      "etw": 1014,
      "ances": 1015,
      "erv": 1016,
      "Ġjus": 1017,
      "Ġbut": 1018,
      "Ġtim": 1019,
      "Ġdeux": 1020,
      "Ġdirec": 1021,
      "ost": 1022,
      "Ġexam": 1023,
      "Ġdroits": 1024,
      "ĠâĢĵ": 1025,
      "embl": 1026,
      "Ġloc": 1027,
      "ory": 1028,
      "Ġren": 1029,
      "Ġprodu": 1030,
      "Ġinclud": 1031,
      "Ġpra": 1032,
      "Ã¨g": 1033,
      "ks": 1034,
      "Ġsystem": 1035,
      "ante": 1036,
      "Ġiss": 1037,
      "ating": 1038,
      "Ġain": 1039,
      "ussi": 1040,
      "rie": 1041,
      "Ġsupport": 1042,
      "fin": 1043,
      "Ġorganis": 1044,
      "Ġainsi": 1045,
      "ade": 1046,
      "ĠÃ©tats": 1047,
      "Ġprotection": 1048,
      "Ġrespec": 1049,
      "Ġgroup": 1050,
      "ind": 1051,
      "Ġconvention": 1052,
      "Ãł": 1053,
      "Ġone": 1054,
      "Ġcour": 1055,
      "Ġinf": 1056,
      "Ġminis": 1057,
      "antÃ©": 1058,
      "Ġvous": 1059,
      "Ġfond": 1060,
      "Ġent": 1061,
      "Ġgovernment": 1062,
      "Ġpolic": 1063,
      "Ã©ration": 1064,
      "Ġprof": 1065,
      "Ġtak": 1066,
      "Ġrights": 1067,
      "ages": 1068,
      "Ġ.": 1069,
      "Ġadop": 1070,
      "Ġsocial": 1071,
      "Ġ[": 1072,
      "Ġany": 1073,
      "Ġhad": 1074,
      "cou": 1075,
      "Ġdom": 1076,
      "agement": 1077,
      "ats": 1078,
      "ĠsantÃ©": 1079,
      "Ġgouvernement": 1080,
      "Ġprovid": 1081,
      "Ġcouncil": 1082,
      "eu": 1083,
      "Ġtous": 1084,
      "Ã©ment": 1085,
      "Ġcoop": 1086,
      "Ġsession": 1087,
      "ois": 1088,
      "Ġmais": 1089,
      "Ġnombre": 1090,
      "Ġgeneral": 1091,
      "Ġpeut": 1092,
      "Ġorganiz": 1093,
      "ets": 1094,
      "Ġmill": 1095,
      "Ġif": 1096,
      "tries": 1097,
      "Ġneed": 1098,
      "Ġprem": 1099,
      "Ġaccord": 1100,
      "Ġpeu": 1101,
      "10": 1102,
      "Ġqual": 1103,
      "Ġiniti": 1104,
      "Ġmarch": 1105,
      "Ġfon": 1106,
      "lev": 1107,
      "ret": 1108,
      "part": 1109,
      "ĠÃ©ta": 1110,
      "000": 1111,
      "ĠcomitÃ©": 1112,
      "ov": 1113,
      "Ġover": 1114,
      "rough": 1115,
      "Ġpo": 1116,
      "Ġmembres": 1117,
      "Ãªme": 1118,
      "prÃ¨s": 1119,
      "Ġleurs": 1120,
      "Ġprincip": 1121,
      "ific": 1122,
      "Ġobjec": 1123,
      "Ġup": 1124,
      "Ġenviron": 1125,
      "teurs": 1126,
      "led": 1127,
      "Ġsuiv": 1128,
      "ĠrÃ©p": 1129,
      "ys": 1130,
      "ĠÃ©gal": 1131,
      "ession": 1132,
      "ally": 1133,
      "abor": 1134,
      "Ġcours": 1135,
      "ree": 1136,
      "ied": 1137,
      "ely": 1138,
      "Ã©cur": 1139,
      "Ġparties": 1140,
      "ĠcrÃ©": 1141,
      "erg": 1142,
      "Ġutil": 1143,
      "Ġsc": 1144,
      "vid": 1145,
      "Ġpop": 1146,
      "Ġsp": 1147,
      "tique": 1148,
      "ils": 1149,
      "Ġmen": 1150,
      "Ġfir": 1151,
      "ange": 1152,
      "try": 1153,
      "Ġ2006": 1154,
      "ĠrÃ¨g": 1155,
      "Ġthan": 1156,
      "udg": 1157,
      "Ġrequire": 1158,
      "aient": 1159,
      "Ġeconom": 1160,
      "ature": 1161,
      "Ġsous": 1162,
      "Ġ2005": 1163,
      "cid": 1164,
      "Ġwho": 1165,
      "Ġtri": 1166,
      "Ġquestion": 1167,
      "Ġcanadian": 1168,
      "Ġsyst": 1169,
      "ĠsÃ©cur": 1170,
      "ww": 1171,
      "Ġuse": 1172,
      "Ġbien": 1173,
      "sibil": 1174,
      "Ġris": 1175,
      "ĠÃ©galement": 1176,
      "tal": 1177,
      "ural": 1178,
      "Ġ20": 1179,
      "Ġarticle": 1180,
      "ĠspÃ©": 1181,
      "endre": 1182,
      "Ġens": 1183,
      "tim": 1184,
      "arm": 1185,
      "Ġfaire": 1186,
      "ĠÃ©l": 1187,
      "eng": 1188,
      "Ġadmin": 1189,
      "Ġbi": 1190,
      "ollow": 1191,
      "Ã£": 1192,
      "ĠeuropÃ©": 1193,
      "Ġcompr": 1194,
      "Ġid": 1195,
      "Ġ12": 1196,
      "Ġ2004": 1197,
      "aut": 1198,
      "ente": 1199,
      "Ã®": 1200,
      "ĠintÃ©": 1201,
      "ene": 1202,
      "Ġfollow": 1203,
      "ĠsÃ©curitÃ©": 1204,
      "Ġhow": 1205,
      "Ġcri": 1206,
      "Ġchild": 1207,
      "Ġlors": 1208,
      "hip": 1209,
      "Ġcountries": 1210,
      "anc": 1211,
      "Ġcad": 1212,
      "Ġprogrammes": 1213,
      "Ġrespons": 1214,
      "een": 1215,
      "termin": 1216,
      "Ġautres": 1217,
      "Ġhigh": 1218,
      "Ġlim": 1219,
      "Ġprojec": 1220,
      "aine": 1221,
      "estions": 1222,
      "Ġ15": 1223,
      "Ġloi": 1224,
      "Ġdocument": 1225,
      "ĠmÃ©": 1226,
      "Ġfund": 1227,
      "tifs": 1228,
      "Ġcommer": 1229,
      "vre": 1230,
      "Ġthrough": 1231,
      "enne": 1232,
      "mental": 1233,
      "ables": 1234,
      "Ã»": 1235,
      "rait": 1236,
      "ards": 1237,
      "ix": 1238,
      "reat": 1239,
      "Ġconstitu": 1240,
      "autres": 1241,
      "Ġstat": 1242,
      "Ġfra": 1243,
      "etween": 1244,
      "Ġeng": 1245,
      "Ġbetween": 1246,
      "Ġconsi": 1247,
      "Ã¢": 1248,
      "Ġtechnolog": 1249,
      "tiques": 1250,
      "Ġgestion": 1251,
      "Ġnor": 1252,
      "ĠÂ»": 1253,
      "Ġpoint": 1254,
      "iser": 1255,
      "cent": 1256,
      "Ġlaw": 1257,
      "ilit": 1258,
      "Ġimportant": 1259,
      "clar": 1260,
      "Ġour": 1261,
      "atÃ©g": 1262,
      "Ġeuropean": 1263,
      "Ġfe": 1264,
      "pro": 1265,
      "Ġmr": 1266,
      "ulture": 1267,
      "act": 1268,
      "ĠreprÃ©sent": 1269,
      "ination": 1270,
      "ency": 1271,
      "Ġlong": 1272,
      "Ġoper": 1273,
      "Ġfourn": 1274,
      "Ġmati": 1275,
      "Ġrecher": 1276,
      "Ġcro": 1277,
      "uis": 1278,
      "Ġquestions": 1279,
      "ĠmÃªme": 1280,
      "ĠgÃ©nÃ©ral": 1281,
      "nes": 1282,
      "ines": 1283,
      "Ġbr": 1284,
      "nex": 1285,
      "Ġfam": 1286,
      "Ġauth": 1287,
      "Ġcontre": 1288,
      "Ġinto": 1289,
      "Ġdroit": 1290,
      "uc": 1291,
      "up": 1292,
      "Ġ2007": 1293,
      "Ġprior": 1294,
      "ax": 1295,
      "Ġagre": 1296,
      "Ġplace": 1297,
      "organ": 1298,
      "inform": 1299,
      "Ġdisc": 1300,
      "Ġval": 1301,
      "Ġtw": 1302,
      "Ġincre": 1303,
      "Ġconsider": 1304,
      "Ġsol": 1305,
      "Ġfem": 1306,
      "Ġfirst": 1307,
      "go": 1308,
      "Ġten": 1309,
      "valuation": 1310,
      "Ġress": 1311,
      "Ġimplement": 1312,
      "Ġtem": 1313,
      "Ġindus": 1314,
      "Ġmesures": 1315,
      "ĠÃ©conom": 1316,
      "Ġsome": 1317,
      "tice": 1318,
      "Ġcommunic": 1319,
      "Ġsecur": 1320,
      "Ġcanadien": 1321,
      "Ġz": 1322,
      "Ġelle": 1323,
      "ved": 1324,
      "ĠrÃ©gion": 1325,
      "earch": 1326,
      "als": 1327,
      "Ġcontr": 1328,
      "urr": 1329,
      "Ã©qu": 1330,
      "Ġhel": 1331,
      "Ġ2003": 1332,
      "tives": 1333,
      "Ġchar": 1334,
      "ĠactivitÃ©s": 1335,
      "ateg": 1336,
      "Ġtime": 1337,
      "ditions": 1338,
      "Ġpromo": 1339,
      "ton": 1340,
      "Ġgl": 1341,
      "com": 1342,
      "Ġju": 1343,
      "Ġpermet": 1344,
      "Ġaussi": 1345,
      "ateurs": 1346,
      "Ġgroupe": 1347,
      "usion": 1348,
      "Ġtransport": 1349,
      "ft": 1350,
      "Ġmanagement": 1351,
      "Ġcompl": 1352,
      "....": 1353,
      "Â©": 1354,
      "Ġpriv": 1355,
      "Ġbudg": 1356,
      "Ġresearch": 1357,
      "Ġposi": 1358,
      "Ġpartie": 1359,
      "ren": 1360,
      "Ġassoci": 1361,
      "Ġsus": 1362,
      "iers": 1363,
      "tical": 1364,
      "Ġact": 1365,
      "Ġadd": 1366,
      "des": 1367,
      "isl": 1368,
      "article": 1369,
      "Ġdont": 1370,
      "tant": 1371,
      "Ġtoute": 1372,
      "Ġeffort": 1373,
      "Ġprovin": 1374,
      "Ġcadre": 1375,
      "Ġref": 1376,
      "Ġmeas": 1377,
      "onnement": 1378,
      "Ġregion": 1379,
      "Ġ2002": 1380,
      "Ġnouvel": 1381,
      "utions": 1382,
      "Ġmise": 1383,
      "Ġmust": 1384,
      "ducation": 1385,
      "Ġpeop": 1386,
      "Ġobs": 1387,
      "Ã©cess": 1388,
      "Ġdate": 1389,
      "Ã©tÃ©": 1390,
      "Ġauthor": 1391,
      "ings": 1392,
      "Ġwell": 1393,
      "tablish": 1394,
      "Ġlevel": 1395,
      "Ġmade": 1396,
      "action": 1397,
      "Ġfonction": 1398,
      "Ġdemand": 1399,
      "Ġmak": 1400,
      "fs": 1401,
      "Ġdoit": 1402,
      "Ġsecurity": 1403,
      "Ġmat": 1404,
      "Ġpersonnes": 1405,
      "Ġsel": 1406,
      "ĠnÃ©cess": 1407,
      "tend": 1408,
      "Ġrece": 1409,
      "eting": 1410,
      "Ġafin": 1411,
      "Ġcre": 1412,
      "mment": 1413,
      "tern": 1414,
      "Ġtro": 1415,
      "Ġca": 1416,
      "Ġsituation": 1417,
      "Ġexper": 1418,
      "Ġ11": 1419,
      "ight": 1420,
      "omen": 1421,
      "eurs": 1422,
      "Ġsim": 1423,
      "iste": 1424,
      "ĠdÃ©p": 1425,
      "ars": 1426,
      "Ġdemande": 1427,
      "Ġcontra": 1428,
      "Ġty": 1429,
      "Ġincluding": 1430,
      "Ġnumber": 1431,
      "Ġtotal": 1432,
      "Ġonly": 1433,
      "Ġestablish": 1434,
      "Ġnive": 1435,
      "Ġchang": 1436,
      "Ġthose": 1437,
      "ĠdÃ©cision": 1438,
      "Ġâ": 1439,
      "tement": 1440,
      "tention": 1441,
      "ption": 1442,
      "Ġ%": 1443,
      "Ã´le": 1444,
      "enseign": 1445,
      "Ġpolicy": 1446,
      "Ġfl": 1447,
      "Ġmeeting": 1448,
      "Ġstu": 1449,
      "Ġdirect": 1450,
      "Ġviol": 1451,
      "taire": 1452,
      "ĠprÃ©v": 1453,
      "ters": 1454,
      "ner": 1455,
      "ĠsÃ©": 1456,
      "ood": 1457,
      "Ġwhere": 1458,
      "ariat": 1459,
      "Ġamend": 1460,
      "Ġrepres": 1461,
      "Ġvol": 1462,
      "Ġdecision": 1463,
      "fore": 1464,
      "Ġ18": 1465,
      "Ġconditions": 1466,
      "Ġdat": 1467,
      "Ġmoy": 1468,
      "Ġcapac": 1469,
      "ann": 1470,
      "Ġunies": 1471,
      "anti": 1472,
      "Ġeconomic": 1473,
      "tent": 1474,
      "Ã©rence": 1475,
      "Ġequ": 1476,
      "Ġregul": 1477,
      "Ġshall": 1478,
      "uer": 1479,
      "Ġ13": 1480,
      "land": 1481,
      "Ġsci": 1482,
      "duction": 1483,
      "union": 1484,
      "Ġconn": 1485,
      "Ġport": 1486,
      "Ġconcl": 1487,
      "Ġwomen": 1488,
      "oire": 1489,
      "Ġcal": 1490,
      "ital": 1491,
      "now": 1492,
      "Ġ2001": 1493,
      "ĠprÃ©sid": 1494,
      "Ġ2000": 1495,
      "ĠmatiÃ¨re": 1496,
      "ast": 1497,
      "Ġcompte": 1498,
      "king": 1499,
      "entif": 1500,
      "Ġdisposi": 1501,
      "Ġmember": 1502,
      "Ġabout": 1503,
      "ii": 1504,
      "Ġsection": 1505,
      "iter": 1506,
      "ĠÃ©tabl": 1507,
      "Ġcomple": 1508,
      "Ġstate": 1509,
      "ĠdonnÃ©es": 1510,
      "Ġdra": 1511,
      "ving": 1512,
      "Ġcentre": 1513,
      "ĠprÃ©c": 1514,
      "Ġtit": 1515,
      "ety": 1516,
      "Ġmod": 1517,
      "ĠdÃ©l": 1518,
      "eration": 1519,
      "Ġcommunity": 1520,
      "Ġterrit": 1521,
      "20": 1522,
      "Ġrecherche": 1523,
      "Ġwhen": 1524,
      "istance": 1525,
      "Ġbec": 1526,
      "ament": 1527,
      "Ġmal": 1528,
      "Ġte": 1529,
      "Ġactivities": 1530,
      "Ġtwo": 1531,
      "Ġcoord": 1532,
      "Ġnouve": 1533,
      "information": 1534,
      "Ġsecret": 1535,
      "usi": 1536,
      "Ġadv": 1537,
      "Ġmark": 1538,
      "dit": 1539,
      "Ġvari": 1540,
      "antes": 1541,
      "ĠsystÃ¨me": 1542,
      "Ġciv": 1543,
      "Ġmed": 1544,
      "Ġsch": 1545,
      "ca": 1546,
      "Ġder": 1547,
      "iqu": 1548,
      "Ġoff": 1549,
      "Ġanal": 1550,
      "Ġsoit": 1551,
      "Ġbure": 1552,
      "Ġ14": 1553,
      "ack": 1554,
      "Ġressources": 1555,
      "ib": 1556,
      "Ã¨mes": 1557,
      "Ġspecial": 1558,
      "onc": 1559,
      "Ġwor": 1560,
      "Ġlang": 1561,
      "Ġparticular": 1562,
      "Ġconsid": 1563,
      "iÃ¨me": 1564,
      "Ġpolitique": 1565,
      "Ġconsult": 1566,
      "istration": 1567,
      "blig": 1568,
      "Â»": 1569,
      "Ġ>": 1570,
      "ĠdÃ©clar": 1571,
      "________": 1572,
      "Ġactu": 1573,
      "Ġsans": 1574,
      "11": 1575,
      "Ġpeople": 1576,
      "ieu": 1577,
      "Ġagain": 1578,
      "erc": 1579,
      "Ġpossible": 1580,
      "ivent": 1581,
      "man": 1582,
      "Ġindic": 1583,
      "Ġfur": 1584,
      "Ġhis": 1585,
      "Ġefforts": 1586,
      "oy": 1587,
      "Ġentrepr": 1588,
      "ule": 1589,
      "lect": 1590,
      "Ġconcernant": 1591,
      "ĠâĢľ": 1592,
      "Ġwithin": 1593,
      "Ġconform": 1594,
      "ning": 1595,
      "Ġpass": 1596,
      "Ã©li": 1597,
      "Ġair": 1598,
      "Ġdepart": 1599,
      "Ġavant": 1600,
      "ĠrÃ¨glement": 1601,
      "Ġsal": 1602,
      "Ġreview": 1603,
      "Ġrais": 1604,
      "Ġmodi": 1605,
      "Ġmission": 1606,
      "Ġocc": 1607,
      "urer": 1608,
      "tamment": 1609,
      "Ġbel": 1610,
      "Ġset": 1611,
      "ition": 1612,
      "ĠrÃ©sul": 1613,
      "Ġcoll": 1614,
      "fe": 1615,
      "Ġorder": 1616,
      "aines": 1617,
      "Ġproduits": 1618,
      "ici": 1619,
      "ĠsecrÃ©": 1620,
      "Ġrepresent": 1621,
      "Ġminist": 1622,
      "Ġ30": 1623,
      "Ġprovide": 1624,
      "12": 1625,
      "Ġstand": 1626,
      "Ġsite": 1627,
      "Ġyears": 1628,
      "Ġmaj": 1629,
      "ĠstratÃ©g": 1630,
      "Ġaction": 1631,
      "Ġtoutes": 1632,
      "Ġworld": 1633,
      "Åĵ": 1634,
      "Ġpopulation": 1635,
      "Ã¹": 1636,
      "uses": 1637,
      "ased": 1638,
      "Ġstrateg": 1639,
      "cem": 1640,
      "Ġbl": 1641,
      "Ġenf": 1642,
      "Ġcel": 1643,
      "ode": 1644,
      "tric": 1645,
      "old": 1646,
      "Ġyour": 1647,
      "wn": 1648,
      ".,": 1649,
      "Ã©ra": 1650,
      "âĢĿ": 1651,
      "ĠlÃ©g": 1652,
      "Ġfemmes": 1653,
      "voir": 1654,
      "Ġrespect": 1655,
      "Ġfinanci": 1656,
      "ples": 1657,
      "Ġaddition": 1658,
      "ays": 1659,
      "Ġmul": 1660,
      "Ġtrib": 1661,
      "Ġess": 1662,
      "13": 1663,
      "Ġche": 1664,
      "Ġtax": 1665,
      "tien": 1666,
      "Ã©lior": 1667,
      "omme": 1668,
      "Ġmembers": 1669,
      "Ġutilis": 1670,
      "ss": 1671,
      "lection": 1672,
      "Ġ16": 1673,
      "Ġrecommend": 1674,
      "vi": 1675,
      "Ġbus": 1676,
      "Ġ2008": 1677,
      "ĠoÃ¹": 1678,
      "Ġperi": 1679,
      "iness": 1680,
      "Ġbudget": 1681,
      "ole": 1682,
      "Ġtrain": 1683,
      "isme": 1684,
      "Ġgra": 1685,
      "Ġindivid": 1686,
      "Ġban": 1687,
      "Ġexem": 1688,
      "ount": 1689,
      "Ġend": 1690,
      "Ġappropri": 1691,
      "Ġperiod": 1692,
      "aiss": 1693,
      "Ġduring": 1694,
      "Ġjur": 1695,
      "ules": 1696,
      "Ġbu": 1697,
      "Ġpolitiques": 1698,
      "tÃ©s": 1699,
      "Ġprovision": 1700,
      "Ġpeuvent": 1701,
      "Ġimpro": 1702,
      "Ġselon": 1703,
      "rÃª": 1704,
      "Ġenti": 1705,
      "Ġtable": 1706,
      "Ġfollowing": 1707,
      "Ġbes": 1708,
      "Ġmost": 1709,
      "Ġbase": 1710,
      "Ġapplication": 1711,
      "Ġfinancial": 1712,
      "Ġchildren": 1713,
      "ful": 1714,
      "az": 1715,
      "Ġniveau": 1716,
      "Ġgrand": 1717,
      "very": 1718,
      "Ġrenseign": 1719,
      "mission": 1720,
      "Ġ198": 1721,
      "ffic": 1722,
      "Ġans": 1723,
      "ry": 1724,
      "Ġjour": 1725,
      "ĠpÃ©ri": 1726,
      "ether": 1727,
      "Ġresources": 1728,
      "Ġsep": 1729,
      "gen": 1730,
      "Ġeffic": 1731,
      "Ã©tat": 1732,
      "Ġinstru": 1733,
      "eur": 1734,
      "ĠgÃ©nÃ©rale": 1735,
      "Ġoblig": 1736,
      "Ġpersonnel": 1737,
      "Ġprofession": 1738,
      "ĠrÃ©al": 1739,
      "Ġdep": 1740,
      "Ġnature": 1741,
      "Ġcha": 1742,
      "ches": 1743,
      "ties": 1744,
      "Ġbureau": 1745,
      "--": 1746,
      "Ġnotamment": 1747,
      "Ġinstitutions": 1748,
      "Ġdocuments": 1749,
      "Ġparagraphe": 1750,
      "Ġregard": 1751,
      "Ġproduction": 1752,
      "Ġimplementation": 1753,
      "Ġtrois": 1754,
      "io": 1755,
      "Ġdiv": 1756,
      "ateur": 1757,
      "Ġmoins": 1758,
      "Ġconta": 1759,
      "Ġassess": 1760,
      "Ġ17": 1761,
      "intÃ©": 1762,
      "Ġglob": 1763,
      "Ġunivers": 1764,
      "Ġdoivent": 1765,
      "Ġful": 1766,
      "Ġimm": 1767,
      "Ġcommunau": 1768,
      "vement": 1769,
      "Ã´t": 1770,
      "Ġopp": 1771,
      "ger": 1772,
      "iel": 1773,
      "Ġbesoin": 1774,
      "Ġprocessus": 1775,
      "mit": 1776,
      "Ġissues": 1777,
      "Ġfurther": 1778,
      "Ã©v": 1779,
      "Åĵu": 1780,
      "igr": 1781,
      "Ġagainst": 1782,
      "ok": 1783,
      "ĠdÃ©b": 1784,
      "Ġgar": 1785,
      "Ġcomb": 1786,
      "Ġaccess": 1787,
      "Ġpouv": 1788,
      "igin": 1789,
      "Ġdata": 1790,
      "Ġdiscus": 1791,
      "su": 1792,
      "sions": 1793,
      "ĠdiffÃ©r": 1794,
      "Ġoffice": 1795,
      "Ġassembl": 1796,
      "eau": 1797,
      "Ġthem": 1798,
      "Ġprogr": 1799,
      "Ġinternationale": 1800,
      "Ġknow": 1801,
      "Ġavail": 1802,
      "Ġpresent": 1803,
      "Ġgro": 1804,
      "Ġpai": 1805,
      "199": 1806,
      "Ġrep": 1807,
      "ario": 1808,
      "Ġke": 1809,
      "lear": 1810,
      "ible": 1811,
      "Ġenfants": 1812,
      "Ġcountry": 1813,
      "Ġcollec": 1814,
      "issement": 1815,
      "Ġdern": 1816,
      "Ġrespon": 1817,
      "Ġparticipation": 1818,
      "Ġbusiness": 1819,
      "Ġher": 1820,
      "Ġfed": 1821,
      "Ġtribun": 1822,
      "Ġused": 1823,
      "Ġrefer": 1824,
      "ĠÃ©tu": 1825,
      "ĠÃ©tait": 1826,
      "50": 1827,
      "Ġdivers": 1828,
      "inter": 1829,
      "graph": 1830,
      "Ġperson": 1831,
      "uel": 1832,
      "Ġeach": 1833,
      "ident": 1834,
      "Ġve": 1835,
      "Ġcurr": 1836,
      "ever": 1837,
      "ized": 1838,
      "Ġmondi": 1839,
      "Ġrecommand": 1840,
      "coura": 1841,
      "Ġpur": 1842,
      "Ġprac": 1843,
      "emble": 1844,
      "co": 1845,
      "Ġmeasures": 1846,
      "Ġsurve": 1847,
      "entes": 1848,
      "Ġculture": 1849,
      "orte": 1850,
      ");": 1851,
      "Ġfamil": 1852,
      "aff": 1853,
      "ires": 1854,
      "Ġrenseignements": 1855,
      "Ġworking": 1856,
      "Ġcr": 1857,
      "itation": 1858,
      "aboration": 1859,
      "red": 1860,
      "Ġgood": 1861,
      "Ġpat": 1862,
      "Ġlab": 1863,
      "Ġensure": 1864,
      "ism": 1865,
      "Ġrequest": 1866,
      "Ġboth": 1867,
      "Ġpa": 1868,
      "ĠdÃ©f": 1869,
      "Ġprovided": 1870,
      "util": 1871,
      "Ġformation": 1872,
      "Ġcanadi": 1873,
      "Ġweb": 1874,
      "Ġautor": 1875,
      "ude": 1876,
      "Ġvue": 1877,
      "mar": 1878,
      "ĠspÃ©cial": 1879,
      "Ġprobl": 1880,
      "Ġaddress": 1881,
      "Ġmand": 1882,
      "Ġsecond": 1883,
      "Ġlead": 1884,
      "Ġcould": 1885,
      "af": 1886,
      "Ġproject": 1887,
      "Ġresolution": 1888,
      "Ġach": 1889,
      "Ġdiffer": 1890,
      "Ġannex": 1891,
      "Ġcam": 1892,
      "homme": 1893,
      "Ġreven": 1894,
      "ĠprÃ©sident": 1895,
      "organisation": 1896,
      "Ġnote": 1897,
      "Ġwhat": 1898,
      "ĠaprÃ¨s": 1899,
      "ĠrÃ©sultats": 1900,
      "ĠeuropÃ©enne": 1901,
      "tionn": 1902,
      "Ġconc": 1903,
      "ĠfÃ©d": 1904,
      "Ġhowever": 1905,
      "Ġbeing": 1906,
      "Ġmajor": 1907,
      "ouver": 1908,
      "Ġresul": 1909,
      "Ġtex": 1910,
      "Ġrenfor": 1911,
      "Ġsen": 1912,
      "tiss": 1913,
      "tenir": 1914,
      "Ġur": 1915,
      "Ġrelations": 1916,
      "Ġcontro": 1917,
      "Ġsubst": 1918,
      "Ġcir": 1919,
      "Ġsin": 1920,
      "iÃ¨res": 1921,
      "reg": 1922,
      "Ġafter": 1923,
      "Ġdescri": 1924,
      "ains": 1925,
      "Ġtreat": 1926,
      "ĠrÃ©solution": 1927,
      "Ġconfer": 1928,
      "ĠrÃ©f": 1929,
      "Ġautre": 1930,
      "Ġtrade": 1931,
      "Ġbene": 1932,
      "ror": 1933,
      "ĠâĢĶ": 1934,
      "ctions": 1935,
      "Ġinves": 1936,
      "Ġtrait": 1937,
      "atis": 1938,
      "crimin": 1939,
      "Ġcase": 1940,
      "Ġdoll": 1941,
      "Ġrend": 1942,
      "Ġils": 1943,
      "ites": 1944,
      "Ġmany": 1945,
      "15": 1946,
      "gment": 1947,
      "sive": 1948,
      "ource": 1949,
      "ently": 1950,
      "ĠdÃ©fin": 1951,
      "ners": 1952,
      "Ġsex": 1953,
      "Ġnotre": 1954,
      "Ġvers": 1955,
      "exam": 1956,
      "ancement": 1957,
      "leg": 1958,
      "Åĵuvre": 1959,
      "truction": 1960,
      "gn": 1961,
      "Ġperform": 1962,
      "Ġboard": 1963,
      "Ġleg": 1964,
      "Ġidentif": 1965,
      "Ġple": 1966,
      "Ġavailable": 1967,
      "ĠÃ©conomique": 1968,
      "Ġobserv": 1969,
      "Ġ25": 1970,
      "alitÃ©": 1971,
      "envir": 1972,
      "Ġtraining": 1973,
      "Ġrelev": 1974,
      "Ġdou": 1975,
      "ub": 1976,
      "Ġenc": 1977,
      "enses": 1978,
      "Ġcontrol": 1979,
      "Ġret": 1980,
      "Ġregional": 1981,
      "ĠdÃ©c": 1982,
      "occ": 1983,
      "the": 1984,
      "ium": 1985,
      "Ġexpl": 1986,
      "30": 1987,
      "ĠdÃ©termin": 1988,
      "Ġeducation": 1989,
      "Ġtake": 1990,
      "Ġdisp": 1991,
      "Ġsecteur": 1992,
      "vem": 1993,
      "ĠministÃ¨re": 1994,
      "Ġlocal": 1995,
      "enn": 1996,
      "Ġjustice": 1997,
      "xim": 1998,
      "Ġci": 1999,
      "Ġchaque": 2000,
      "ĠcompÃ©": 2001,
      "Ġmake": 2002,
      "irm": 2003,
      "Ġ1999": 2004,
      "raient": 2005,
      "Ġcontinu": 2006,
      "Ġencoura": 2007,
      "tex": 2008,
      "Ġassembly": 2009,
      "off": 2010,
      "Ġforce": 2011,
      "Ġagreement": 2012,
      "Ġlet": 2013,
      "Ġstud": 2014,
      "cul": 2015,
      "Ġfonds": 2016,
      "Ġjan": 2017,
      "Ġinst": 2018,
      "Ġview": 2019,
      "Ġvie": 2020,
      "Ġcare": 2021,
      "Ġspecific": 2022,
      "ĠtrÃ¨s": 2023,
      "Ġseptem": 2024,
      "Ġareas": 2025,
      "Ġafric": 2026,
      "Ġsee": 2027,
      "Ġright": 2028,
      "Ġcentr": 2029,
      "mp": 2030,
      "bec": 2031,
      "Ġste": 2032,
      "ĠtÃ©l": 2033,
      "ocra": 2034,
      "Ġinterest": 2035,
      "Ġtemps": 2036,
      "ploi": 2037,
      "Ġx": 2038,
      "mis": 2039,
      "tt": 2040,
      "agn": 2041,
      "Ġbro": 2042,
      "Ġdesign": 2043,
      "Ġsera": 2044,
      "Ġassistance": 2045,
      "imin": 2046,
      "Ġ24": 2047,
      "arge": 2048,
      "Ġessenti": 2049,
      "Ġgre": 2050,
      "istra": 2051,
      "assembl": 2052,
      "la": 2053,
      "Ġtribunal": 2054,
      "ĠmÃ©d": 2055,
      "Ġoct": 2056,
      "ĠfaÃ§": 2057,
      "Ã©ch": 2058,
      "Ġvale": 2059,
      "Ġaid": 2060,
      "ĠcoopÃ©ration": 2061,
      "Ġaw": 2062,
      "Ġagric": 2063,
      "Ġvotre": 2064,
      "Ġlieu": 2065,
      "Ġmilit": 2066,
      "Ġproced": 2067,
      "own": 2068,
      "Ġfer": 2069,
      "hic": 2070,
      "Ġcourt": 2071,
      "iÃ©": 2072,
      "art": 2073,
      "be": 2074,
      "atif": 2075,
      "abilitÃ©": 2076,
      "ortun": 2077,
      "Ã©m": 2078,
      "Ġexp": 2079,
      "Ġstatis": 2080,
      "Ġtitre": 2081,
      "Ġsm": 2082,
      "Ġenvironment": 2083,
      "Ġarea": 2084,
      "Ġdiffic": 2085,
      "Ġpoin": 2086,
      "position": 2087,
      "Ġinvol": 2088,
      "ĠÃ©c": 2089,
      "Ġestim": 2090,
      "Ġdollars": 2091,
      "Ġcommunication": 2092,
      "vis": 2093,
      "islation": 2094,
      "Ġpu": 2095,
      "ause": 2096,
      "dic": 2097,
      "Ġgiv": 2098,
      "Ġparten": 2099,
      "ĠsociÃ©tÃ©": 2100,
      "pre": 2101,
      "he": 2102,
      "Ġfu": 2103,
      "sc": 2104,
      "Ġrad": 2105,
      "Ġcharg": 2106,
      "applic": 2107,
      "14": 2108,
      "Ġadministra": 2109,
      "ame": 2110,
      "Ġcertains": 2111,
      "iment": 2112,
      "ges": 2113,
      "ĠÃ©qu": 2114,
      "Ġindividual": 2115,
      "work": 2116,
      "Ġdepartment": 2117,
      "Ġlegal": 2118,
      "Ġmesure": 2119,
      "Ġcooperation": 2120,
      "Ġdistrib": 2121,
      "Ġlui": 2122,
      "Ġtype": 2123,
      "ect": 2124,
      "table": 2125,
      "ared": 2126,
      "Ġconsul": 2127,
      "Ġcontinue": 2128,
      "Ġprojets": 2129,
      "Ġorganizations": 2130,
      "Ġwhile": 2131,
      "Ġeffective": 2132,
      "Ãªtre": 2133,
      "ĠspÃ©ci": 2134,
      "Ġlic": 2135,
      "ization": 2136,
      "Ġsucc": 2137,
      "Ġpartners": 2138,
      "Ġminister": 2139,
      "ĠpÃ©riode": 2140,
      "ower": 2141,
      "unis": 2142,
      "Ġliv": 2143,
      "lu": 2144,
      "pose": 2145,
      "ĠÅĵuvre": 2146,
      "Ġdiscrimin": 2147,
      "Ġquel": 2148,
      "ability": 2149,
      "Ġbenef": 2150,
      "dies": 2151,
      "abit": 2152,
      "Ġcivil": 2153,
      "Ġaccep": 2154,
      "tron": 2155,
      "Ġunion": 2156,
      "Ġavait": 2157,
      "endant": 2158,
      "rieur": 2159,
      "Ġglobal": 2160,
      "ick": 2161,
      "Ġconference": 2162,
      "Ġhelp": 2163,
      "Ġ000": 2164,
      "Ġthree": 2165,
      "euro": 2166,
      "Ġcham": 2167,
      "Ġstaff": 2168,
      "Ġ21": 2169,
      "Ġund": 2170,
      "Ġfav": 2171,
      "âĢ¦": 2172,
      "ecess": 2173,
      "Ġavoir": 2174,
      "ieux": 2175,
      "application": 2176,
      "Ġcompan": 2177,
      "01": 2178,
      "Ġbar": 2179,
      "Ġorganization": 2180,
      "tegr": 2181,
      "Ġperman": 2182,
      "Ġ31": 2183,
      "Ġfederal": 2184,
      "Ġpeace": 2185,
      "usieurs": 2186,
      "Ġmarket": 2187,
      "Ġbefore": 2188,
      "ĠcoÃ»": 2189,
      "Ġdepuis": 2190,
      "Ġ22": 2191,
      "quer": 2192,
      "Ġmont": 2193,
      "Ġplusieurs": 2194,
      "Ġexamin": 2195,
      "atory": 2196,
      "Ġfig": 2197,
      "Ġvic": 2198,
      "Ġsignific": 2199,
      "gg": 2200,
      "day": 2201,
      "ultural": 2202,
      "ĠconformÃ©ment": 2203,
      "ength": 2204,
      "Ġsector": 2205,
      "Ġpen": 2206,
      "Ġsame": 2207,
      "Ã©valuation": 2208,
      "Ġposition": 2209,
      "Ġwater": 2210,
      "Ġcompris": 2211,
      "Ġvery": 2212,
      "Ġnovem": 2213,
      "Ġocto": 2214,
      "assemblÃ©e": 2215,
      "ĠfaÃ§on": 2216,
      "Ġdispositions": 2217,
      "Ġsince": 2218,
      "Ġauc": 2219,
      "Ġfact": 2220,
      "Ġcand": 2221,
      "ublic": 2222,
      "Ġcode": 2223,
      "ationaux": 2224,
      "Ġmis": 2225,
      "ute": 2226,
      "Ġsix": 2227,
      "Ġinde": 2228,
      "Ġnort": 2229,
      "vely": 2230,
      "Ġparty": 2231,
      "Ġprotoc": 2232,
      "Ã©ta": 2233,
      "ĠdÃ©m": 2234,
      "Ġproper": 2235,
      "Ġnos": 2236,
      "Ġpoli": 2237,
      "tenti": 2238,
      "Ġcontain": 2239,
      "Ġorganisations": 2240,
      "Ġmettre": 2241,
      "Ã©ro": 2242,
      "ellement": 2243,
      "Ġmater": 2244,
      "gc": 2245,
      "Ġinitiatives": 2246,
      "ield": 2247,
      "Ġenvironmental": 2248,
      "bility": 2249,
      "Ġallow": 2250,
      "Ġpersonne": 2251,
      "Ġcontex": 2252,
      "Ġguid": 2253,
      "Ġachie": 2254,
      "aim": 2255,
      "Ġexig": 2256,
      "venir": 2257,
      "Ġparticulier": 2258,
      "Ġbased": 2259,
      "oles": 2260,
      "Ġparli": 2261,
      "environnement": 2262,
      "Ġcandid": 2263,
      "Ġcommercial": 2264,
      "wa": 2265,
      "Ġexpr": 2266,
      "igne": 2267,
      "Ġpresident": 2268,
      "Ġdetermin": 2269,
      "Ġopportun": 2270,
      "ĠpremiÃ¨re": 2271,
      "ced": 2272,
      "atisf": 2273,
      "Ġnouveau": 2274,
      "Ġmy": 2275,
      "Ġcin": 2276,
      "Ġ23": 2277,
      "Ġanalys": 2278,
      "ception": 2279,
      "Ġdomaine": 2280,
      "Ġclient": 2281,
      "Ġrelative": 2282,
      "ĠconfÃ©rence": 2283,
      "Ġrequired": 2284,
      "Ġhist": 2285,
      "Ġtransfer": 2286,
      "Ġterror": 2287,
      "Ġmu": 2288,
      "Ġfil": 2289,
      "eric": 2290,
      "ories": 2291,
      "Ġchange": 2292,
      "Ġframe": 2293,
      "pes": 2294,
      "Ġfacilit": 2295,
      "Ġsum": 2296,
      "pa": 2297,
      "Ġfore": 2298,
      "Ġlist": 2299,
      "ras": 2300,
      "esse": 2301,
      "Ġnecess": 2302,
      "Ġpromotion": 2303,
      "Ġobjectifs": 2304,
      "Ġir": 2305,
      "Ġint": 2306,
      "yl": 2307,
      "ĠqualitÃ©": 2308,
      "Ġrelated": 2309,
      "Ġcos": 2310,
      "Ġpossibil": 2311,
      "Ġdraft": 2312,
      "lectron": 2313,
      "Ġsitu": 2314,
      "Ġclass": 2315,
      "ck": 2316,
      "Ġparlement": 2317,
      "hn": 2318,
      "Ġpris": 2319,
      "era": 2320,
      "Ġdevrait": 2321,
      "Ġtaux": 2322,
      "Ġpotenti": 2323,
      "Ġchap": 2324,
      "//": 2325,
      "nov": 2326,
      "Ġcomment": 2327,
      "Ġarm": 2328,
      "16": 2329,
      "ĠÃ©ch": 2330,
      "br": 2331,
      "Ġreconn": 2332,
      "Ġbre": 2333,
      "Ġear": 2334,
      "Ġparliament": 2335,
      "Ġencore": 2336,
      "Ãªte": 2337,
      "Ġproducts": 2338,
      "Ġintegr": 2339,
      "unic": 2340,
      "urn": 2341,
      "Ġcou": 2342,
      "Ġplans": 2343,
      "Ġland": 2344,
      "Ġfound": 2345,
      "Ġintro": 2346,
      "Ġrelevant": 2347,
      "Ġord": 2348,
      "till": 2349,
      "ize": 2350,
      "ĠmarchÃ©": 2351,
      "Ġsecretary": 2352,
      "Ġresults": 2353,
      "Ġsubjec": 2354,
      "ttp": 2355,
      "Ġpublique": 2356,
      "ĠbÃ©n": 2357,
      "yant": 2358,
      "Ġpendant": 2359,
      "ĠcontrÃ´le": 2360,
      "Ġproble": 2361,
      "Ġsatisf": 2362,
      "Ġagency": 2363,
      "ool": 2364,
      "Ġinclude": 2365,
      "Ġpage": 2366,
      "Ġsujet": 2367,
      "Ġentreprises": 2368,
      "Ġcop": 2369,
      "://": 2370,
      "Ġoffer": 2371,
      "Ġlog": 2372,
      "Ġdirection": 2373,
      "Ġbecause": 2374,
      "Ġmillion": 2375,
      "Ġappli": 2376,
      "gu": 2377,
      "Ġamong": 2378,
      "ĠannÃ©es": 2379,
      "Ġprinci": 2380,
      "Ġ|": 2381,
      "Ġhand": 2382,
      "Ġapproach": 2383,
      "Ġesp": 2384,
      "Ġfonctionn": 2385,
      "Ġnationale": 2386,
      "Ġframework": 2387,
      "ĠamÃ©lior": 2388,
      "truc": 2389,
      "oi": 2390,
      "Ġnouvelle": 2391,
      "ĠsecrÃ©taire": 2392,
      "enci": 2393,
      "25": 2394,
      "Ġprendre": 2395,
      "Ġtravaux": 2396,
      "ones": 2397,
      "rim": 2398,
      "ath": 2399,
      "ĠrÃ´le": 2400,
      "18": 2401,
      "trang": 2402,
      "cle": 2403,
      "Ġfre": 2404,
      "Ġrap": 2405,
      "ird": 2406,
      "erve": 2407,
      "Ġpolitical": 2408,
      "Ġceux": 2409,
      "ep": 2410,
      "Ġindustri": 2411,
      "Ġfois": 2412,
      "general": 2413,
      "fois": 2414,
      "Ġsubs": 2415,
      "Ġill": 2416,
      "urance": 2417,
      "ban": 2418,
      "Ġinvest": 2419,
      "place": 2420,
      "aide": 2421,
      "www": 2422,
      "Ġgrande": 2423,
      "ister": 2424,
      "Ġrou": 2425,
      "........": 2426,
      "Ġconclusion": 2427,
      "Ġaur": 2428,
      "Ġfood": 2429,
      "Ġ1998": 2430,
      "ouve": 2431,
      "ĠmÃ©th": 2432,
      "illes": 2433,
      "ask": 2434,
      "Ġjurid": 2435,
      "examen": 2436,
      "Ġgroupes": 2437,
      "omb": 2438,
      "Ġwithout": 2439,
      "Ġmoyen": 2440,
      "Ġorganismes": 2441,
      "Ġforces": 2442,
      "Ġrequirements": 2443,
      "Ġofficial": 2444,
      "Ġmodif": 2445,
      "Ġrapports": 2446,
      "ha": 2447,
      "unes": 2448,
      "Ġrole": 2449,
      "tivitÃ©": 2450,
      "Ġpolice": 2451,
      "Ġcela": 2452,
      "Ġdoes": 2453,
      "Ġindustry": 2454,
      "Ġdiscrimination": 2455,
      "Ġ28": 2456,
      "Ġown": 2457,
      "Ġfuture": 2458,
      "Ġparticipants": 2459,
      "Ġlarge": 2460,
      "quÃ©": 2461,
      "Ġcrit": 2462,
      "itor": 2463,
      "Ġexemple": 2464,
      "Ġpremier": 2465,
      "Ġlin": 2466,
      "Ġreceiv": 2467,
      "Ġviolence": 2468,
      "Ġrecord": 2469,
      "Ġpaix": 2470,
      "Ġanti": 2471,
      "ĠfÃ©dÃ©r": 2472,
      "ĠnÃ©g": 2473,
      "ality": 2474,
      "Ġgrow": 2475,
      "admin": 2476,
      "ification": 2477,
      "Ġsustain": 2478,
      "ommes": 2479,
      "Ġ26": 2480,
      "Ġii": 2481,
      "Ġfish": 2482,
      "oires": 2483,
      "Ġtant": 2484,
      "Ġnow": 2485,
      "iller": 2486,
      "Ġcrimin": 2487,
      "ĠdÃ©claration": 2488,
      "Ġregulations": 2489,
      "Ġcorpor": 2490,
      "Ġnouvelles": 2491,
      "Ġbasis": 2492,
      "Ġrepublic": 2493,
      "Ġsuppl": 2494,
      "ris": 2495,
      "Ġlangu": 2496,
      "Ġ100": 2497,
      "Ġpoints": 2498,
      "iance": 2499,
      "Ġcoordination": 2500,
      "Ġpeti": 2501,
      "ogn": 2502,
      "Ġcy": 2503,
      "Ġconduc": 2504,
      "sign": 2505,
      "Ġ/": 2506,
      "ĠdÃ©penses": 2507,
      "ĠÃ©n": 2508,
      "tation": 2509,
      "Ġvertu": 2510,
      "cs": 2511,
      "bilitÃ©": 2512,
      "Ġdonc": 2513,
      "Ġitem": 2514,
      "Ã©rations": 2515,
      "ticles": 2516,
      "Ġlike": 2517,
      "Ġministre": 2518,
      "onom": 2519,
      "iginal": 2520,
      "Ġissue": 2521,
      "Ġ27": 2522,
      "met": 2523,
      "Ġauto": 2524,
      "ublique": 2525,
      "Ġvisant": 2526,
      "Ġpersons": 2527,
      "Ġfinancement": 2528,
      "Ġdirective": 2529,
      "Ġdivision": 2530,
      "Ġhy": 2531,
      "rier": 2532,
      "ĠeuropÃ©en": 2533,
      "Ġrelatives": 2534,
      "02": 2535,
      "Ã©rer": 2536,
      "ĠmaniÃ¨re": 2537,
      "17": 2538,
      "vers": 2539,
      "Ġpor": 2540,
      "utilisation": 2541,
      "Ġoutre": 2542,
      "Ġtaken": 2543,
      "Ġaspec": 2544,
      "Ġcommerce": 2545,
      "Ġbuild": 2546,
      "Ã¯": 2547,
      "alog": 2548,
      "ograph": 2549,
      "Ġseu": 2550,
      "Ġclear": 2551,
      "Ġrecogn": 2552,
      "Ġayant": 2553,
      "Ġdeveloping": 2554,
      "tics": 2555,
      "ĠÃ©v": 2556,
      "Ġstrength": 2557,
      "lem": 2558,
      "ately": 2559,
      "Ġengag": 2560,
      "Ġexc": 2561,
      "Ġconcerne": 2562,
      "Ġcommon": 2563,
      "Ġdestin": 2564,
      "Ġgiven": 2565,
      "Ġnecessary": 2566,
      "Ġrisk": 2567,
      "Ġclim": 2568,
      "cement": 2569,
      "org": 2570,
      "Ġkey": 2571,
      "oms": 2572,
      "airs": 2573,
      "centr": 2574,
      "Ġappropriate": 2575,
      "Ġfinal": 2576,
      "ĠvÃ©ri": 2577,
      "Ġgroups": 2578,
      "Ġfoc": 2579,
      "Ġsuite": 2580,
      "Ġschool": 2581,
      "Ġenvironnement": 2582,
      "Ġneeds": 2583,
      "Ġsubmit": 2584,
      "uit": 2585,
      "Ġemploye": 2586,
      "03": 2587,
      "assi": 2588,
      "pt": 2589,
      "ouse": 2590,
      "Ġontario": 2591,
      "Ġprogress": 2592,
      "Ġsaf": 2593,
      "cembre": 2594,
      "Ġshe": 2595,
      "Ġpouvoir": 2596,
      "Ġclaim": 2597,
      "Ġ&": 2598,
      "Ġjusqu": 2599,
      "gl": 2600,
      "ervation": 2601,
      "ĠprÃ©sente": 2602,
      "aÃ®": 2603,
      "Ġ50": 2604,
      "Ġreas": 2605,
      "Ġcompar": 2606,
      "Ġsem": 2607,
      "Ġsmall": 2608,
      "inf": 2609,
      "Ġassessment": 2610,
      "Ġincrease": 2611,
      "ĠprocÃ©": 2612,
      "ventions": 2613,
      "Ġprojects": 2614,
      "Ġnord": 2615,
      "Ã©tabl": 2616,
      "oph": 2617,
      "Ġway": 2618,
      "Ġminim": 2619,
      "ock": 2620,
      "Ġsl": 2621,
      "Ġmil": 2622,
      "Ġbesoins": 2623,
      "tig": 2624,
      "Ġdeli": 2625,
      "Ġelles": 2626,
      "ceed": 2627,
      "Ġsystems": 2628,
      "Ġdefin": 2629,
      "eff": 2630,
      "Ġlorsque": 2631,
      "Ġsk": 2632,
      "aces": 2633,
      "isting": 2634,
      "Ġseront": 2635,
      "uf": 2636,
      "Ġcanadiens": 2637,
      "enda": 2638,
      "atifs": 2639,
      "ĠadoptÃ©": 2640,
      "Ġstruc": 2641,
      "Ġcontribution": 2642,
      "Ġreports": 2643,
      "valu": 2644,
      "Ġdeleg": 2645,
      "Ġfour": 2646,
      "ator": 2647,
      "Ġmonde": 2648,
      "Ġcurrent": 2649,
      "ness": 2650,
      "...": 2651,
      "ina": 2652,
      "Ġimpact": 2653,
      "Ġtest": 2654,
      "resp": 2655,
      "Ġquality": 2656,
      "Ġsavoir": 2657,
      "ĠreÃ§": 2658,
      "ĠrÃ©union": 2659,
      "Ġemployment": 2660,
      "Ġpopul": 2661,
      "sh": 2662,
      "tional": 2663,
      "isant": 2664,
      "ler": 2665,
      "emploi": 2666,
      "tification": 2667,
      "Ġsoient": 2668,
      "Ġcommunications": 2669,
      "Ġjud": 2670,
      "Ġmillions": 2671,
      "ĠconsÃ©qu": 2672,
      "Ġmainten": 2673,
      "ĠdÃ©lÃ©g": 2674,
      "24": 2675,
      "Ġaffaires": 2676,
      "Ġfind": 2677,
      "Ġfix": 2678,
      "Ġlut": 2679,
      "quelle": 2680,
      "Ġmeth": 2681,
      "Ġbri": 2682,
      "Ġprovisions": 2683,
      "ĠrÃ©pond": 2684,
      "Ġheld": 2685,
      "Ġestablished": 2686,
      "ime": 2687,
      "ordre": 2688,
      "04": 2689,
      "ĠcommunautÃ©": 2690,
      "ĠÃ©taient": 2691,
      "Ġlaquelle": 2692,
      "Ġcontributions": 2693,
      "Ġer": 2694,
      "Ġcanadienne": 2695,
      "Ġdifferent": 2696,
      "Ġdef": 2697,
      "Ġ29": 2698,
      "Ġwhether": 2699,
      "ĠbÃ©nÃ©": 2700,
      "Ġstructure": 2701,
      "Ġformul": 2702,
      "Ġhead": 2703,
      "Ġsever": 2704,
      "Ġexplo": 2705,
      "rÃªt": 2706,
      "iÃ©s": 2707,
      "Ġge": 2708,
      "Ġsuper": 2709,
      "ĠrÃ©du": 2710,
      "Ġadopted": 2711,
      "Ġfield": 2712,
      "Ġsignificant": 2713,
      "23": 2714,
      "Ġsud": 2715,
      "Ġcases": 2716,
      "Ġinformations": 2717,
      "ators": 2718,
      "Ġexport": 2719,
      "Ã©di": 2720,
      "Ġsafety": 2721,
      "yse": 2722,
      "Ġautoch": 2723,
      "Ġtherefore": 2724,
      "comm": 2725,
      "Ġcapital": 2726,
      "Ġfull": 2727,
      "Ġprograms": 2728,
      "ustri": 2729,
      "Ġmois": 2730,
      "import": 2731,
      "Ġperformance": 2732,
      "05": 2733,
      "Ġaugment": 2734,
      "isc": 2735,
      "Ġcapacity": 2736,
      "ening": 2737,
      "istan": 2738,
      "Ġconv": 2739,
      "Ġnat": 2740,
      "Ġsubject": 2741,
      "Ġcontact": 2742,
      "Ġproposed": 2743,
      "Ġmonitor": 2744,
      "2005": 2745,
      "ĠprÃ©par": 2746,
      "Ġeffectu": 2747,
      "Ġprom": 2748,
      "Ġliber": 2749,
      "Ġresponsibil": 2750,
      "onne": 2751,
      "omp": 2752,
      "Ġpoursu": 2753,
      "ĠproblÃ¨mes": 2754,
      "Ġcertaines": 2755,
      "Ġexist": 2756,
      "Ġcirc": 2757,
      "ĠprocÃ©d": 2758,
      "Ġtechnical": 2759,
      "accord": 2760,
      "Ġmeans": 2761,
      "ases": 2762,
      "Ġtradition": 2763,
      "Ġless": 2764,
      "avant": 2765,
      "cr": 2766,
      "Ġexcl": 2767,
      "Ġprofessionn": 2768,
      "sec": 2769,
      "vision": 2770,
      "Ġevery": 2771,
      "ane": 2772,
      "ĠdÃ©j": 2773,
      "Ġdecem": 2774,
      "ili": 2775,
      "Ġdecember": 2776,
      "Ġdeb": 2777,
      "Ġarticles": 2778,
      "Ġtechnology": 2779,
      "Ġsugg": 2780,
      "Ġvaleur": 2781,
      "Ġmulti": 2782,
      "Ġameric": 2783,
      "Ġaccordance": 2784,
      "no": 2785,
      "Ġprix": 2786,
      "ĠrÃ©publique": 2787,
      "uring": 2788,
      "Ġinitiative": 2789,
      "Ġenter": 2790,
      "ug": 2791,
      "pÃ©ri": 2792,
      "ercice": 2793,
      "Ġmaterial": 2794,
      "Ġtre": 2795,
      "Ġseulement": 2796,
      "ledge": 2797,
      "Ġbal": 2798,
      "Ġnouveaux": 2799,
      "administration": 2800,
      "âĢ¦âĢ¦": 2801,
      "Ġquat": 2802,
      "Ġsw": 2803,
      "tand": 2804,
      "Ġfacil": 2805,
      "ergy": 2806,
      "ying": 2807,
      "Ġtechnologies": 2808,
      "Ġobligations": 2809,
      "Ġhabit": 2810,
      "Ġcentral": 2811,
      "etwork": 2812,
      "Ġexpress": 2813,
      "Ġhttp": 2814,
      "ĠbÃ©nÃ©fic": 2815,
      "Ġsoul": 2816,
      "Ġaffec": 2817,
      "Ġprincipal": 2818,
      "Ġconten": 2819,
      "Ġcompe": 2820,
      "Ġsuff": 2821,
      "Ġnorm": 2822,
      "Ġforeign": 2823,
      "Ġpan": 2824,
      "issant": 2825,
      "Ġpolicies": 2826,
      "tawa": 2827,
      "Ġbeh": 2828,
      "Ġunders": 2829,
      "Ġacqu": 2830,
      "Ġdispon": 2831,
      "Ġjune": 2832,
      "Ġcho": 2833,
      "tition": 2834,
      "Ġ1997": 2835,
      "ĠnÃ©cessaire": 2836,
      "Ġfaut": 2837,
      "other": 2838,
      "ĠâĹ": 2839,
      "Ġfran": 2840,
      "ĠdÃ©s": 2841,
      "Ġday": 2842,
      "ah": 2843,
      "alogue": 2844,
      "rique": 2845,
      "Ġmigr": 2846,
      "Ã©ments": 2847,
      "Ġmonth": 2848,
      "Ġconnaiss": 2849,
      "Ġnetwork": 2850,
      "Ġimportance": 2851,
      "Ġsociety": 2852,
      "Ġmus": 2853,
      "Ġeven": 2854,
      "Ġlife": 2855,
      "26": 2856,
      "ĠrÃ©glement": 2857,
      "ls": 2858,
      "Ġpropri": 2859,
      "Ġresult": 2860,
      "accÃ¨s": 2861,
      "Ġaccoun": 2862,
      "aci": 2863,
      "encies": 2864,
      "Ġcompos": 2865,
      "Ġterme": 2866,
      "ĠmÃ©c": 2867,
      "29": 2868,
      "Ġbeau": 2869,
      "Ġhumanit": 2870,
      "Ġtour": 2871,
      "Ġexample": 2872,
      "respond": 2873,
      "Ġsources": 2874,
      "Ġaccount": 2875,
      "Ġni": 2876,
      "mi": 2877,
      "Ġsoutien": 2878,
      "Ġfavor": 2879,
      "Ġarr": 2880,
      "ĠÃ©tat": 2881,
      "Ġpap": 2882,
      "isse": 2883,
      "rc": 2884,
      "Ġtraitement": 2885,
      "Ġmethod": 2886,
      "Ġgaranti": 2887,
      "Ġvou": 2888,
      "quent": 2889,
      "vious": 2890,
      "Ġrappor": 2891,
      "issance": 2892,
      "rug": 2893,
      "istes": 2894,
      "Ġcorre": 2895,
      "europe": 2896,
      "esp": 2897,
      "Ġconsidered": 2898,
      "mary": 2899,
      "ĠprÃ©s": 2900,
      "Ġexpec": 2901,
      "ĠintÃ©gr": 2902,
      "ather": 2903,
      "Ġjou": 2904,
      "ĠdÃ©ta": 2905,
      "Ġtoutefois": 2906,
      "Ġrest": 2907,
      "ipe": 2908,
      "Ġavons": 2909,
      "agne": 2910,
      "anis": 2911,
      "Ġrules": 2912,
      "Ã©tu": 2913,
      "Ġcorrespond": 2914,
      "Ġmaxim": 2915,
      "Ġcosts": 2916,
      "Ġactions": 2917,
      "Ġjourn": 2918,
      "Ġagenda": 2919,
      "Ġconsultations": 2920,
      "Ġstandards": 2921,
      "Ġprest": 2922,
      "Ġcover": 2923,
      "Ġcontract": 2924,
      "Ġsaid": 2925,
      "Ġassociation": 2926,
      "tm": 2927,
      "pendant": 2928,
      "Ġfunding": 2929,
      "Ġatte": 2930,
      "Ġappar": 2931,
      "Ġvicti": 2932,
      "atic": 2933,
      "Ġfocus": 2934,
      "Ġmor": 2935,
      "ront": 2936,
      "Ġaut": 2937,
      "hen": 2938,
      "Ġstrategy": 2939,
      "Ġinternet": 2940,
      "ists": 2941,
      "enf": 2942,
      "Ġcause": 2943,
      "Ġcost": 2944,
      "Ġaspects": 2945,
      "Ġmontant": 2946,
      "2006": 2947,
      "Ġadj": 2948,
      "ward": 2949,
      "ender": 2950,
      "tariat": 2951,
      "ĠÃ©lev": 2952,
      "ĠâĹ¦": 2953,
      "Ġconcentr": 2954,
      "ious": 2955,
      "ĠsystÃ¨mes": 2956,
      "Ġmeille": 2957,
      "sp": 2958,
      "Ġconsomm": 2959,
      "Ġsuccess": 2960,
      "Ġsource": 2961,
      "tones": 2962,
      "jour": 2963,
      "Ġpartici": 2964,
      "Ġmoment": 2965,
      "isÃ©": 2966,
      "illet": 2967,
      "ron": 2968,
      "Ġvarious": 2969,
      "Ġlevels": 2970,
      "Ġsurveill": 2971,
      "nent": 2972,
      "forme": 2973,
      "Ġchez": 2974,
      "ised": 2975,
      "Ġ197": 2976,
      "alestin": 2977,
      "int": 2978,
      "Ġ,": 2979,
      "uly": 2980,
      "Ġcollaboration": 2981,
      "Ġaccording": 2982,
      "Ġpourrait": 2983,
      "Ġchall": 2984,
      "ensemble": 2985,
      "60": 2986,
      "Ġdid": 2987,
      "rent": 2988,
      "isÃ©s": 2989,
      "Ġamount": 2990,
      "identi": 2991,
      "Ġfamily": 2992,
      "elf": 2993,
      "ager": 2994,
      "Ġminor": 2995,
      "Ġproperty": 2996,
      "________________": 2997,
      "Ġdrug": 2998,
      "Ġannual": 2999,
      "ĠmatÃ©ri": 3000,
      "read": 3001,
      "Ġdon": 3002,
      "fications": 3003,
      "Ġnormes": 3004,
      "ides": 3005,
      "Ġ*": 3006,
      "plac": 3007,
      "ril": 3008,
      "Ġeffet": 3009,
      "Ġspe": 3010,
      "Ġenergy": 3011,
      "Ġimprove": 3012,
      "Ġcommunities": 3013,
      "Ġadditional": 3014,
      "Ġtur": 3015,
      "ĠannÃ©e": 3016,
      "Ġliste": 3017,
      "ĠÃ©tant": 3018,
      "Ã©ducation": 3019,
      "ĠdÃ©jÃł": 3020,
      "Ġauthority": 3021,
      "Ġprovides": 3022,
      "Ġraison": 3023,
      "Ġdirector": 3024,
      "Ġtran": 3025,
      "Ġdec": 3026,
      "Ġatta": 3027,
      "ĠstratÃ©gie": 3028,
      "tructure": 3029,
      "Ġsecretariat": 3030,
      "Ġback": 3031,
      "ĠsecrÃ©tariat": 3032,
      "Ġknowledge": 3033,
      "istre": 3034,
      "Ġdr": 3035,
      "ox": 3036,
      "Ġextra": 3037,
      "Ġpurs": 3038,
      "Ġpermanent": 3039,
      "Ġâĸ": 3040,
      "ĠÃ©trang": 3041,
      "iled": 3042,
      "Ġdeveloped": 3043,
      "Ã¨ne": 3044,
      "ĠrÃ©pons": 3045,
      "Ġinvestig": 3046,
      "Ġnav": 3047,
      "Ġhome": 3048,
      "tices": 3049,
      "ĠpÃ©n": 3050,
      "Ġterms": 3051,
      "Ġcelui": 3052,
      "Ġautochtones": 3053,
      "Ġaim": 3054,
      "Ġpalestin": 3055,
      "atique": 3056,
      "ĠconsidÃ©r": 3057,
      "Ġstudy": 3058,
      "Ġlast": 3059,
      "Ġoperations": 3060,
      "ctu": 3061,
      "Ġwar": 3062,
      "Ġsyn": 3063,
      "Ġcelle": 3064,
      "Ġtechniques": 3065,
      "Ġrecommandations": 3066,
      "Ġec": 3067,
      "Ġ1996": 3068,
      "line": 3069,
      "alf": 3070,
      "Ġinternationales": 3071,
      "Ġsimil": 3072,
      "Ġauthorities": 3073,
      "Ġconstruction": 3074,
      "Ġcall": 3075,
      "Ġev": 3076,
      "dure": 3077,
      "quel": 3078,
      "ĠparticuliÃ¨re": 3079,
      "22": 3080,
      "Ġreal": 3081,
      "Ġpratiques": 3082,
      "âĢĵ": 3083,
      "Ġversion": 3084,
      "ury": 3085,
      "Ġrecommendations": 3086,
      "Ġjeunes": 3087,
      "appro": 3088,
      "Ġfab": 3089,
      "ove": 3090,
      "Ġsein": 3091,
      "ĠÃ©g": 3092,
      "issent": 3093,
      "Ġbroad": 3094,
      "ustr": 3095,
      "employ": 3096,
      "Ġsau": 3097,
      "Ġadministrative": 3098,
      "06": 3099,
      "Ġcust": 3100,
      "Ġhot": 3101,
      "Ġusing": 3102,
      "Ġmme": 3103,
      "Ġoccup": 3104,
      "Ġrele": 3105,
      "Ġrepresentative": 3106,
      "2004": 3107,
      "Ġjo": 3108,
      "oss": 3109,
      "Ã©rie": 3110,
      "Ġcarri": 3111,
      "Ġgreat": 3112,
      "2007": 3113,
      "Ġarch": 3114,
      "Ġdeta": 3115,
      "Ġread": 3116,
      "ĠtraitÃ©": 3117,
      "Ġabs": 3118,
      "ĠrÃ©un": 3119,
      "Ġrate": 3120,
      "ibles": 3121,
      "Ġsites": 3122,
      "Ġinstruments": 3123,
      "Ġdue": 3124,
      "of": 3125,
      "Ġproduit": 3126,
      "asion": 3127,
      "Ġvalue": 3128,
      "Ġprovincial": 3129,
      "Ġmoder": 3130,
      "ked": 3131,
      "Ġmer": 3132,
      "aprÃ¨s": 3133,
      "Ġroy": 3134,
      "Ġconsultation": 3135,
      "Ġenh": 3136,
      "acy": 3137,
      "ume": 3138,
      "Ġaffairs": 3139,
      "Ġhaut": 3140,
      "Ġinnov": 3141,
      "ĠmÃ©dic": 3142,
      "asing": 3143,
      "Ġimpos": 3144,
      "dro": 3145,
      "Ġfins": 3146,
      "Ġdevraient": 3147,
      "occup": 3148,
      "Ġreceived": 3149,
      "ĠdÃ©cisions": 3150,
      "way": 3151,
      "tage": 3152,
      "rain": 3153,
      "Ġpost": 3154,
      "Ġlegislation": 3155,
      "ĠnÃ©cessaires": 3156,
      "Ġexec": 3157,
      "Ġsurveillance": 3158,
      "Ġpartnership": 3159,
      "Ġsoins": 3160,
      "uant": 3161,
      "Ġbet": 3162,
      "Ġmondiale": 3163,
      "Ġdialogue": 3164,
      "Ġstatus": 3165,
      "2003": 3166,
      "Ġcit": 3167,
      "Ġimpl": 3168,
      "Ġcondition": 3169,
      "hib": 3170,
      "ids": 3171,
      "Ġisra": 3172,
      "ĠprotÃ©": 3173,
      "Ġgoods": 3174,
      "Ġforum": 3175,
      "rÃ©e": 3176,
      "Ġexpos": 3177,
      "itable": 3178,
      "Ġprovince": 3179,
      "Ġdistribution": 3180,
      "ĠcrÃ©ation": 3181,
      "Ġabor": 3182,
      "Ġvig": 3183,
      "side": 3184,
      "Ġmars": 3185,
      "Ġshow": 3186,
      "Ġrepor": 3187,
      "ĠÃ©lÃ©ments": 3188,
      "2001": 3189,
      "ĠsupplÃ©ment": 3190,
      "Ġincreased": 3191,
      "Ġjuin": 3192,
      "Ġtel": 3193,
      "Ġabove": 3194,
      "Ġconsum": 3195,
      "industri": 3196,
      "lected": 3197,
      "iver": 3198,
      "Ġinstall": 3199,
      "Ġrenforcer": 3200,
      "Ġalors": 3201,
      "uve": 3202,
      "Ġfournir": 3203,
      "dÃ©": 3204,
      "27": 3205,
      "ueur": 3206,
      "Ġprivate": 3207,
      "tively": 3208,
      "amÃ©lior": 3209,
      "rastructure": 3210,
      "Ġattend": 3211,
      "Ġsustainable": 3212,
      "iation": 3213,
      "28": 3214,
      "Ġdurable": 3215,
      "Ġstru": 3216,
      "Ġtreaty": 3217,
      "Ġmoyens": 3218,
      "ĠauprÃ¨s": 3219,
      "Ġadministration": 3220,
      "aint": 3221,
      "Ġdescription": 3222,
      "ĠreprÃ©sentant": 3223,
      "Ġradio": 3224,
      "mon": 3225,
      "can": 3226,
      "Ġseptember": 3227,
      "Ġdos": 3228,
      "time": 3229,
      "eter": 3230,
      "Ġnet": 3231,
      "imp": 3232,
      "pril": 3233,
      "Ã©rique": 3234,
      "odes": 3235,
      "Ġrapporteur": 3236,
      "Ġmech": 3237,
      "Ġnorth": 3238,
      "arch": 3239,
      "Ġlib": 3240,
      "ĠopÃ©rations": 3241,
      "Ġappel": 3242,
      "ope": 3243,
      "ĠprocÃ©dure": 3244,
      "Ġcat": 3245,
      "ily": 3246,
      "Ġuniversity": 3247,
      "Ġbul": 3248,
      "Ġthird": 3249,
      "Ġincome": 3250,
      "dra": 3251,
      "inÃ©": 3252,
      "Ġseveral": 3253,
      "Ġthen": 3254,
      "Ġâĸª": 3255,
      "Ġhar": 3256,
      "ĠdonnÃ©": 3257,
      "Ġrisque": 3258,
      "Ġappe": 3259,
      "Ġara": 3260,
      "ience": 3261,
      "Ġproposition": 3262,
      "vidence": 3263,
      "Ġcalcul": 3264,
      "Ġcelles": 3265,
      "pres": 3266,
      "Ġrussi": 3267,
      "Ġlutte": 3268,
      "Ġ40": 3269,
      "Ġfrais": 3270,
      "vier": 3271,
      "Ġattention": 3272,
      "Ġchem": 3273,
      "hold": 3274,
      "Ġmontr": 3275,
      "40": 3276,
      "Ġevaluation": 3277,
      "Â°": 3278,
      "Ġcompany": 3279,
      "Ġunderstand": 3280,
      "Ġnu": 3281,
      "Ġbank": 3282,
      "----": 3283,
      "ght": 3284,
      "Ġactive": 3285,
      "Ġtenu": 3286,
      "cing": 3287,
      "63": 3288,
      "Ġprevious": 3289,
      "Ġface": 3290,
      "Ġconfl": 3291,
      "Ġclassi": 3292,
      "Ġdomaines": 3293,
      "Ġanim": 3294,
      "Ġot": 3295,
      "Ġprep": 3296,
      "Ġcultural": 3297,
      "ished": 3298,
      "Ġappr": 3299,
      "Ġclos": 3300,
      "Ġjoint": 3301,
      "lan": 3302,
      "tÃ©rie": 3303,
      "Ġanother": 3304,
      "ez": 3305,
      "rer": 3306,
      "Ġlit": 3307,
      "ior": 3308,
      "industrie": 3309,
      "utes": 3310,
      "leurs": 3311,
      "Ġanalysis": 3312,
      "ĠnÃ©goci": 3313,
      "Ġlear": 3314,
      "Ġtermin": 3315,
      "ĠcapacitÃ©": 3316,
      "Ã¨le": 3317,
      "po": 3318,
      "Ġregulation": 3319,
      "Ġapply": 3320,
      "Ġwww": 3321,
      "ĠdÃ©cembre": 3322,
      "Ġserait": 3323,
      "Ġtechnique": 3324,
      "annÃ©e": 3325,
      "Ġvote": 3326,
      "Ġvoir": 3327,
      "Ã©raux": 3328,
      "entrepr": 3329,
      "Ġorganisation": 3330,
      "ĠquÃ©": 3331,
      "Ġchanges": 3332,
      "exercice": 3333,
      "Ġmandat": 3334,
      "Ġcomplex": 3335,
      "urg": 3336,
      "Ġunderta": 3337,
      "Ġbil": 3338,
      "Ġlorsqu": 3339,
      "itiz": 3340,
      "Ġgaz": 3341,
      "Ġopin": 3342,
      "df": 3343,
      "Ġnex": 3344,
      "we": 3345,
      "Ġtari": 3346,
      "Ġcommuniqu": 3347,
      "ench": 3348,
      "ĠpÃª": 3349,
      "Ġcentres": 3350,
      "ices": 3351,
      "uary": 3352,
      "Ġcher": 3353,
      "Ġchair": 3354,
      "missions": 3355,
      "acitÃ©": 3356,
      "uk": 3357,
      "office": 3358,
      "Ġconflic": 3359,
      "Ġetc": 3360,
      "gin": 3361,
      "icro": 3362,
      "jours": 3363,
      "Ġmonitoring": 3364,
      "Ġavis": 3365,
      "Ġmalad": 3366,
      "va": 3367,
      "ma": 3368,
      "Ġeffets": 3369,
      "Ġefficace": 3370,
      "Ġgrowth": 3371,
      "ĠÃ£": 3372,
      "Ġsociale": 3373,
      "Ġparticularly": 3374,
      "Ġopen": 3375,
      "Ġdifficult": 3376,
      "yn": 3377,
      "come": 3378,
      "Ġdang": 3379,
      "Ġbest": 3380,
      "Ġjuly": 3381,
      "Ġtrava": 3382,
      "Ġbenefits": 3383,
      "Ġlarg": 3384,
      "ĠmÃ©di": 3385,
      "cÃ©": 3386,
      "Ġconcerning": 3387,
      "Ġhistor": 3388,
      "Ġdomes": 3389,
      "Ġrestric": 3390,
      "Ġdirecteur": 3391,
      "mer": 3392,
      "ctures": 3393,
      "wards": 3394,
      "Ġupon": 3395,
      "Ġmanuf": 3396,
      "Ġmaintain": 3397,
      "Ġincluded": 3398,
      "tivitÃ©s": 3399,
      "ĠrÃ©gions": 3400,
      "obs": 3401,
      "Ġapril": 3402,
      "Ġpertin": 3403,
      "Ġ2009": 3404,
      "Ġfree": 3405,
      "Ġmondial": 3406,
      "ĠÃ©conomiques": 3407,
      "prÃ©": 3408,
      "Ġincid": 3409,
      "ued": 3410,
      "ĠdÃ©pos": 3411,
      "tÃ©e": 3412,
      "utive": 3413,
      "Ġpermis": 3414,
      "objet": 3415,
      "tific": 3416,
      "duced": 3417,
      "unicip": 3418,
      "Ġdemocra": 3419,
      "Ġremain": 3420,
      "Ġtypes": 3421,
      "Ġassist": 3422,
      "ĠcoÃ»ts": 3423,
      "Ġdown": 3424,
      "Ġpuis": 3425,
      "und": 3426,
      "ipment": 3427,
      "Ġlimited": 3428,
      "Ġnatural": 3429,
      "21": 3430,
      "wh": 3431,
      "Ġassurer": 3432,
      "ira": 3433,
      "govern": 3434,
      "uss": 3435,
      "Ġoctober": 3436,
      "Ġexisting": 3437,
      "Ġplay": 3438,
      "Ġcharge": 3439,
      "Ġfrance": 3440,
      "Ġrevenu": 3441,
      "Ġcrime": 3442,
      "Ġnext": 3443,
      "Ġplanning": 3444,
      "ĠdÃ©mocra": 3445,
      "Ġresponse": 3446,
      "rir": 3447,
      "Ġbetter": 3448,
      "atoire": 3449,
      "Ġclients": 3450,
      "ols": 3451,
      "Ġguide": 3452,
      "Ġsing": 3453,
      "phone": 3454,
      "Ġage": 3455,
      "Ġexerc": 3456,
      "Ġpotential": 3457,
      "Ġgovernments": 3458,
      "Ġ1995": 3459,
      "Ġaj": 3460,
      "Ġmunicip": 3461,
      "Ġbelie": 3462,
      "Ġdel": 3463,
      ".)": 3464,
      "autre": 3465,
      "Ġ60": 3466,
      "mb": 3467,
      "Ġquatre": 3468,
      "order": 3469,
      "Ġobjectives": 3470,
      "Ġmieux": 3471,
      "bour": 3472,
      "Ġprincipes": 3473,
      "Ġhos": 3474,
      "vez": 3475,
      "cts": 3476,
      "Ã©laboration": 3477,
      "Ġmembre": 3478,
      "Ã¢ce": 3479,
      "ĠautoritÃ©s": 3480,
      "tie": 3481,
      "Ġidenti": 3482,
      "ĠcÃ´": 3483,
      "ĠdeuxiÃ¨me": 3484,
      "Ġcroissance": 3485,
      "Ġinvestment": 3486,
      "Ġseptembre": 3487,
      "Ġnovember": 3488,
      "Ġadap": 3489,
      "Ġforme": 3490,
      "ĠcatÃ©g": 3491,
      "Ġtreatment": 3492,
      "ĠreprÃ©sentants": 3493,
      "edi": 3494,
      "Ġleaders": 3495,
      "Ġprocedures": 3496,
      "2002": 3497,
      "Ġstill": 3498,
      "ĠprÃ©cÃ©d": 3499,
      "Ġrelig": 3500,
      "Ġresponsible": 3501,
      "ĠnumÃ©ro": 3502,
      "Ġpress": 3503,
      "intÃ©gr": 3504,
      "Ġsuivi": 3505,
      "Ġtoujours": 3506,
      "ĠrÃ¨gles": 3507,
      "olutions": 3508,
      "effic": 3509,
      "ĠgrÃ¢ce": 3510,
      "Ġprepar": 3511,
      "Ġottawa": 3512,
      "ĠprogrÃ¨s": 3513,
      "Ġconcerned": 3514,
      "Ġrisques": 3515,
      "Ġhere": 3516,
      "Ġnationales": 3517,
      "Ġcriminal": 3518,
      "Ġtranspar": 3519,
      "Ġproposal": 3520,
      "Ġdiscussion": 3521,
      "Ġpil": 3522,
      "Ġlabour": 3523,
      "Ġdemandes": 3524,
      "bo": 3525,
      "coup": 3526,
      "Ġsubmitted": 3527,
      "Ġjanuary": 3528,
      "Ġconj": 3529,
      "Ġaudit": 3530,
      "Ġagencies": 3531,
      "ĠsupÃ©": 3532,
      "07": 3533,
      "ological": 3534,
      "Ġven": 3535,
      "grÃ©": 3536,
      "Ġtend": 3537,
      "Ã¨te": 3538,
      "ĠspÃ©cif": 3539,
      "bed": 3540,
      "ĠquÃ©bec": 3541,
      "adop": 3542,
      "Ġcamp": 3543,
      "Ġheures": 3544,
      "Ġwel": 3545,
      "Ġemerg": 3546,
      "Ġjam": 3547,
      "Ġcitiz": 3548,
      "Ġfisc": 3549,
      "Ã©conom": 3550,
      "olid": 3551,
      "Ġtransi": 3552,
      "ĠindÃ©": 3553,
      "Ġlesqu": 3554,
      "lo": 3555,
      "):": 3556,
      "yer": 3557,
      "armon": 3558,
      "Ġms": 3559,
      "Ġnationaux": 3560,
      "Ġpractices": 3561,
      "ĠexÃ©c": 3562,
      "Ġline": 3563,
      "Ġdispos": 3564,
      "Ġconsideration": 3565,
      "Ġdeal": 3566,
      "Ġactivity": 3567,
      "Ã¨ces": 3568,
      "Ġpau": 3569,
      "itre": 3570,
      "Ã¨ve": 3571,
      "ĠrÃ©gime": 3572,
      "goti": 3573,
      "asse": 3574,
      "lin": 3575,
      "Ġvoy": 3576,
      "Ġreturn": 3577,
      "Ġequipment": 3578,
      "Ġ--": 3579,
      "explo": 3580,
      "Ġpower": 3581,
      "atiques": 3582,
      "sibles": 3583,
      "55": 3584,
      "Ġexperts": 3585,
      "Ġmeasure": 3586,
      "autor": 3587,
      "Ġleast": 3588,
      "Ġproduct": 3589,
      "ling": 3590,
      "ified": 3591,
      "Ã©gard": 3592,
      "Ġrespond": 3593,
      "Ġtravel": 3594,
      "jourd": 3595,
      "Ġzone": 3596,
      "Ġcependant": 3597,
      "Ġtop": 3598,
      "Ġbeaucoup": 3599,
      "lections": 3600,
      "Ġtor": 3601,
      "ody": 3602,
      "Ġfar": 3603,
      "hui": 3604,
      "ĠresponsabilitÃ©": 3605,
      "Ġreporting": 3606,
      "Ġpati": 3607,
      "cept": 3608,
      "Ġamendment": 3609,
      "Ġmai": 3610,
      "ouvoir": 3611,
      "urant": 3612,
      "Ġteam": 3613,
      "Ġacces": 3614,
      "ergie": 3615,
      "Ġmuch": 3616,
      "Ġprises": 3617,
      "lex": 3618,
      "Ġligne": 3619,
      "Ġpromote": 3620,
      "venant": 3621,
      "cn": 3622,
      "Ġfive": 3623,
      "hy": 3624,
      "Ġarri": 3625,
      "quÃªte": 3626,
      "ĠÃ©lectron": 3627,
      "Ġgouvernements": 3628,
      "istry": 3629,
      "Ġphase": 3630,
      "Ġaucune": 3631,
      "Ġ;": 3632,
      "Ġbill": 3633,
      "Ġconsist": 3634,
      "Ġnegoti": 3635,
      "ĠrÃ©seau": 3636,
      "Ġstatement": 3637,
      "osition": 3638,
      "2000": 3639,
      "ental": 3640,
      "Ġreform": 3641,
      "ĠprocÃ©dures": 3642,
      "ellectu": 3643,
      "Ġdonner": 3644,
      "Ġpersonal": 3645,
      "Ġcitoy": 3646,
      "change": 3647,
      "uelle": 3648,
      "Ġproblems": 3649,
      "ĠdÃ©terminer": 3650,
      "Ġreference": 3651,
      "oto": 3652,
      "wan": 3653,
      "assurer": 3654,
      "Ġlanguage": 3655,
      "bia": 3656,
      "Ġmilitary": 3657,
      "Ġadoption": 3658,
      "Ġreason": 3659,
      "Ġhotel": 3660,
      "Ġlicence": 3661,
      "Ġmess": 3662,
      "actions": 3663,
      "Ġarrang": 3664,
      "Ġstrategic": 3665,
      "stances": 3666,
      "ready": 3667,
      "Ġintellectu": 3668,
      "oit": 3669,
      "Ġprocedure": 3670,
      "Ġcommand": 3671,
      "Ġdecisions": 3672,
      "Ġcanadiennes": 3673,
      "annex": 3674,
      "Ġquanti": 3675,
      "aring": 3676,
      "Ã¡": 3677,
      "tient": 3678,
      "Ġhaving": 3679,
      "Ġvigueur": 3680,
      "Ġpromouvoir": 3681,
      "Ã©tÃ©s": 3682,
      "Ġmicro": 3683,
      "enting": 3684,
      "Ġindepend": 3685,
      "09": 3686,
      "Ġproviding": 3687,
      "57": 3688,
      "by": 3689,
      "ĠfranÃ§": 3690,
      "ĠprÃ©vention": 3691,
      "Ġjours": 3692,
      "berta": 3693,
      "Ġstrong": 3694,
      "Ġautom": 3695,
      "rou": 3696,
      "Ġcinq": 3697,
      "iquement": 3698,
      "Ġdit": 3699,
      "though": 3700,
      "ĠÃ©labor": 3701,
      "Ġlow": 3702,
      "elines": 3703,
      "Ġavaient": 3704,
      "Ġname": 3705,
      "Ġsubstances": 3706,
      "Ġalready": 3707,
      "Ġorigin": 3708,
      "Ġconfirm": 3709,
      "add": 3710,
      "Ġpopulations": 3711,
      "ends": 3712,
      "Ġeas": 3713,
      "Ġafrica": 3714,
      "Ġjust": 3715,
      "onu": 3716,
      "Ġed": 3717,
      "Ġsam": 3718,
      "dire": 3719,
      "Ġregarding": 3720,
      "67": 3721,
      "Ġinflu": 3722,
      "see": 3723,
      "Ġpi": 3724,
      "Ġdomestic": 3725,
      "59": 3726,
      "ology": 3727,
      "iner": 3728,
      "euvre": 3729,
      "Ġposte": 3730,
      ".\"": 3731,
      "not": 3732,
      "Ġaboriginal": 3733,
      "ienne": 3734,
      "Ġcanadians": 3735,
      "cles": 3736,
      "tÃ©es": 3737,
      "ze": 3738,
      "Ġ=": 3739,
      "Ġdisposition": 3740,
      "Ġalthough": 3741,
      "Ġfont": 3742,
      "Ġhouse": 3743,
      "Ġpurpose": 3744,
      "ĠÃ©tudi": 3745,
      "33": 3746,
      "Ġnoted": 3747,
      "Ġtarg": 3748,
      "Ġoffici": 3749,
      "dess": 3750,
      "Ġappu": 3751,
      "based": 3752,
      "vice": 3753,
      "Ġmort": 3754,
      "Ġbon": 3755,
      "Ġadvis": 3756,
      "Ġapplicable": 3757,
      "Ġpermettre": 3758,
      "Ġplu": 3759,
      "ĠemployÃ©s": 3760,
      "over": 3761,
      "ĠdiffÃ©rents": 3762,
      "Ġnombreux": 3763,
      "Ġpublication": 3764,
      "Ġsouth": 3765,
      "\".": 3766,
      "ics": 3767,
      "Ġaucun": 3768,
      "Ġmeetings": 3769,
      "thers": 3770,
      "Ġexperience": 3771,
      "ĠdÃ©fense": 3772,
      "Ġconclusions": 3773,
      "ĠproblÃ¨me": 3774,
      "Ġmeet": 3775,
      "Ġvehic": 3776,
      "08": 3777,
      "Ġproceed": 3778,
      "ĠrÃ©fÃ©rence": 3779,
      "dom": 3780,
      "lements": 3781,
      "Ġprovinces": 3782,
      "ĠamÃ©liorer": 3783,
      "Ġger": 3784,
      "Ġevidence": 3785,
      "ik": 3786,
      "Ġrepro": 3787,
      "Ġconstitution": 3788,
      "Ġannexe": 3789,
      "pression": 3790,
      "ief": 3791,
      "appel": 3792,
      "Ġfabric": 3793,
      "Ġsimilar": 3794,
      "institu": 3795,
      "Ã¨ge": 3796,
      "Ġangl": 3797,
      "Ġsais": 3798,
      "ival": 3799,
      "tle": 3800,
      "less": 3801,
      "ĠrÃ©par": 3802,
      "Ġexigences": 3803,
      "Ġperspec": 3804,
      "view": 3805,
      "uÃ©": 3806,
      "Ġtermes": 3807,
      "Ġgender": 3808,
      "Ġcontext": 3809,
      "Ġmedia": 3810,
      "Ġsouvent": 3811,
      "eth": 3812,
      "Ġiii": 3813,
      "Ġcell": 3814,
      "nement": 3815,
      "Ġprinciples": 3816,
      "abl": 3817,
      "ĠfÃ©": 3818,
      "Ġcourse": 3819,
      "Ġobtain": 3820,
      "Ġnaturel": 3821,
      "appui": 3822,
      "Ġjap": 3823,
      "Ġchangements": 3824,
      "Ġscience": 3825,
      "99": 3826,
      "Ġsolution": 3827,
      "anal": 3828,
      "ither": 3829,
      "Ġjanvier": 3830,
      "ned": 3831,
      "Ġinspec": 3832,
      "Ġaltern": 3833,
      "veur": 3834,
      "Ġstandard": 3835,
      "Ġtog": 3836,
      "Ġemployees": 3837,
      "isÃ©es": 3838,
      "Ġhau": 3839,
      "iture": 3840,
      "Ġbuilding": 3841,
      "Ġwee": 3842,
      "pecial": 3843,
      "Ġavril": 3844,
      "Ġtels": 3845,
      "htm": 3846,
      "Ġreach": 3847,
      "acter": 3848,
      "Ġeffect": 3849,
      "Ġopportunities": 3850,
      "Ġtrouver": 3851,
      "Ġsolutions": 3852,
      "Ġtir": 3853,
      "erver": 3854,
      "Ġfamille": 3855,
      "58": 3856,
      "Ġstatut": 3857,
      "ĠrÃ©c": 3858,
      "Ġresponsibility": 3859,
      "Ġprevention": 3860,
      "ĠÃ©tudes": 3861,
      "Ġcaus": 3862,
      "Ġprob": 3863,
      "Ġnovembre": 3864,
      "Ġrapid": 3865,
      "ompl": 3866,
      "Ġenreg": 3867,
      "Ġred": 3868,
      "Ġpartenaires": 3869,
      "Ġincreasing": 3870,
      "Ġinvolved": 3871,
      "Ã©tablissement": 3872,
      "exÃ©c": 3873,
      "tissement": 3874,
      "Ġparmi": 3875,
      "Ġdeclar": 3876,
      "ueil": 3877,
      "Ġable": 3878,
      "Ġvir": 3879,
      "duce": 3880,
      "uter": 3881,
      "clÃ©": 3882,
      "ĠrÃ©sid": 3883,
      "Ġtogether": 3884,
      "Ġsecteurs": 3885,
      "Ġeffects": 3886,
      "isÃ©e": 3887,
      "Ġdelegation": 3888,
      "Ġhon": 3889,
      "avantage": 3890,
      "Ġbur": 3891,
      "ross": 3892,
      "Ġ1994": 3893,
      "Ġsens": 3894,
      "Ġrepresentatives": 3895,
      "Ġattrib": 3896,
      "Ġpercent": 3897,
      "ĠcapacitÃ©s": 3898,
      "gÃ©": 3899,
      "Ġgreater": 3900,
      "ĠfranÃ§ais": 3901,
      "Ġjuillet": 3902,
      "Ġorient": 3903,
      "Ġcontinuer": 3904,
      "Ġpartir": 3905,
      "agit": 3906,
      "Ġscientif": 3907,
      "active": 3908,
      "annexe": 3909,
      "osph": 3910,
      "Ġdistin": 3911,
      "Ġnam": 3912,
      "ĠmarchÃ©s": 3913,
      "bs": 3914,
      "Ġaliment": 3915,
      "Ġinternationaux": 3916,
      "Ġnotes": 3917,
      "Ġapplications": 3918,
      "Ã©hic": 3919,
      "indre": 3920,
      "Ġstudies": 3921,
      "ĠrÃ©duire": 3922,
      "anch": 3923,
      "bru": 3924,
      "aw": 3925,
      "Ġcombat": 3926,
      "Ġmac": 3927,
      "equ": 3928,
      "Ġrecent": 3929,
      "arian": 3930,
      "Ġroom": 3931,
      "Ġoctobre": 3932,
      "ette": 3933,
      "Ġrecours": 3934,
      "Ġfall": 3935,
      "positions": 3936,
      "Ġword": 3937,
      "Ġconsulta": 3938,
      "iÃ©e": 3939,
      "Ġasi": 3940,
      "cription": 3941,
      "Ġtableau": 3942,
      "Ġexamen": 3943,
      "Ġencourage": 3944,
      "Ġdevant": 3945,
      "Ġmaking": 3946,
      "orial": 3947,
      "Ġsport": 3948,
      "Ġtoday": 3949,
      "onto": 3950,
      "Ġsomm": 3951,
      "Ġmention": 3952,
      "Ġagreements": 3953,
      "ĠlÃ©gislation": 3954,
      "Ġadministr": 3955,
      "Ġconcurr": 3956,
      "Ġfunds": 3957,
      "tended": 3958,
      "Ġdossi": 3959,
      "Ġquar": 3960,
      "Ġposs": 3961,
      "Ġchalleng": 3962,
      "placement": 3963,
      "Ġsuivants": 3964,
      "Ġconven": 3965,
      "ĠfinanciÃ¨re": 3966,
      "term": 3967,
      "Ġaujourd": 3968,
      "actÃ©": 3969,
      "Ġmissions": 3970,
      "Ġq": 3971,
      "Ġprise": 3972,
      "Ġsoulign": 3973,
      "Ġtexte": 3974,
      "Ġaver": 3975,
      "ĠparticuliÃ¨rement": 3976,
      "tit": 3977,
      "pÃ©rience": 3978,
      "Ġtaking": 3979,
      "ĠdÃ©lÃ©gation": 3980,
      "ĠvÃ©hic": 3981,
      "Ġyoun": 3982,
      "ave": 3983,
      "Ġphys": 3984,
      "Ġps": 3985,
      "Ġunit": 3986,
      "Ġvan": 3987,
      "Ġquelques": 3988,
      "aÃ®tre": 3989,
      "Ġpaci": 3990,
      "Ġreported": 3991,
      "Ġcitizens": 3992,
      "Ġplein": 3993,
      "Ġactuellement": 3994,
      "Ġnuc": 3995,
      "ateral": 3996,
      "bruary": 3997,
      "Ġminimum": 3998,
      "eria": 3999,
      "Ġrule": 4000,
      "Ġbiens": 4001,
      "Ġpublications": 4002,
      "Ġrelating": 4003,
      "Ġcoordin": 4004,
      "Ġexecutive": 4005,
      "Ġchac": 4006,
      "Ġvul": 4007,
      "importance": 4008,
      "Ġpractice": 4009,
      "Ġdays": 4010,
      "ĠdurÃ©e": 4011,
      "Ġlois": 4012,
      "Ġcontexte": 4013,
      "ĠprÃ©occup": 4014,
      "ĠrÃ©duction": 4015,
      "hÃ©": 4016,
      "Ġamb": 4017,
      "titude": 4018,
      "Ġdise": 4019,
      "Ġpropor": 4020,
      "imination": 4021,
      "eux": 4022,
      "Ġobservations": 4023,
      "Ġguidelines": 4024,
      "Ġmedical": 4025,
      "Ġden": 4026,
      "Ã©vrier": 4027,
      "Ġproch": 4028,
      "Ġhold": 4029,
      "ĠÃ©gard": 4030,
      "Ġmatter": 4031,
      "Ġnation": 4032,
      "Ġniveaux": 4033,
      "Ġexpected": 4034,
      "Ġinternal": 4035,
      "Ã»t": 4036,
      "ĠintÃ©ress": 4037,
      "Ġzones": 4038,
      "Ã©ric": 4039,
      "nel": 4040,
      "Ġ1990": 4041,
      "orter": 4042,
      "Ġcompens": 4043,
      "Ġsent": 4044,
      "Ġground": 4045,
      "Ġtowards": 4046,
      "ĠsÃ©rie": 4047,
      "ĠlÃ©gisl": 4048,
      "Ġbenefit": 4049,
      "Ġplac": 4050,
      "pecially": 4051,
      "Ġconservation": 4052,
      "tish": 4053,
      "Ġterritoire": 4054,
      "ĠdÃ©bat": 4055,
      "ĠfÃ©dÃ©ral": 4056,
      "Ġouver": 4057,
      "isations": 4058,
      "Ġinfrastructure": 4059,
      "uni": 4060,
      "ĠpropriÃ©tÃ©": 4061,
      "let": 4062,
      "Ġdiscuss": 4063,
      "Ġdernier": 4064,
      "Ġbecome": 4065,
      "Ġobten": 4066,
      "doc": 4067,
      "Ġmarchand": 4068,
      "ged": 4069,
      "alitÃ©s": 4070,
      "Ġprincipe": 4071,
      "Ġrom": 4072,
      "Ġdecid": 4073,
      "Ġmanag": 4074,
      "Ġopinion": 4075,
      "Ã©rÃ©": 4076,
      "Ġfunction": 4077,
      "Ġpension": 4078,
      "49": 4079,
      "Ġplupart": 4080,
      "ĠopÃ©ration": 4081,
      "exper": 4082,
      "ĠrÃ©ponse": 4083,
      "31": 4084,
      "uels": 4085,
      "orpor": 4086,
      "Ġ35": 4087,
      "Ġisland": 4088,
      "Ġpriority": 4089,
      "Ġadress": 4090,
      "ĠaccÃ¨s": 4091,
      "ĠprÃª": 4092,
      "Ġagreed": 4093,
      "ĠnuclÃ©": 4094,
      "Ġplanification": 4095,
      "Ġrange": 4096,
      "Ġfut": 4097,
      "Ġmanufact": 4098,
      "Ġunique": 4099,
      "rehen": 4100,
      "45": 4101,
      "Ġrelation": 4102,
      "cide": 4103,
      "fr": 4104,
      "Ġgive": 4105,
      "voy": 4106,
      "Ġobtenir": 4107,
      "odi": 4108,
      "Ġprotocole": 4109,
      "Ġrural": 4110,
      "Ġalloc": 4111,
      "Ġimmigr": 4112,
      "Ġrecru": 4113,
      "Ġtouch": 4114,
      "Ġengl": 4115,
      "td": 4116,
      "avis": 4117,
      "Ġcondu": 4118,
      "\",": 4119,
      "Ġgas": 4120,
      "Ġstre": 4121,
      "Ġentit": 4122,
      "Ġpublics": 4123,
      "Ã©galitÃ©": 4124,
      "issements": 4125,
      "Ġmonths": 4126,
      "uge": 4127,
      "Ġtransf": 4128,
      "Ġcompanies": 4129,
      "Ġphy": 4130,
      "Ġcannot": 4131,
      "Ġshort": 4132,
      "Ġjournal": 4133,
      "Ġoeuvre": 4134,
      "Ġfrench": 4135,
      "Ġpratique": 4136,
      "ĠcrÃ©er": 4137,
      "Ġcolum": 4138,
      "Ġespecially": 4139,
      "ĠgÃ©": 4140,
      "Ġpositive": 4141,
      "Ġaider": 4142,
      "Ã©nergie": 4143,
      "Ġconflict": 4144,
      "Ġpoursuiv": 4145,
      "ension": 4146,
      "aj": 4147,
      "Ġearly": 4148,
      "Ġnuclear": 4149,
      "Ġput": 4150,
      "Ġremo": 4151,
      "ontario": 4152,
      "Ġyouth": 4153,
      "tine": 4154,
      "Ġemp": 4155,
      "Ġtempor": 4156,
      "itaires": 4157,
      "Ġfebruary": 4158,
      "euille": 4159,
      "Ġcomprehen": 4160,
      "Ġsan": 4161,
      "Ġidentified": 4162,
      "ghan": 4163,
      "47": 4164,
      "bit": 4165,
      "taires": 4166,
      "rÃªts": 4167,
      "Ġoften": 4168,
      "igine": 4169,
      "Ġindividuals": 4170,
      "dits": 4171,
      "ï¬": 4172,
      "ĠÃ¢": 4173,
      "37": 4174,
      "Ġital": 4175,
      "iles": 4176,
      "Ġculturel": 4177,
      "diction": 4178,
      "Ġacross": 4179,
      "Ġregular": 4180,
      "ĠsÃ©ance": 4181,
      "exÃ©cution": 4182,
      "Ġdurant": 4183,
      "Ġpursuant": 4184,
      "Ġprincipaux": 4185,
      "dis": 4186,
      "veness": 4187,
      "Ġconsolid": 4188,
      "gation": 4189,
      "face": 4190,
      "Ġrenforcement": 4191,
      "Ġmultil": 4192,
      "Ġmaintien": 4193,
      "Ġmodel": 4194,
      "Ġcommiss": 4195,
      "ĠÃ©valuation": 4196,
      "Ġaide": 4197,
      "poses": 4198,
      "Ġanglais": 4199,
      "iens": 4200,
      "Ġdavantage": 4201,
      "Ġcorporation": 4202,
      "ologie": 4203,
      "Ġcommen": 4204,
      "Ã¨ce": 4205,
      "amb": 4206,
      "Ġnormal": 4207,
      "initi": 4208,
      "ĠÂ»,": 4209,
      "aking": 4210,
      "lector": 4211,
      "ĠnÃ©cessitÃ©": 4212,
      "Ġcommissioner": 4213,
      "Ġyoung": 4214,
      "Ġpoll": 4215,
      "Ġthus": 4216,
      "Ġcn": 4217,
      "Ġmodern": 4218,
      "activitÃ©": 4219,
      "Ġfew": 4220,
      "tences": 4221,
      "Ġpurposes": 4222,
      "rel": 4223,
      "Ġfigure": 4224,
      "Ġexcell": 4225,
      "Ġachieve": 4226,
      "exploitation": 4227,
      "Ġ'": 4228,
      "Ġclin": 4229,
      "Ġspecies": 4230,
      "ĠvÃ©rification": 4231,
      "Ġenfor": 4232,
      "Ġsituations": 4233,
      "tors": 4234,
      "Ġconsac": 4235,
      "Ġsignal": 4236,
      "ĠmÃ©thodes": 4237,
      "Ġinstitute": 4238,
      "mun": 4239,
      "nels": 4240,
      "Ġmaximum": 4241,
      "agence": 4242,
      "48": 4243,
      "Ġfaveur": 4244,
      "ensus": 4245,
      "Ġothers": 4246,
      "2008": 4247,
      "Ġtransition": 4248,
      "ueill": 4249,
      "Ġappeal": 4250,
      "Ġwish": 4251,
      "Ġ<": 4252,
      "Ġcurrently": 4253,
      "Ġstrengthen": 4254,
      "Ġmilieu": 4255,
      "anced": 4256,
      "Ġproblem": 4257,
      "Ġtort": 4258,
      "Ġvos": 4259,
      "Ġcolomb": 4260,
      "Ġdim": 4261,
      "35": 4262,
      "Ġregister": 4263,
      "bu": 4264,
      "Ġsurvey": 4265,
      "Ġbritish": 4266,
      "Ġpourraient": 4267,
      "Ġcertific": 4268,
      "Ġtransform": 4269,
      "inÃ©a": 4270,
      "Ġlimit": 4271,
      "Ġgrant": 4272,
      "Ġaille": 4273,
      "Ġking": 4274,
      "Ġreferred": 4275,
      "Ġsociaux": 4276,
      "Ġsommes": 4277,
      "Ġhumaines": 4278,
      "Ġcompon": 4279,
      "Ġchapitre": 4280,
      "Ġsched": 4281,
      "38": 4282,
      "Ġelectron": 4283,
      "Ġira": 4284,
      "Ġprotocol": 4285,
      "ĠcompÃ©tences": 4286,
      "Ġenj": 4287,
      "Ġgene": 4288,
      "uns": 4289,
      "governmental": 4290,
      "Ġparticiper": 4291,
      "Ġbelow": 4292,
      "Ġtraffic": 4293,
      "Ġax": 4294,
      "Ġguar": 4295,
      "ĠrÃ©serve": 4296,
      "Ġworkers": 4297,
      "ĠrÃ©unions": 4298,
      "Ġindustrial": 4299,
      "Ġcarb": 4300,
      "amental": 4301,
      "askat": 4302,
      "Ġparce": 4303,
      "Ġofficer": 4304,
      "efficacitÃ©": 4305,
      "Ġpast": 4306,
      "Ġforms": 4307,
      "rid": 4308,
      ")(": 4309,
      "intÃ©rÃªt": 4310,
      "Ġrates": 4311,
      "Ġresponsabil": 4312,
      "ĠnÃ©": 4313,
      "Ġformer": 4314,
      "ĠprÃ©senter": 4315,
      "Ġcateg": 4316,
      "Ġrendement": 4317,
      "ĠprioritÃ©s": 4318,
      "Ġcross": 4319,
      "Ġprepared": 4320,
      "couver": 4321,
      "Ġaug": 4322,
      "Ġdiri": 4323,
      "Ġdiscussions": 4324,
      "39": 4325,
      "aison": 4326,
      "Ġbra": 4327,
      "Ġmaintenant": 4328,
      "Ġparents": 4329,
      "Ġfranc": 4330,
      "66": 4331,
      "Ġmobil": 4332,
      "Ġhigher": 4333,
      "ĠcompÃ©t": 4334,
      "Ġailleurs": 4335,
      "Ġtransports": 4336,
      "Ġincludes": 4337,
      "Ġagents": 4338,
      "raÃ®": 4339,
      "itaire": 4340,
      "Ġshare": 4341,
      "Ġvolon": 4342,
      "Ġcomprehensive": 4343,
      "Ġtoronto": 4344,
      "ana": 4345,
      "Ġdeclaration": 4346,
      "Ġchangement": 4347,
      "Ġaccompl": 4348,
      "Ġfonctions": 4349,
      "Ġseul": 4350,
      "ways": 4351,
      "Ġtechnologie": 4352,
      "Ġmid": 4353,
      "Ġexpend": 4354,
      "Ġethn": 4355,
      "Ġroad": 4356,
      "Ġapprouv": 4357,
      "ĠmatÃ©riel": 4358,
      "Ġcoordonn": 4359,
      "ĠrÃ©pondre": 4360,
      "Ġpostes": 4361,
      "Ġcivile": 4362,
      "objec": 4363,
      "Ġtelles": 4364,
      "Ġquant": 4365,
      "Ġjuridique": 4366,
      "Ġsuivant": 4367,
      "tir": 4368,
      "Ġdepend": 4369,
      "Ġ45": 4370,
      "Ġtenir": 4371,
      "ĠâĢ¨": 4372,
      "ritann": 4373,
      "Ġtext": 4374,
      "nelle": 4375,
      "clos": 4376,
      "ills": 4377,
      "ĠdiffÃ©rentes": 4378,
      "ink": 4379,
      "Ġfully": 4380,
      "Ġprotec": 4381,
      "Ġhommes": 4382,
      "Ġevent": 4383,
      "Ġoverall": 4384,
      "valuer": 4385,
      "ï¿": 4386,
      "ĠÂ´": 4387,
      "ï¿½": 4388,
      "verty": 4389,
      "Ġestablishment": 4390,
      "Ġimportante": 4391,
      "ĠtÃ©lÃ©": 4392,
      "Ġget": 4393,
      "Ġsuit": 4394,
      "lor": 4395,
      "Ġself": 4396,
      "Ġopportunity": 4397,
      "Ġassociated": 4398,
      "Ġprofessional": 4399,
      "ives": 4400,
      "Ġmarchandises": 4401,
      "ison": 4402,
      "Ġjudici": 4403,
      "Ġfacilities": 4404,
      "Ġharmon": 4405,
      "Ġfreed": 4406,
      "ĠdÃ©but": 4407,
      "ĠprÃ©sentÃ©": 4408,
      "Ġserious": 4409,
      "inves": 4410,
      "Ġmight": 4411,
      "Ġmad": 4412,
      "Ġjohn": 4413,
      "Ġenvis": 4414,
      "cra": 4415,
      "ched": 4416,
      "orient": 4417,
      "ĠpossibilitÃ©": 4418,
      "Ġbehalf": 4419,
      "oti": 4420,
      "ĠcaractÃ©": 4421,
      "utri": 4422,
      "ĠsÃ©lection": 4423,
      "Ġchef": 4424,
      "Ġcity": 4425,
      "inst": 4426,
      "aries": 4427,
      "Ġfisher": 4428,
      "oÃ»t": 4429,
      "itob": 4430,
      "Ġplain": 4431,
      "Ġcommitment": 4432,
      "Ġdipl": 4433,
      "Ġbodies": 4434,
      "ae": 4435,
      "Ġfif": 4436,
      "Ġcru": 4437,
      "pc": 4438,
      "onstr": 4439,
      "Ġinitial": 4440,
      "ĠdemandÃ©": 4441,
      "Ġic": 4442,
      "Ġquebec": 4443,
      "Ġfacteurs": 4444,
      "intention": 4445,
      "Ġrendre": 4446,
      "Ġhor": 4447,
      "sif": 4448,
      "Ġpreuve": 4449,
      "rant": 4450,
      "Ġfondament": 4451,
      "hr": 4452,
      "autÃ©s": 4453,
      "Ġchallenges": 4454,
      "uted": 4455,
      "Ġapproved": 4456,
      "ĠdÃ©sign": 4457,
      "Ġpoverty": 4458,
      "Ġneeded": 4459,
      "ĠcritÃ¨res": 4460,
      "Ġliens": 4461,
      "ering": 4462,
      "Ġrequested": 4463,
      "tiveness": 4464,
      "erre": 4465,
      "ĠsociÃ©tÃ©s": 4466,
      "Ġrelatifs": 4467,
      "Ġplease": 4468,
      "44": 4469,
      "orie": 4470,
      "Ġlign": 4471,
      "ĠrÃ©gul": 4472,
      "Ġcommerci": 4473,
      "men": 4474,
      "Ġrati": 4475,
      "appli": 4476,
      "Ġuntil": 4477,
      "Ġbonne": 4478,
      "pital": 4479,
      "Ġconnaissances": 4480,
      "Ġjuris": 4481,
      "Ġcf": 4482,
      "Ġlight": 4483,
      "Ġsuggest": 4484,
      "Ġmean": 4485,
      "Ġcommunautaire": 4486,
      "ych": 4487,
      "origine": 4488,
      "Ġpauvre": 4489,
      "Ġsimpl": 4490,
      "ustral": 4491,
      "Ġcontinued": 4492,
      "Ġsuivantes": 4493,
      "Ġmandate": 4494,
      "Ġobjective": 4495,
      "ĠfinanciÃ¨res": 4496,
      "Ġeconomy": 4497,
      "Ġcharacter": 4498,
      "bes": 4499,
      "Ġvaleurs": 4500,
      "Ġterm": 4501,
      "Ġpriorities": 4502,
      "ĠprÃ¨s": 4503,
      "rage": 4504,
      "Ġdiverses": 4505,
      "Ġlabor": 4506,
      "pers": 4507,
      "Ġexchange": 4508,
      "Ġfile": 4509,
      "cas": 4510,
      "Ġbasic": 4511,
      "Ã©al": 4512,
      "Ġincorpor": 4513,
      "tÃ©ri": 4514,
      "Ġtox": 4515,
      "Ĥ¬": 4516,
      "Ãªmes": 4517,
      "Ġrelationship": 4518,
      "ication": 4519,
      "iments": 4520,
      "Ġ37": 4521,
      "urent": 4522,
      "Ġlat": 4523,
      "Ġprevent": 4524,
      "ĠcoÃ»t": 4525,
      "oud": 4526,
      "61": 4527,
      "Ġstock": 4528,
      "onde": 4529,
      "itoba": 4530,
      "Ġporte": 4531,
      "Ġregions": 4532,
      "ĠindiquÃ©": 4533,
      "Ġapport": 4534,
      "Ġmodifications": 4535,
      "Ġresid": 4536,
      "Ġafrican": 4537,
      "Ġmanif": 4538,
      "cipl": 4539,
      "ĠfÃ©vrier": 4540,
      "phas": 4541,
      "Ġunderstanding": 4542,
      "Ġfinanciers": 4543,
      "ĠrÃ©v": 4544,
      "Ġmex": 4545,
      "ops": 4546,
      "ouest": 4547,
      "Ġtelle": 4548,
      "assurance": 4549,
      "Ġvoie": 4550,
      "aÃ¯": 4551,
      "Ġlik": 4552,
      "Ġspace": 4553,
      "Ġupd": 4554,
      "Ġlequel": 4555,
      "eness": 4556,
      "canad": 4557,
      "Ġphysi": 4558,
      "Ġtravailleurs": 4559,
      "Ġdimin": 4560,
      "Ġresource": 4561,
      "analyse": 4562,
      "Ġfri": 4563,
      "Ġterres": 4564,
      "Ġconstat": 4565,
      "Ġrich": 4566,
      "Ġscienti": 4567,
      "Ġlocation": 4568,
      "ĠpremiÃ¨res": 4569,
      "Ġdocumentation": 4570,
      "Ġbody": 4571,
      "ttes": 4572,
      "Ġpropositions": 4573,
      "Ġissued": 4574,
      "Ġsepar": 4575,
      "Ã©tude": 4576,
      "Ġpaid": 4577,
      "enseignement": 4578,
      "abilities": 4579,
      "Ġchois": 4580,
      "Ġcontained": 4581,
      "Ġprocure": 4582,
      "ications": 4583,
      "Ġide": 4584,
      "Ġfau": 4585,
      "acqu": 4586,
      "ptions": 4587,
      "Ġpros": 4588,
      "Ġvalid": 4589,
      "Ġeither": 4590,
      "Ġstar": 4591,
      "Ġyork": 4592,
      "Ġcontrat": 4593,
      "................": 4594,
      "Ġsingle": 4595,
      "Ġcont": 4596,
      "Ġreduction": 4597,
      "Ġrempl": 4598,
      "Ġrac": 4599,
      "ĠderniÃ¨re": 4600,
      "Ġsalle": 4601,
      "Ġemb": 4602,
      "Ġdelivery": 4603,
      "Ġconstitue": 4604,
      "88": 4605,
      "Ġaugust": 4606,
      "Ġlangues": 4607,
      "naire": 4608,
      "Ġpaper": 4609,
      "ĠpauvretÃ©": 4610,
      "Ġmas": 4611,
      "onnes": 4612,
      "fficient": 4613,
      "Ġaudi": 4614,
      "Ġministry": 4615,
      "âĢĶ": 4616,
      "ley": 4617,
      "Ġordin": 4618,
      "adoption": 4619,
      "ries": 4620,
      "Ġagriculture": 4621,
      "Ġstress": 4622,
      "Ġhiv": 4623,
      "ĠdÃ©cid": 4624,
      "ĠÃ©valu": 4625,
      "Ġsaskat": 4626,
      "car": 4627,
      "Ġdri": 4628,
      "Ġnotice": 4629,
      "fa": 4630,
      "ĠcommunautÃ©s": 4631,
      "Ġprocesses": 4632,
      "na": 4633,
      "izing": 4634,
      "ologiques": 4635,
      "56": 4636,
      "Ġarmes": 4637,
      "Ġemission": 4638,
      "sieur": 4639,
      "Ġproposals": 4640,
      "Â».": 4641,
      "Ġrefus": 4642,
      "Ġiv": 4643,
      "hern": 4644,
      "Ġdeme": 4645,
      "Ġinstrument": 4646,
      "Ġtes": 4647,
      "Ġcomplain": 4648,
      "Ġajou": 4649,
      "anci": 4650,
      "ĠmodÃ¨le": 4651,
      "Ġvisit": 4652,
      "ĠsÃ»": 4653,
      "roÃ®": 4654,
      "Ġlangue": 4655,
      "Ġsensibil": 4656,
      "Ġcredit": 4657,
      "Ġamendement": 4658,
      "Ġstatistics": 4659,
      "ĠliÃ©s": 4660,
      "ĠfÃ©lic": 4661,
      "Ġmonsieur": 4662,
      "Ġhim": 4663,
      "Ġcarry": 4664,
      "associ": 4665,
      "Ġcomplete": 4666,
      "Ġdistric": 4667,
      "Ġcompliance": 4668,
      "Ġdirectives": 4669,
      "Ġinsurance": 4670,
      "Ġwant": 4671,
      "ĠprivÃ©": 4672,
      "Ġeux": 4673,
      "Ġoperation": 4674,
      "ĠÃ©tabli": 4675,
      "Ġrelatif": 4676,
      "Ġvolun": 4677,
      "tile": 4678,
      "Ġmatters": 4679,
      "Ġdisponibles": 4680,
      "Ġul": 4681,
      "Ġinstitution": 4682,
      "Ġsciences": 4683,
      "Ġobsta": 4684,
      "Ġsurv": 4685,
      "Ġbanque": 4686,
      "36": 4687,
      "Ġbou": 4688,
      "Ġclaire": 4689,
      "lam": 4690,
      "Ġstrategies": 4691,
      "Ġ1993": 4692,
      "Ã©taire": 4693,
      "Ġgerman": 4694,
      "emn": 4695,
      "uration": 4696,
      "Ã©conomie": 4697,
      "anismes": 4698,
      "Ġcitoyens": 4699,
      "ĠliÃ©es": 4700,
      "Ġpresented": 4701,
      "ĠrÃ©gional": 4702,
      "Ġvit": 4703,
      "iennent": 4704,
      "Ġfactors": 4705,
      "ologique": 4706,
      "ĠpÃªche": 4707,
      "Ġenglish": 4708,
      "Ġcinqu": 4709,
      "Ġcond": 4710,
      "Ġdone": 4711,
      "ken": 4712,
      "Ġamerica": 4713,
      "Ġclimate": 4714,
      "Ġlac": 4715,
      "Ġdefence": 4716,
      "Ġber": 4717,
      "Ġportant": 4718,
      "orm": 4719,
      "Ġcarried": 4720,
      "Ġletter": 4721,
      "Ġemphas": 4722,
      "ĠrÃ©glementation": 4723,
      "eping": 4724,
      "Ġentitled": 4725,
      "titul": 4726,
      "Ġlack": 4727,
      "Ġviv": 4728,
      "Ġcollabor": 4729,
      "Ġmag": 4730,
      "Ġsaint": 4731,
      "Ġvolume": 4732,
      "Ġmach": 4733,
      "ically": 4734,
      "Ã¨de": 4735,
      "Ġvictimes": 4736,
      "Ġrequests": 4737,
      "site": 4738,
      "Ġviolations": 4739,
      "Ġcompetition": 4740,
      "Ġcontribuer": 4741,
      "Ġarrangements": 4742,
      "Ġforward": 4743,
      "ouvel": 4744,
      "Ġaverage": 4745,
      "Ġcriteria": 4746,
      "ĠmÃ©canismes": 4747,
      "Ġreduce": 4748,
      "abs": 4749,
      "itions": 4750,
      "Ġpubliques": 4751,
      "nelles": 4752,
      "Ġsuffis": 4753,
      "Ġhumanitarian": 4754,
      "Ġsupply": 4755,
      "Ġexpri": 4756,
      "ĠÂ».": 4757,
      "Ġessential": 4758,
      "enz": 4759,
      "ordin": 4760,
      "ĠaÃ©ri": 4761,
      "tag": 4762,
      "Ġsafe": 4763,
      "Ġlignes": 4764,
      "Ġgoals": 4765,
      "Ġclassification": 4766,
      "chewan": 4767,
      "ĠchargÃ©": 4768,
      "omes": 4769,
      "ĠministÃ¨res": 4770,
      "Ġ+": 4771,
      "quement": 4772,
      "Ġtrou": 4773,
      "ritannique": 4774,
      "Ġreconnaiss": 4775,
      "Ġmariti": 4776,
      "entreprise": 4777,
      "Ġnombreuses": 4778,
      "Ġintegrated": 4779,
      "34": 4780,
      "Ġscientific": 4781,
      "Ġstake": 4782,
      "ĠsupplÃ©mentaires": 4783,
      "ĠÃ©lectronique": 4784,
      "Ġadmis": 4785,
      "Ġalberta": 4786,
      "Ġgam": 4787,
      "Ġdirectement": 4788,
      "Ġcoh": 4789,
      "Ġcopy": 4790,
      "Ġcircum": 4791,
      "atures": 4792,
      "Ġpermettant": 4793,
      "ĠstratÃ©gique": 4794,
      "Ġbring": 4795,
      "Ã«": 4796,
      "ĠrÃ©alisation": 4797,
      "Ġterre": 4798,
      "Ġpropre": 4799,
      "ĠÃ©quip": 4800,
      "Ġoperational": 4801,
      "ĠstratÃ©gies": 4802,
      "Ġwest": 4803,
      "Ġisrael": 4804,
      "ĠdÃ©par": 4805,
      "Ġeduc": 4806,
      "Ġcontent": 4807,
      "ser": 4808,
      "Ġremar": 4809,
      "Ġcomprend": 4810,
      "Ġequal": 4811,
      "ĠderniÃ¨res": 4812,
      "ĠcaractÃ©ris": 4813,
      "Ġnorthern": 4814,
      "Ġsorte": 4815,
      "Ġ1992": 4816,
      "ĠreÃ§u": 4817,
      "tance": 4818,
      "Ġintroduction": 4819,
      "Ġoptions": 4820,
      "Ġriver": 4821,
      "Ġrencon": 4822,
      "Ġrefuge": 4823,
      "Ġinterven": 4824,
      "Ġville": 4825,
      "Ġappear": 4826,
      "iant": 4827,
      "Ġdemocratic": 4828,
      "Ġconver": 4829,
      "Ġcombin": 4830,
      "Ġonce": 4831,
      "Ġlanguages": 4832,
      "Ġsett": 4833,
      "ĪĴ": 4834,
      "Ġaddressed": 4835,
      "Ġdepartments": 4836,
      "Ġjoin": 4837,
      "Ġbat": 4838,
      "going": 4839,
      "iÃ©es": 4840,
      "Ġparc": 4841,
      "Ġrail": 4842,
      "Ġconcerns": 4843,
      "Ġadvisory": 4844,
      "rÃ©s": 4845,
      "Ġexiste": 4846,
      "oine": 4847,
      "Ġprogramm": 4848,
      "Ġconsequ": 4849,
      "ising": 4850,
      "Ġrappel": 4851,
      "Ġevents": 4852,
      "Ġmodification": 4853,
      "Ġtarget": 4854,
      "ĠÃ©tude": 4855,
      "Ġvice": 4856,
      "Ġretra": 4857,
      "Ġliving": 4858,
      "iff": 4859,
      "Ġlettre": 4860,
      "Ġsuccessful": 4861,
      "Ġoutil": 4862,
      "Ġprinciple": 4863,
      "ĠcontrÃ´": 4864,
      "Ġsearch": 4865,
      "Ġmaterials": 4866,
      "Ġjudg": 4867,
      "ĠÃ©vent": 4868,
      "Ġenregistr": 4869,
      "comes": 4870,
      "Ġemployee": 4871,
      "Ġmanitoba": 4872,
      "Ġcaract": 4873,
      "Ġexpressed": 4874,
      "ds": 4875,
      "Ġsat": 4876,
      "Ġapplied": 4877,
      "ju": 4878,
      "Ġeast": 4879,
      "Ġweap": 4880,
      "enfant": 4881,
      "Ġcherche": 4882,
      "gres": 4883,
      "Ġanalyse": 4884,
      "anges": 4885,
      "Ġcompet": 4886,
      "Ġdiver": 4887,
      "Ġsummary": 4888,
      "Ġdecl": 4889,
      "Ġstudents": 4890,
      "Ġleadership": 4891,
      "gar": 4892,
      "Ġelectronic": 4893,
      "Ġresponsable": 4894,
      "Ġsubsection": 4895,
      "Ġafghan": 4896,
      "Ġtal": 4897,
      "Ġmentionn": 4898,
      "tout": 4899,
      "itage": 4900,
      "adress": 4901,
      "univers": 4902,
      "Ġdemonstr": 4903,
      "1999": 4904,
      "Ġreste": 4905,
      "Ġphoto": 4906,
      "Ġgener": 4907,
      "bours": 4908,
      "Ġensemble": 4909,
      "aps": 4910,
      "Ġvill": 4911,
      "Ġsatisfaction": 4912,
      "Ġinj": 4913,
      "avoir": 4914,
      "Ġtorture": 4915,
      "Ġfaciliter": 4916,
      "Ġcomments": 4917,
      "Ġprovis": 4918,
      "ĠprotÃ©ger": 4919,
      "Ġdet": 4920,
      "lande": 4921,
      "estern": 4922,
      "Ġtransfert": 4923,
      "Ġavantages": 4924,
      "Ġ39": 4925,
      "Ġdeliver": 4926,
      "Ã´tel": 4927,
      "Ġcycle": 4928,
      "Ġdemander": 4929,
      "ĠcollectivitÃ©s": 4930,
      "Ġfonctionnement": 4931,
      "aments": 4932,
      "Ġvalues": 4933,
      "auteur": 4934,
      "ï¬ģ": 4935,
      "Ġaccords": 4936,
      "ruption": 4937,
      "Ġadequ": 4938,
      "ew": 4939,
      "Ġterrorisme": 4940,
      "Ġ?": 4941,
      "ĠpossibilitÃ©s": 4942,
      "Ġstructures": 4943,
      "Ġpanel": 4944,
      "Ġnear": 4945,
      "Ġsom": 4946,
      "Ġnutri": 4947,
      "Ġprend": 4948,
      "Ġbegin": 4949,
      "Ġjustif": 4950,
      "Ġ2010": 4951,
      "Ġsouh": 4952,
      "limin": 4953,
      "Ġaround": 4954,
      "Ġintitul": 4955,
      "Ġfinancing": 4956,
      "pol": 4957,
      "Ġlegisl": 4958,
      "ey": 4959,
      "rol": 4960,
      "Ġloss": 4961,
      "Ġdam": 4962,
      "Ġfaisant": 4963,
      "Ã©rences": 4964,
      "Ġfarm": 4965,
      "Ġsouhait": 4966,
      "Ġchapter": 4967,
      "ĠconsÃ©quent": 4968,
      "Ġapproval": 4969,
      "ĠmÃ©can": 4970,
      "Ġconduct": 4971,
      "holders": 4972,
      "ynam": 4973,
      "Ġidentify": 4974,
      "Ġ38": 4975,
      "Ġnews": 4976,
      "Ġprimary": 4977,
      "ĠdÃ©finition": 4978,
      "Ġproportion": 4979,
      "Ã©tait": 4980,
      "Ġindependent": 4981,
      "Ġchoix": 4982,
      "Ġ55": 4983,
      "Ġuk": 4984,
      "crit": 4985,
      "Ġtenue": 4986,
      "Ġfinancier": 4987,
      "Ġvente": 4988,
      "Ġindig": 4989,
      "Ġoffices": 4990,
      "Ġapproche": 4991,
      "Ġregulatory": 4992,
      "ĠlibertÃ©": 4993,
      "Ġdirectly": 4994,
      "Ġbienn": 4995,
      "Ġ34": 4996,
      "Ġvision": 4997,
      "Ġwhole": 4998,
      "oration": 4999,
      "Ġ48": 5000,
      "âĢ¦âĢ¦âĢ¦âĢ¦": 5001,
      "ĠtÃ¢": 5002,
      "Ġconducted": 5003,
      "areness": 5004,
      "Ġimportants": 5005,
      "ĠdÃ©lai": 5006,
      "Ġoutside": 5007,
      "Ġthroughout": 5008,
      "tier": 5009,
      "anda": 5010,
      "Ġexten": 5011,
      "Ġhydro": 5012,
      "ece": 5013,
      "year": 5014,
      "ĠÃ©nonc": 5015,
      "Ġtransportation": 5016,
      "aid": 5017,
      "Ġdetermine": 5018,
      "ĠdÃ¨s": 5019,
      "Ġ90": 5020,
      "jan": 5021,
      "Ġcollection": 5022,
      "ablement": 5023,
      "mÃ©": 5024,
      "ĠprÃ©sentation": 5025,
      "erves": 5026,
      "Ġsolid": 5027,
      "Ġmarine": 5028,
      "Ġoffre": 5029,
      "habit": 5030,
      "Ġpack": 5031,
      "intÃ©gration": 5032,
      "Ġforest": 5033,
      "Ġlaun": 5034,
      "afrique": 5035,
      "ung": 5036,
      "ĠtÃ©lÃ©c": 5037,
      "Ġcalled": 5038,
      "ĠamÃ©ric": 5039,
      "Ġutiliser": 5040,
      "ows": 5041,
      "jud": 5042,
      "Ġconsensus": 5043,
      "Ġfair": 5044,
      "ternal": 5045,
      "elling": 5046,
      "istrement": 5047,
      "ĠmatiÃ¨res": 5048,
      "lÃ©": 5049,
      "assistance": 5050,
      "ipo": 5051,
      "ĠmÃ©dias": 5052,
      "ĠÃ©levÃ©": 5053,
      "Ãªtes": 5054,
      "Ġobjectif": 5055,
      "Ġawareness": 5056,
      "ĠâĢĺ": 5057,
      "aille": 5058,
      "Ġ36": 5059,
      "ades": 5060,
      "Ġimmedi": 5061,
      "Ġaccomp": 5062,
      "initiative": 5063,
      "Ġteach": 5064,
      "Ġgrands": 5065,
      "Ġresta": 5066,
      "Ġatlan": 5067,
      "Ġconseils": 5068,
      "Ġvisite": 5069,
      "Ġtravaill": 5070,
      "Ġresponsables": 5071,
      "Ġpal": 5072,
      "ĠprÃ©voit": 5073,
      "97": 5074,
      "Ġrecommendation": 5075,
      "Ġfaible": 5076,
      "Ġrecommandation": 5077,
      "Ġ33": 5078,
      "Ġannoun": 5079,
      "Ġdrog": 5080,
      "itures": 5081,
      "ĠprÃ©sence": 5082,
      "Ġguerre": 5083,
      "Ġamendments": 5084,
      "Ġlikely": 5085,
      "program": 5086,
      "Ġcolumbia": 5087,
      "Ġyet": 5088,
      "Ġvoyage": 5089,
      "hol": 5090,
      "Ġ1991": 5091,
      "acte": 5092,
      "Ġapproxim": 5093,
      "Ġtask": 5094,
      "Ġweek": 5095,
      "Ġplut": 5096,
      "Ġterritory": 5097,
      "Ġamerican": 5098,
      "ĠÃ©missions": 5099,
      "Ġcontribu": 5100,
      "Ġhours": 5101,
      "enant": 5102,
      "Ġreceive": 5103,
      "aume": 5104,
      "tise": 5105,
      "Ġcustom": 5106,
      "ĠdÃ©taill": 5107,
      "Ġpsych": 5108,
      "Ġpatients": 5109,
      "Ġmutu": 5110,
      "ĠtroisiÃ¨me": 5111,
      "Ġcharter": 5112,
      "ommunic": 5113,
      "ĠÃ©tablissements": 5114,
      "Ġcreate": 5115,
      "Ġsaskatchewan": 5116,
      "Ġdiss": 5117,
      "Ġstatistiques": 5118,
      "Ġther": 5119,
      "Ġlower": 5120,
      "Ġdesigned": 5121,
      "Ġmethods": 5122,
      "acts": 5123,
      "lation": 5124,
      "Ġpermettra": 5125,
      "Ġsubstanti": 5126,
      "Ġcle": 5127,
      "Ġhous": 5128,
      "Ġpartenariat": 5129,
      "Ġprice": 5130,
      "Ġltd": 5131,
      "Ġurg": 5132,
      "rÃ©g": 5133,
      "tc": 5134,
      "Ġinterests": 5135,
      "Ġchim": 5136,
      "Ġlearning": 5137,
      "Ġvih": 5138,
      "Ã©chelle": 5139,
      "iii": 5140,
      "Ġfinance": 5141,
      ".-": 5142,
      "Ġfourniss": 5143,
      "urgence": 5144,
      "Ġfron": 5145,
      "ĠintÃ©rÃªts": 5146,
      "Ġsuppor": 5147,
      "ĠfrÃ©": 5148,
      "46": 5149,
      "Ġgrandes": 5150,
      "Ġdecided": 5151,
      "ĠlimitÃ©": 5152,
      "pir": 5153,
      "Ġevalu": 5154,
      "Ġalong": 5155,
      "Ġrather": 5156,
      "erci": 5157,
      "Ġmechanis": 5158,
      "ico": 5159,
      "ĠdÃ©cidÃ©": 5160,
      "Ġformat": 5161,
      "Ġregistration": 5162,
      "ably": 5163,
      "Ã©tique": 5164,
      "Ġcollective": 5165,
      "Ġpayment": 5166,
      "Ġ80": 5167,
      "Ġcome": 5168,
      "Ġstated": 5169,
      "Ġhandic": 5170,
      "Ġbrev": 5171,
      "elves": 5172,
      "ĠresponsabilitÃ©s": 5173,
      "Ġcontribute": 5174,
      "alinÃ©a": 5175,
      "incl": 5176,
      "thing": 5177,
      "Ġmechanisms": 5178,
      "Ġassociations": 5179,
      "Ġconflits": 5180,
      "gÃ©s": 5181,
      "zer": 5182,
      "uite": 5183,
      "Ġindicated": 5184,
      "Ġlake": 5185,
      "Ã©quipe": 5186,
      "Â»,": 5187,
      "Ġconnex": 5188,
      "Ġrelativement": 5189,
      "Ġweapons": 5190,
      "Ġworks": 5191,
      "ĠproposÃ©": 5192,
      "inc": 5193,
      "Ġclose": 5194,
      "Ġtrop": 5195,
      "Ġcommitted": 5196,
      "oid": 5197,
      "Ġcomptes": 5198,
      "Ġtele": 5199,
      "bi": 5200,
      "ash": 5201,
      "Ġlum": 5202,
      "Ġselection": 5203,
      "ĠdÃ©si": 5204,
      "naires": 5205,
      "bres": 5206,
      "ding": 5207,
      "Ġorganes": 5208,
      "90": 5209,
      "ĠdÃ©ch": 5210,
      "Ġconvient": 5211,
      "Ġcompleted": 5212,
      "ĠrÃ©fug": 5213,
      "ĠmÃ©thode": 5214,
      "Ġtot": 5215,
      "Ġexclusi": 5216,
      "roÃ®tre": 5217,
      "Ġdisclos": 5218,
      "Ġfonctionnaires": 5219,
      "uellement": 5220,
      "ĠprioritÃ©": 5221,
      "ya": 5222,
      "Ġsay": 5223,
      "ĠprÃ©vues": 5224,
      "Ġminutes": 5225,
      "Ġacquis": 5226,
      "Ġcompeti": 5227,
      "ĠindÃ©pend": 5228,
      "enous": 5229,
      "Ġquand": 5230,
      "ĠcatÃ©gorie": 5231,
      "Ġsubsi": 5232,
      "ĠcrÃ©dit": 5233,
      "98": 5234,
      "cepti": 5235,
      "oins": 5236,
      "bert": 5237,
      "Ġpropres": 5238,
      "aisse": 5239,
      "Ġiraq": 5240,
      "wick": 5241,
      "tissements": 5242,
      "Ġmou": 5243,
      "objectif": 5244,
      "Ġpharm": 5245,
      "Ġlaws": 5246,
      "32": 5247,
      "lementing": 5248,
      "Ġskills": 5249,
      "Ġparts": 5250,
      "mail": 5251,
      "Ġtoo": 5252,
      "Ġrespective": 5253,
      "Ã©taires": 5254,
      "Ġdonne": 5255,
      "Ġchina": 5256,
      "Ġbranch": 5257,
      "Ġconclud": 5258,
      "Ġpositions": 5259,
      "Ġsurface": 5260,
      "Ġtook": 5261,
      "Ġworksh": 5262,
      "Ġtimes": 5263,
      "uelles": 5264,
      "Ġcontamin": 5265,
      "Ġstatements": 5266,
      "Ġfiscal": 5267,
      "Ġelig": 5268,
      "amÃ©liorer": 5269,
      "ĠplutÃ´t": 5270,
      "ĠespÃ¨ces": 5271,
      "Ġconsultatif": 5272,
      "Ġjuridiques": 5273,
      "Ġgarantir": 5274,
      "Ġchemical": 5275,
      "Ġterritoires": 5276,
      "Ġpropose": 5277,
      "iency": 5278,
      "Ġenforcement": 5279,
      "Ġministers": 5280,
      "tÃ©rieur": 5281,
      "62": 5282,
      "Ġprotect": 5283,
      "ument": 5284,
      "Ġcapit": 5285,
      "ulaire": 5286,
      "Ġcontenu": 5287,
      "ĠsuccÃ¨s": 5288,
      "Ġenqu": 5289,
      "cad": 5290,
      "Ġargu": 5291,
      "Ġentend": 5292,
      "Ġwrit": 5293,
      "mosph": 5294,
      "Ġmoyenne": 5295,
      "hum": 5296,
      "Ġcentrale": 5297,
      "lectric": 5298,
      "Ġdynam": 5299,
      "Ġart": 5300,
      "Ġabil": 5301,
      "Ġsupported": 5302,
      "aÃ®t": 5303,
      "Ġ32": 5304,
      "Â¨": 5305,
      "Ġappoint": 5306,
      "experts": 5307,
      "Ġheritage": 5308,
      "ony": 5309,
      "enquÃªte": 5310,
      "Ġcra": 5311,
      "ĠconsidÃ©ra": 5312,
      "Ġ47": 5313,
      "Ġait": 5314,
      "row": 5315,
      "Ġenterpr": 5316,
      "Ġprim": 5317,
      "Ġconcept": 5318,
      "mement": 5319,
      "Ġelements": 5320,
      "amÃ©lioration": 5321,
      "Ġobligation": 5322,
      "Ġscol": 5323,
      "Ġinstallations": 5324,
      "Ġsembl": 5325,
      "Ġentreprise": 5326,
      "Ġtu": 5327,
      "Ġmontre": 5328,
      "Ġrecords": 5329,
      "dessus": 5330,
      "ĠdÃ©t": 5331,
      "tait": 5332,
      "Ġextent": 5333,
      "ennent": 5334,
      "ĠsupÃ©rie": 5335,
      "html": 5336,
      "Ġstation": 5337,
      "Ġexternal": 5338,
      "Ġformes": 5339,
      "Ġwestern": 5340,
      "affirm": 5341,
      "ica": 5342,
      "ĠrÃ©forme": 5343,
      "quoi": 5344,
      "inn": 5345,
      "Ġfaits": 5346,
      "Ġcolombie": 5347,
      "Ġlibre": 5348,
      "Ġengagements": 5349,
      "Ġauxqu": 5350,
      "Ġfundamental": 5351,
      "ĠmÃ©dec": 5352,
      "Ġintegration": 5353,
      "Ġtools": 5354,
      "ka": 5355,
      "Ġpeoples": 5356,
      "ĠnÃ©gociations": 5357,
      "Ġgouvernementales": 5358,
      "Ġpermit": 5359,
      "ĠfÃ©dÃ©rale": 5360,
      "Ġrenew": 5361,
      "Ġensuring": 5362,
      "Ġconcurrence": 5363,
      "Ġcommune": 5364,
      "Ġprescri": 5365,
      "ouverture": 5366,
      "Ġcircumstances": 5367,
      "Ġsurtout": 5368,
      "Ġmaladies": 5369,
      "Ġsuscepti": 5370,
      "icef": 5371,
      "Ġenfin": 5372,
      "Ġmc": 5373,
      "Ġmanner": 5374,
      "build": 5375,
      "atoires": 5376,
      "ĠÃ©tablir": 5377,
      "dc": 5378,
      "Ġfo": 5379,
      "**": 5380,
      "col": 5381,
      "Ġindiqu": 5382,
      "Ġsessions": 5383,
      "Ġmass": 5384,
      "41": 5385,
      "Ġministres": 5386,
      "imm": 5387,
      "198": 5388,
      "Ġsea": 5389,
      "Ġcub": 5390,
      "inde": 5391,
      "Ġmechan": 5392,
      "ĠentraÃ®": 5393,
      "Ġtiers": 5394,
      "Ġvise": 5395,
      "Ġaurait": 5396,
      "613": 5397,
      "Ġcongr": 5398,
      "68": 5399,
      "ĠdÃ©clarÃ©": 5400,
      "Ġindustries": 5401,
      "ĠaoÃ»t": 5402,
      "Ġconsommation": 5403,
      "tability": 5404,
      "95": 5405,
      "ĠutilisÃ©s": 5406,
      "Ġmaintenance": 5407,
      "Ġwind": 5408,
      "Ġpayments": 5409,
      "Ġnavig": 5410,
      "know": 5411,
      "ĠutilisÃ©": 5412,
      "Ġreasons": 5413,
      "Ġbelieve": 5414,
      "Ġclaims": 5415,
      "Ġconsent": 5416,
      "Ġtrouve": 5417,
      "Ġactual": 5418,
      "ibility": 5419,
      "Ġrejet": 5420,
      "Ġenable": 5421,
      "Ġinnovation": 5422,
      "Ġlocaux": 5423,
      "Ġlinks": 5424,
      "tÃ©rieure": 5425,
      "Ġitself": 5426,
      "Ġchamp": 5427,
      "Ġprohib": 5428,
      "Ġvoul": 5429,
      "Ġrecherches": 5430,
      "Ġpollution": 5431,
      "ored": 5432,
      "Ġsectors": 5433,
      "Ġpourquoi": 5434,
      "Ġimplementing": 5435,
      "Ġappend": 5436,
      "Ġhistory": 5437,
      "Ġoperating": 5438,
      "Ġthough": 5439,
      "bourg": 5440,
      "Ġinstitutional": 5441,
      "Ġpatrim": 5442,
      "Ġvra": 5443,
      "Ġspeak": 5444,
      "icit": 5445,
      "Ġense": 5446,
      "Ġprestations": 5447,
      "Ġconventions": 5448,
      "cell": 5449,
      "antill": 5450,
      "Ġdan": 5451,
      "Ġaqu": 5452,
      "ually": 5453,
      "Ġcounter": 5454,
      "trans": 5455,
      "Ġsimple": 5456,
      "Ġpurch": 5457,
      "Ġarbit": 5458,
      "Ġassign": 5459,
      "Ġimplemented": 5460,
      "ĠrÃ©mun": 5461,
      "Ġactuelle": 5462,
      "Ã¨rent": 5463,
      "amÃ©rique": 5464,
      "Ġfich": 5465,
      "gos": 5466,
      "ular": 5467,
      "Ġaustral": 5468,
      "Ġgenerally": 5469,
      "Ġcompagn": 5470,
      "ania": 5471,
      "comp": 5472,
      "Ġphysical": 5473,
      "Ġcrimes": 5474,
      "Ġcompensation": 5475,
      "Ġrembours": 5476,
      "enreg": 5477,
      "Ġdistrict": 5478,
      "Ġchacun": 5479,
      "Ġauton": 5480,
      "ĠprÃ©vu": 5481,
      "vant": 5482,
      "Ġdanger": 5483,
      "Ġnever": 5484,
      "ĠdÃ©partement": 5485,
      "Ġmarkets": 5486,
      "atÃ©r": 5487,
      "Ġfamilies": 5488,
      "Ġcandidats": 5489,
      "Ġrenouvel": 5490,
      "Ġmilli": 5491,
      "ote": 5492,
      "Ġdebate": 5493,
      "Ġofficers": 5494,
      "Ġacts": 5495,
      "Ġflex": 5496,
      "Ġang": 5497,
      "Ġknown": 5498,
      "Ġstrengthening": 5499,
      ",\"": 5500,
      "Ġprop": 5501,
      "Ġjob": 5502,
      "Ġdescribed": 5503,
      "unswick": 5504,
      "Ġwhy": 5505,
      "Ġ00": 5506,
      "cident": 5507,
      "Ġterritorial": 5508,
      "Ġchec": 5509,
      "Ġpark": 5510,
      "âĢĿ.": 5511,
      "Ġterrorism": 5512,
      "ĠcaractÃ¨re": 5513,
      "Ġbor": 5514,
      "Ġpublished": 5515,
      "Ġ70": 5516,
      "Ġtraditional": 5517,
      "ĠmontrÃ©al": 5518,
      "Ġdeath": 5519,
      "Ġfisheries": 5520,
      "related": 5521,
      "Ġsubstance": 5522,
      "Ġassum": 5523,
      "Ġbalance": 5524,
      "Ġconflit": 5525,
      "ĠrÃ©per": 5526,
      "Ġfort": 5527,
      "Ġaffected": 5528,
      "ĠimmÃ©di": 5529,
      "Ġindigenous": 5530,
      "Ġanci": 5531,
      "Ġviews": 5532,
      "Ġconsci": 5533,
      "Ġviolation": 5534,
      "Ġcommissaire": 5535,
      "Ġpromoting": 5536,
      "atta": 5537,
      "ĠrÃ¨glements": 5538,
      "Ġrecommended": 5539,
      "Ġprovisoire": 5540,
      "Ġsanc": 5541,
      "Ġexercise": 5542,
      "Ġstakeholders": 5543,
      "Ġresponsibilities": 5544,
      "Ġclearly": 5545,
      "hÃ©sion": 5546,
      "Ġdefined": 5547,
      "Ġhospital": 5548,
      "Ġmilitaire": 5549,
      "Ġqualif": 5550,
      "Ġcomprendre": 5551,
      "Ġroyaume": 5552,
      "isent": 5553,
      "Ġhandicap": 5554,
      "Ġinterne": 5555,
      "cting": 5556,
      "Ġinfec": 5557,
      "expÃ©rience": 5558,
      "Ġsteps": 5559,
      "77": 5560,
      "Ġenhance": 5561,
      "Ġlocated": 5562,
      "ĠspÃ©ciale": 5563,
      "ĠrÃ©gionaux": 5564,
      "Ġchambre": 5565,
      "rief": 5566,
      "effec": 5567,
      "Ġaliments": 5568,
      "inte": 5569,
      "mettre": 5570,
      "ĠrÃ©gionales": 5571,
      "ark": 5572,
      "Ġ500": 5573,
      "Ġmilitaires": 5574,
      "Ġscope": 5575,
      "ga": 5576,
      "Ġprestation": 5577,
      "augment": 5578,
      "iale": 5579,
      "Ġperspective": 5580,
      "inqu": 5581,
      "Ġveiller": 5582,
      "Ġrevenus": 5583,
      "Ġtent": 5584,
      "intern": 5585,
      "ĠtraitÃ©s": 5586,
      "trices": 5587,
      "Ġexpert": 5588,
      "ĠrÃ©d": 5589,
      "cus": 5590,
      "Ġsociales": 5591,
      "Ġpn": 5592,
      "ĠlÃł": 5593,
      "Ġkos": 5594,
      "eaux": 5595,
      "Ġnegotiations": 5596,
      "den": 5597,
      "cons": 5598,
      "ired": 5599,
      "Ġavez": 5600,
      "Ġterritories": 5601,
      "Ġcommentaires": 5602,
      "Ġdix": 5603,
      "Ġaura": 5604,
      "Ġchief": 5605,
      "ĠvÃ©hicules": 5606,
      "occasion": 5607,
      "ground": 5608,
      "Ġdevons": 5609,
      "Ġalleg": 5610,
      "Ġfavoriser": 5611,
      "Ġdated": 5612,
      "Ġsufficient": 5613,
      "Ġrequires": 5614,
      "Ġdetermined": 5615,
      "Ġenvoy": 5616,
      "ware": 5617,
      "Ġvia": 5618,
      "Ġsoumis": 5619,
      "most": 5620,
      "Ġfacilitate": 5621,
      "Ġetats": 5622,
      "Ġwat": 5623,
      "Ġemergency": 5624,
      "Ġproceedings": 5625,
      "Ġapplicant": 5626,
      "Ġconsistent": 5627,
      "Ġvacc": 5628,
      "adap": 5629,
      "100": 5630,
      "Ġoil": 5631,
      "vous": 5632,
      "wer": 5633,
      "ÃŃ": 5634,
      "Ġquelque": 5635,
      "Ġengine": 5636,
      "Ġenseign": 5637,
      "Ġmix": 5638,
      "Ġcreated": 5639,
      "Ġinqu": 5640,
      "investissement": 5641,
      "ipp": 5642,
      "Ã³": 5643,
      "vres": 5644,
      "Ġdomin": 5645,
      "ĠactivitÃ©": 5646,
      "Ġsubse": 5647,
      "Ġcris": 5648,
      "association": 5649,
      "Ġici": 5650,
      "Ġcancer": 5651,
      "Ġclairement": 5652,
      "fique": 5653,
      "Ġseries": 5654,
      "ariats": 5655,
      "bers": 5656,
      "Ġefficient": 5657,
      "Ã¨que": 5658,
      "building": 5659,
      "Ġraisons": 5660,
      "gÃ©es": 5661,
      "Ġadul": 5662,
      "Ġcritical": 5663,
      "Ġdefinition": 5664,
      "43": 5665,
      "entrÃ©e": 5666,
      "Ġarchives": 5667,
      "Ġarab": 5668,
      "Ġagricultural": 5669,
      "da": 5670,
      "Ġprosec": 5671,
      "Ġinformed": 5672,
      "Ġconsommateurs": 5673,
      "Ġdisease": 5674,
      "Ġmarque": 5675,
      "Ġoccasion": 5676,
      "raine": 5677,
      "Ġfail": 5678,
      "Ġvas": 5679,
      "Ġliqu": 5680,
      "ocks": 5681,
      "usse": 5682,
      "Ġcommitments": 5683,
      "britannique": 5684,
      "Ã¢ge": 5685,
      "Ġsommet": 5686,
      "Ġparticipate": 5687,
      "Ġroute": 5688,
      "Ġgreen": 5689,
      "Ġoriginal": 5690,
      "lique": 5691,
      "Ġdrugs": 5692,
      "Ġperf": 5693,
      "Ġlocales": 5694,
      "Ġthreat": 5695,
      "ĠdÃ©pend": 5696,
      "Ġcur": 5697,
      "anie": 5698,
      "Ġlegislative": 5699,
      "Ġintended": 5700,
      "Ġlook": 5701,
      "agric": 5702,
      "dp": 5703,
      "Ġlesquelles": 5704,
      "Ġ!": 5705,
      "tiÃ¨res": 5706,
      "Ġappliqu": 5707,
      "Ġexaminer": 5708,
      "Ġlater": 5709,
      "urÃ©": 5710,
      "Ġdig": 5711,
      "Ġprovenant": 5712,
      "Ġneu": 5713,
      "ĠgÃ©nÃ©ralement": 5714,
      "Ġchine": 5715,
      "Ġparis": 5716,
      "Ġ49": 5717,
      "Ġcreation": 5718,
      "tiÃ¨re": 5719,
      "Ġfreedom": 5720,
      "Ġcab": 5721,
      "ĠcrÃ©Ã©": 5722,
      "Ġactes": 5723,
      "Ġasked": 5724,
      "Ġsenior": 5725,
      "heure": 5726,
      "ĠrÃ©fugiÃ©s": 5727,
      "rement": 5728,
      "Ġexperien": 5729,
      "ĠdÃ©mocratique": 5730,
      "ĠdÃ©clarations": 5731,
      "quar": 5732,
      "Ġspend": 5733,
      "Ġkingdom": 5734,
      "Ġlesquels": 5735,
      "Ġcustoms": 5736,
      "Ġos": 5737,
      "âĤ¬": 5738,
      "--------": 5739,
      "Ġwid": 5740,
      "Ġseule": 5741,
      "Ġannuel": 5742,
      "ĠbÃ¢": 5743,
      "Ġremerci": 5744,
      "Ġdiffusion": 5745,
      "Ġcandidates": 5746,
      "Ġbord": 5747,
      "Ġ57": 5748,
      "âĢĿ,": 5749,
      "tables": 5750,
      "Ġongoing": 5751,
      "Ġmerc": 5752,
      "ĠpÃ©": 5753,
      "Ġexer": 5754,
      "ĠÃ©crit": 5755,
      "Ġwhose": 5756,
      "Ġterrain": 5757,
      "ĠtÃ©": 5758,
      "Ġsections": 5759,
      "Ġimproving": 5760,
      "Ġtrust": 5761,
      "Ġrapidement": 5762,
      "Ġrestrictions": 5763,
      "Ġhom": 5764,
      "Ġpasser": 5765,
      "aids": 5766,
      "ĠmÃ©canisme": 5767,
      "Ġpoly": 5768,
      "Ġbureaux": 5769,
      "Ġgovernance": 5770,
      "Ġvehicle": 5771,
      "Ġvancouver": 5772,
      "ouvez": 5773,
      "ovo": 5774,
      "Ġcorporate": 5775,
      "64": 5776,
      "Ġways": 5777,
      "avenir": 5778,
      "Ġaward": 5779,
      "Ġengagement": 5780,
      "Ġvictims": 5781,
      "Ġprincipales": 5782,
      "Ġmoney": 5783,
      "Ġreti": 5784,
      "Ġequality": 5785,
      "Ġimproved": 5786,
      "Ġafghanistan": 5787,
      "Ġbillion": 5788,
      "Ġmanifest": 5789,
      "Ġsouha": 5790,
      "Ġpaiement": 5791,
      "Ġdiplom": 5792,
      "Ġinten": 5793,
      "Ġled": 5794,
      "Ġdispar": 5795,
      "Ġconstru": 5796,
      "uty": 5797,
      "Ġmessage": 5798,
      "Ġensuite": 5799,
      "ducing": 5800,
      "Ġalways": 5801,
      "Ġsuis": 5802,
      "ĠÃ©tro": 5803,
      "Ġresolutions": 5804,
      "Ġrelease": 5805,
      "Ġ58": 5806,
      "Ġpouvoirs": 5807,
      "ĠÃ©p": 5808,
      "Ġdispose": 5809,
      "Ġdetailed": 5810,
      "Ġchiff": 5811,
      "Ġfabrication": 5812,
      "rad": 5813,
      "pdf": 5814,
      "Ġintellectuelle": 5815,
      "ws": 5816,
      "Ġprofessionnels": 5817,
      "Ġratif": 5818,
      "Ġability": 5819,
      "Ã¨les": 5820,
      "opie": 5821,
      "ennes": 5822,
      "key": 5823,
      "mÃ©di": 5824,
      "overy": 5825,
      "Ġsanctions": 5826,
      "Ġsav": 5827,
      "Ġrevenue": 5828,
      "riel": 5829,
      "Ġkind": 5830,
      "Ġpatent": 5831,
      "arc": 5832,
      "Ġfi": 5833,
      "Ġcomposition": 5834,
      "isions": 5835,
      "Ġband": 5836,
      "yle": 5837,
      "65": 5838,
      "Ġ95": 5839,
      "Ġachieved": 5840,
      "Ġmunicipal": 5841,
      "Ġ75": 5842,
      "Ġalternative": 5843,
      "Ġhal": 5844,
      "aise": 5845,
      "more": 5846,
      "Ġfollows": 5847,
      "Ġpied": 5848,
      "Ġemissions": 5849,
      "Ġitems": 5850,
      "Ġsexual": 5851,
      "Ġavoid": 5852,
      "formes": 5853,
      "Ġwebsite": 5854,
      "Ġmich": 5855,
      "Ġpun": 5856,
      "aliment": 5857,
      "intÃ©rieur": 5858,
      "Ġofficials": 5859,
      "absence": 5860,
      "Ġeaux": 5861,
      "Ġpouvez": 5862,
      "Ġdiscipl": 5863,
      "Ġtoxic": 5864,
      "Ġdestruction": 5865,
      "Ġcult": 5866,
      "ova": 5867,
      "Ġsoft": 5868,
      "ador": 5869,
      "Ġstage": 5870,
      "bation": 5871,
      "Ġjudic": 5872,
      "ĠspÃ©cifiques": 5873,
      "Ġcharte": 5874,
      "Ġcongo": 5875,
      "Ġarmed": 5876,
      "Ġunf": 5877,
      "Ġsemble": 5878,
      "Ġprogres": 5879,
      "Ġoccur": 5880,
      "Ġurban": 5881,
      "ara": 5882,
      "istence": 5883,
      "Ġpersonnels": 5884,
      "Ġva": 5885,
      "Ġstart": 5886,
      "Ġtransmission": 5887,
      "Ġclari": 5888,
      "Ġkm": 5889,
      "adresse": 5890,
      "Ġspecified": 5891,
      "Ġlink": 5892,
      "ĠministÃ©ri": 5893,
      "Ġlonger": 5894,
      "42": 5895,
      "usement": 5896,
      "igence": 5897,
      "Ġleave": 5898,
      "Ġsignature": 5899,
      "Ġschools": 5900,
      "Ġisol": 5901,
      "ĠdÃ©cou": 5902,
      "Ġcolle": 5903,
      "Ã§u": 5904,
      "Ġconcentration": 5905,
      "Ġcouns": 5906,
      "craft": 5907,
      "Ġmeilleure": 5908,
      "Ġthems": 5909,
      "Ġsize": 5910,
      "Ġeducational": 5911,
      "Ġplanned": 5912,
      "ciation": 5913,
      "Ġscre": 5914,
      "nÃ©": 5915,
      "Ġpoursuivre": 5916,
      "ukon": 5917,
      "Ġfront": 5918,
      "Ġthemselves": 5919,
      "ĠdÃ»": 5920,
      "affaires": 5921,
      "Ġdeg": 5922,
      "Ġturn": 5923,
      "Ġwritten": 5924,
      "75": 5925,
      "keting": 5926,
      "Ġquelle": 5927,
      "Ġsuc": 5928,
      "uts": 5929,
      "Ġwaste": 5930,
      "autoritÃ©": 5931,
      "uits": 5932,
      "Ġobjet": 5933,
      "Ġplant": 5934,
      "cal": 5935,
      "ommunications": 5936,
      "Ġpeuples": 5937,
      "tees": 5938,
      "Ã¨tes": 5939,
      "Ġimportantes": 5940,
      "fc": 5941,
      "mobil": 5942,
      "Ġsuivante": 5943,
      "tez": 5944,
      "Ġassets": 5945,
      "Ã¨tres": 5946,
      "Ġold": 5947,
      "Ġconstituent": 5948,
      "Ġappell": 5949,
      "Ġinvent": 5950,
      "ĠprÃ©paration": 5951,
      "Ġextr": 5952,
      "Ġveuille": 5953,
      "Ġwipo": 5954,
      "ĠexÃ©cu": 5955,
      "ĠreprÃ©sente": 5956,
      "vices": 5957,
      "rought": 5958,
      "73": 5959,
      "Ġadequate": 5960,
      "Ġregistered": 5961,
      "Ġap": 5962,
      "Ġestime": 5963,
      "Ġwords": 5964,
      "Ġtravailler": 5965,
      "Ġindicators": 5966,
      "ĠvÃ©rif": 5967,
      "Ġmajority": 5968,
      "Ã«l": 5969,
      "Ġinstance": 5970,
      "Ġrecons": 5971,
      "Ġaugmentation": 5972,
      "Ġpoor": 5973,
      "Ġobstacles": 5974,
      "Ġmove": 5975,
      "Ġcomplet": 5976,
      "enregistrement": 5977,
      "Ġgens": 5978,
      "Ġorganized": 5979,
      "Ġdossier": 5980,
      "Ġconfidenti": 5981,
      "ĠdÃ©mon": 5982,
      "rentiss": 5983,
      "Ġsupplement": 5984,
      "Ġrussie": 5985,
      "Ġacad": 5986,
      "ĠmÃ©dicaments": 5987,
      "Ġraisonn": 5988,
      "umul": 5989,
      "Ġ...": 5990,
      "Ġtravers": 5991,
      "Ġveuillez": 5992,
      "ĠcompÃ©tence": 5993,
      "ĠnuclÃ©aires": 5994,
      "Ġanaly": 5995,
      "Ġsmo": 5996,
      "ging": 5997,
      "Ġaffect": 5998,
      "impÃ´t": 5999,
      "ĠrÃ©sum": 6000,
      "Ġcorruption": 6001,
      "Ġdouble": 6002,
      "Ġjapan": 6003,
      "%)": 6004,
      "export": 6005,
      "Ġsor": 6006,
      "Ġinvestigation": 6007,
      "Ã©limination": 6008,
      "Ġexcep": 6009,
      "Ġcommunautaires": 6010,
      "Ġinformal": 6011,
      "Ġschedule": 6012,
      "Ġ)": 6013,
      "Ġpleinement": 6014,
      "ĠintÃ©rieur": 6015,
      "Ġkosovo": 6016,
      "wide": 6017,
      "blement": 6018,
      "Ġoutcome": 6019,
      "Ġsuivre": 6020,
      "agriculture": 6021,
      "ida": 6022,
      "wise": 6023,
      "Ġsupporting": 6024,
      "letin": 6025,
      "Ġenjoy": 6026,
      "Ġpatrimoine": 6027,
      "Ġbelg": 6028,
      "wp": 6029,
      "Ġrecognized": 6030,
      "Ġnaturelles": 6031,
      "Ġfamilles": 6032,
      "80": 6033,
      "Ġmaritime": 6034,
      "Ġamoun": 6035,
      "ĠÃ©trangÃ¨res": 6036,
      "Ġremplac": 6037,
      "Ġdepos": 6038,
      "ĠmajoritÃ©": 6039,
      "tiles": 6040,
      "Ġmaladie": 6041,
      "Ġrein": 6042,
      "Ġelection": 6043,
      "level": 6044,
      "clam": 6045,
      "Ġcauses": 6046,
      "indi": 6047,
      "aster": 6048,
      "lav": 6049,
      "Ġpreparation": 6050,
      "Ġparam": 6051,
      "rentissage": 6052,
      "Â´": 6053,
      "Ġling": 6054,
      "Ġestimated": 6055,
      "att": 6056,
      "Ġoce": 6057,
      "Ġfire": 6058,
      "tivity": 6059,
      "ĠconsÃ©quences": 6060,
      "Ġfemme": 6061,
      "Ġinvestissements": 6062,
      "kes": 6063,
      "Ġdisponible": 6064,
      "Ġlittle": 6065,
      "novation": 6066,
      "Ġvu": 6067,
      "Ã©tablir": 6068,
      "Ġinstitutionn": 6069,
      "Ġsales": 6070,
      "Ġvend": 6071,
      "ocation": 6072,
      "Ġlanc": 6073,
      "Ã©rÃ©s": 6074,
      "rable": 6075,
      "Ġfeu": 6076,
      "canada": 6077,
      "Ġsubsidi": 6078,
      "Ġscientifiques": 6079,
      "ares": 6080,
      "Ġdisclosure": 6081,
      "Ġexpand": 6082,
      "ĠdÃ©mar": 6083,
      "Ġfais": 6084,
      "Ġemploi": 6085,
      "ĠrÃ©seaux": 6086,
      "Ġservir": 6087,
      "Ġchairman": 6088,
      "Ġeffectiveness": 6089,
      "Ġfinances": 6090,
      "Ġundertaken": 6091,
      "Ġapproximately": 6092,
      "Ġmrs": 6093,
      "Ġcolon": 6094,
      "Ġfavour": 6095,
      "Ġneg": 6096,
      "Ġconsumer": 6097,
      "universitÃ©": 6098,
      "Ġremains": 6099,
      "Ġconjoin": 6100,
      "ĠÃ©valuer": 6101,
      "Ġ44": 6102,
      "Ġvac": 6103,
      "Ġrespecter": 6104,
      "2009": 6105,
      "mark": 6106,
      "Ġinterventions": 6107,
      "ĠÃ©lÃ©ment": 6108,
      "keeping": 6109,
      "Ġinterview": 6110,
      "Ġtab": 6111,
      "Ġoptim": 6112,
      "Ġstep": 6113,
      "Ã©p": 6114,
      "ĠvÃ©r": 6115,
      "Ġfeed": 6116,
      "anes": 6117,
      "Ġhumanitaire": 6118,
      "ĠsupÃ©rieur": 6119,
      "do": 6120,
      "Ġprofit": 6121,
      "Ġyukon": 6122,
      "ĠexaminÃ©": 6123,
      "Ġthink": 6124,
      "Ġpoiss": 6125,
      "ĠtrÃ©s": 6126,
      "Ġbrief": 6127,
      "Ġsetting": 6128,
      "Ġbos": 6129,
      "erie": 6130,
      "ores": 6131,
      "Ġdatab": 6132,
      "Ġdifficile": 6133,
      "put": 6134,
      "ĠÃ©nerg": 6135,
      "Ġindex": 6136,
      "Ġ41": 6137,
      "mise": 6138,
      "je": 6139,
      "ĠrÃ©sultat": 6140,
      "lands": 6141,
      "Ġartis": 6142,
      "Ġaimed": 6143,
      "amment": 6144,
      "Ġrapide": 6145,
      "Ġadvice": 6146,
      "Ġmodifier": 6147,
      "Ġtemp": 6148,
      "lemagne": 6149,
      "Ġtariff": 6150,
      "Ġrisks": 6151,
      "Ġsound": 6152,
      "mÃªme": 6153,
      "alisation": 6154,
      "ibilitÃ©": 6155,
      "temps": 6156,
      "Ġexception": 6157,
      "Ã©trang": 6158,
      "Ġfoundation": 6159,
      "Ġrequirement": 6160,
      "Ġmode": 6161,
      "Ġment": 6162,
      "dr": 6163,
      "Ġtransactions": 6164,
      "Ġappui": 6165,
      "Ġcs": 6166,
      "Ġexceed": 6167,
      "Ġjamais": 6168,
      "Ġprison": 6169,
      "ĠrÃ¨gle": 6170,
      "ouvernement": 6171,
      "Ġsouten": 6172,
      "Ġimpacts": 6173,
      "Ġpara": 6174,
      "Ġhousing": 6175,
      "Ġavanc": 6176,
      "Ġsummit": 6177,
      "ĠprÃ©cis": 6178,
      "Ġpla": 6179,
      "Ġjustification": 6180,
      "Ġexpression": 6181,
      "vin": 6182,
      "Ġfaci": 6183,
      "ĠprÃ©f": 6184,
      "Ġconnaissance": 6185,
      "zed": 6186,
      "Ġrun": 6187,
      "Ġagent": 6188,
      "Ġtarif": 6189,
      "Ã©th": 6190,
      "Ġsexes": 6191,
      "Ġofficielles": 6192,
      "Ġefficaces": 6193,
      "Ġcrisis": 6194,
      "Ġhope": 6195,
      "cont": 6196,
      "Ġpages": 6197,
      "xx": 6198,
      "Ġaccueil": 6199,
      "ĠdifficultÃ©s": 6200,
      "parti": 6201,
      "Ġoutils": 6202,
      "ĠcaractÃ©ristiques": 6203,
      "oking": 6204,
      "tary": 6205,
      "ĠÃ©vÃ©n": 6206,
      "Ġlux": 6207,
      "Ġbay": 6208,
      "96": 6209,
      "oblig": 6210,
      "Ġhabitat": 6211,
      "Ġbulletin": 6212,
      "Ġdeputy": 6213,
      "Ġproduced": 6214,
      "Ġcalls": 6215,
      "Ġcovered": 6216,
      "ĠsiÃ¨ge": 6217,
      "Ġformal": 6218,
      "Ġtakes": 6219,
      "Ġdirectrices": 6220,
      "armement": 6221,
      "ĠfrÃ©qu": 6222,
      "Ġroyal": 6223,
      "Ġinfra": 6224,
      "Ġcommerciales": 6225,
      "Ġdetails": 6226,
      "Ġarts": 6227,
      "Ġmm": 6228,
      "crire": 6229,
      "Ġparticuliers": 6230,
      "national": 6231,
      "Ġdecre": 6232,
      "Ġexpenses": 6233,
      "Ġislam": 6234,
      "Ġjapon": 6235,
      "Ġfores": 6236,
      "Ġ42": 6237,
      "sida": 6238,
      "Ġconcentrations": 6239,
      "Ġaircraft": 6240,
      "Ġstim": 6241,
      "ĠdÃ©fis": 6242,
      "Ġintervenants": 6243,
      "programme": 6244,
      "ĠâĪĴ": 6245,
      "Ġtraite": 6246,
      "ee": 6247,
      "Ġestablishing": 6248,
      "ĠpassÃ©": 6249,
      "Ġuni": 6250,
      "Ġrevised": 6251,
      "plois": 6252,
      "Ġestimates": 6253,
      "ham": 6254,
      "accep": 6255,
      "Ã©rant": 6256,
      "Ġoption": 6257,
      "install": 6258,
      "Ġsensi": 6259,
      "Ġjuge": 6260,
      "Ġexpertise": 6261,
      "Ġcompared": 6262,
      "Ġpaiements": 6263,
      "Ġporter": 6264,
      "Ġhumains": 6265,
      "oncÃ©": 6266,
      "troph": 6267,
      "Ġguidance": 6268,
      "Ġtransit": 6269,
      "Ġfunctions": 6270,
      "Ġprovinci": 6271,
      "Ġcommuniquer": 6272,
      "ney": 6273,
      "ĠdiversitÃ©": 6274,
      "Ġconception": 6275,
      "Ġentire": 6276,
      "Ġjudiciaire": 6277,
      "Ġarms": 6278,
      "Ġtests": 6279,
      "making": 6280,
      "Ġconnection": 6281,
      "ĠstratÃ©giques": 6282,
      "ĠconformitÃ©": 6283,
      "Ġmarketing": 6284,
      "ĠrÃ©aliser": 6285,
      "Ġmovement": 6286,
      "Ġtrouv": 6287,
      "Ġsecure": 6288,
      "examiner": 6289,
      "Ġretour": 6290,
      "Ġmises": 6291,
      "Ġinstructions": 6292,
      "Ġ56": 6293,
      "rite": 6294,
      "Ġpenal": 6295,
      "Ġadded": 6296,
      "Ġ#": 6297,
      "Ġatlantic": 6298,
      "Ġcircon": 6299,
      "Ġbreak": 6300,
      "ĠrÃ©vision": 6301,
      "ĠÃ©lections": 6302,
      "ĠportÃ©e": 6303,
      "institut": 6304,
      "Ġmechanism": 6305,
      "Ġpartenariats": 6306,
      "Ġfederation": 6307,
      "vo": 6308,
      "Ġseraient": 6309,
      "Ġreduced": 6310,
      "Ġsti": 6311,
      "Ġcouv": 6312,
      "Ġcalend": 6313,
      "Ġshown": 6314,
      "Ġ]": 6315,
      "Ġsatell": 6316,
      "blio": 6317,
      "illed": 6318,
      "Ġatteindre": 6319,
      "nd": 6320,
      "Ġutilisation": 6321,
      "Ġserve": 6322,
      "Ġusers": 6323,
      "Ġrang": 6324,
      "Ġol": 6325,
      "Ġhard": 6326,
      "Ġgermany": 6327,
      "Ġprime": 6328,
      "cemment": 6329,
      "agnos": 6330,
      "Ġchercheurs": 6331,
      "eless": 6332,
      "ĠrÃ©solutions": 6333,
      "tiqu": 6334,
      "Ġinsu": 6335,
      "informations": 6336,
      "Ġra": 6337,
      "Ġpalestinian": 6338,
      "ĠcomplÃ©ment": 6339,
      "Ġpuisse": 6340,
      "Ġclasse": 6341,
      "lant": 6342,
      "Ġpens": 6343,
      "ĠrÃ©gionale": 6344,
      "obtenir": 6345,
      "rez": 6346,
      "Ġcd": 6347,
      "Ġsigned": 6348,
      "bas": 6349,
      "Ġintroduced": 6350,
      "Ġbey": 6351,
      "Ġnomm": 6352,
      "Ġtard": 6353,
      "Ġnotification": 6354,
      "paign": 6355,
      "Ġdirige": 6356,
      "Ġentry": 6357,
      "Ġessentiel": 6358,
      "enge": 6359,
      "ĠprivÃ©e": 6360,
      "Ġappre": 6361,
      "Ã©quip": 6362,
      "Ġfulf": 6363,
      "ring": 6364,
      "activitÃ©s": 6365,
      "Ġgir": 6366,
      "Ġpes": 6367,
      "prÃ©tation": 6368,
      "Ġeffectively": 6369,
      "Ġcm": 6370,
      "Ġfinally": 6371,
      "Ġvoudra": 6372,
      "Ġprivacy": 6373,
      "Ġrussian": 6374,
      "Ġdesp": 6375,
      "etÃ©": 6376,
      "ĠtrÃ©sor": 6377,
      "Ġprices": 6378,
      "Ġatmosph": 6379,
      "Ġpetites": 6380,
      "Ġinfluence": 6381,
      "ĠprÃ©al": 6382,
      "ĠrÃ©cemment": 6383,
      "Ġsoutenir": 6384,
      "endra": 6385,
      "Ġwood": 6386,
      "Ġ04": 6387,
      "Ġlimite": 6388,
      "intes": 6389,
      "Ġattribu": 6390,
      "Ġ65": 6391,
      "atric": 6392,
      "applique": 6393,
      "Ġprincipalement": 6394,
      "avi": 6395,
      "Ġmigration": 6396,
      "riÃ¨me": 6397,
      "wg": 6398,
      "Ġcompter": 6399,
      "chÃ©": 6400,
      "Ġ59": 6401,
      "ĠrÃ©ponses": 6402,
      "aie": 6403,
      "Ġinterp": 6404,
      "lectoral": 6405,
      "Ġcampaign": 6406,
      "Ġafrique": 6407,
      "Ġrecueill": 6408,
      "Ġuniquement": 6409,
      "gouvernement": 6410,
      "sep": 6411,
      "ĠdÃ©cl": 6412,
      "Ġportu": 6413,
      "engagement": 6414,
      "Ġround": 6415,
      "Ġcomprom": 6416,
      "Ġdistance": 6417,
      "Ġgoal": 6418,
      "ĠdÃ©pÃ´t": 6419,
      "Ġpourcent": 6420,
      "tÃ©n": 6421,
      "Ġexamine": 6422,
      "Ħ¢": 6423,
      "ĠdÃ©ten": 6424,
      "Ġow": 6425,
      "ĠdÃ©velopper": 6426,
      "Ġsil": 6427,
      "Ġstruct": 6428,
      "istic": 6429,
      "ĠcatÃ©gories": 6430,
      "ductions": 6431,
      "ala": 6432,
      "Ġdisarm": 6433,
      "Ġextre": 6434,
      "atement": 6435,
      "ĠpubliÃ©": 6436,
      "Ġcul": 6437,
      "dÃ©cembre": 6438,
      "Ġindique": 6439,
      "Ġpasse": 6440,
      "Ġsusp": 6441,
      "Ã¨rement": 6442,
      "ĠÃ©chÃ©": 6443,
      "Ġtelec": 6444,
      "Ġpartnerships": 6445,
      "ancing": 6446,
      "Ġcooper": 6447,
      "Ġconclu": 6448,
      "Ġfid": 6449,
      "ĠgÃ©nÃ©rales": 6450,
      "Ġfaites": 6451,
      "Ġdraw": 6452,
      "Ġconnexes": 6453,
      "âĦ¢": 6454,
      "Ġcrise": 6455,
      "hu": 6456,
      "Ġintervention": 6457,
      "dite": 6458,
      "Ġpetit": 6459,
      "Ġamended": 6460,
      "Ġcharges": 6461,
      "ommod": 6462,
      "Ġwide": 6463,
      "emment": 6464,
      "titution": 6465,
      "Ġep": 6466,
      "Ġconst": 6467,
      "Ã¨nes": 6468,
      "Ġimmun": 6469,
      "Ġvehicles": 6470,
      "Ġlis": 6471,
      "oxy": 6472,
      "Ġphot": 6473,
      "Ġcc": 6474,
      "Ġpron": 6475,
      "Ġseem": 6476,
      "Ġindire": 6477,
      "ĠmÃªmes": 6478,
      "orth": 6479,
      "Ġsemaine": 6480,
      "Ġintellectual": 6481,
      "ino": 6482,
      "Ã©change": 6483,
      "Ġcomputer": 6484,
      "Ġdifficul": 6485,
      "Ġrecently": 6486,
      "Ġuseful": 6487,
      "right": 6488,
      "Ġ77": 6489,
      "Ġ43": 6490,
      "aa": 6491,
      "Ã¨vement": 6492,
      "ict": 6493,
      "Ġscientifique": 6494,
      "gement": 6495,
      "ral": 6496,
      "Ġborder": 6497,
      "ĠÃ©trangers": 6498,
      "undi": 6499,
      "Ġidentification": 6500,
      "Ġefficiency": 6501,
      "izes": 6502,
      "Ġconfiance": 6503,
      "Ã©tranger": 6504,
      "prit": 6505,
      "Ġattra": 6506,
      "Ġelections": 6507,
      "Ġlive": 6508,
      "Ã©volution": 6509,
      "Ġship": 6510,
      "Ġgross": 6511,
      "ĠdÃ©posÃ©": 6512,
      "Ġhalf": 6513,
      "Ġrepl": 6514,
      "Ġtan": 6515,
      "Ġchallenge": 6516,
      "ĠbÃ©nÃ©fici": 6517,
      "Ġmg": 6518,
      "Ġmanque": 6519,
      "atively": 6520,
      "Ġspir": 6521,
      "Ġmaintenir": 6522,
      "Ġrecovery": 6523,
      "Ġproactive": 6524,
      "Ġenvironnementale": 6525,
      "Ġpeacekeeping": 6526,
      "ason": 6527,
      "ĠpÃ©nale": 6528,
      "ville": 6529,
      "Ġparagraphes": 6530,
      "Ġriv": 6531,
      "Ġtaxes": 6532,
      "placed": 6533,
      "Ġprocessing": 6534,
      "Ġoffers": 6535,
      "Ġbiblio": 6536,
      "rs": 6537,
      "attention": 6538,
      "Ġlan": 6539,
      "Ġgh": 6540,
      "Ġdebt": 6541,
      "mill": 6542,
      "Ġdess": 6543,
      "abord": 6544,
      "Ġru": 6545,
      "ÂĴ": 6546,
      "long": 6547,
      "ĠcrÃ©dits": 6548,
      "aritÃ©": 6549,
      "ending": 6550,
      "Ġhighl": 6551,
      "Ġadjust": 6552,
      "oth": 6553,
      "Ġconnec": 6554,
      "Ġtown": 6555,
      "Ġmines": 6556,
      "Ġalimentaire": 6557,
      "ansion": 6558,
      "grad": 6559,
      "Ġpermettent": 6560,
      "Ġouv": 6561,
      "Ġrecall": 6562,
      "apprentissage": 6563,
      "Ġeligible": 6564,
      "Ġlibr": 6565,
      "ulgation": 6566,
      "Ġappare": 6567,
      "Ġsocio": 6568,
      "Ġlinguis": 6569,
      "ĠdÃ©ploy": 6570,
      "Ġdiagnos": 6571,
      "Ġlimites": 6572,
      "agent": 6573,
      "Ġfrancoph": 6574,
      "ĠeuropÃ©ens": 6575,
      "Ġaccountability": 6576,
      "imes": 6577,
      "Ġinvite": 6578,
      "asp": 6579,
      "Ġstreet": 6580,
      "nÃ©s": 6581,
      "emb": 6582,
      "ĠfondÃ©e": 6583,
      "ĠdÃ©lÃ©gations": 6584,
      "ran": 6585,
      "Ġham": 6586,
      "Ġsold": 6587,
      "Ġdrogues": 6588,
      "Ġobtained": 6589,
      "Ġmakes": 6590,
      "Ġtrafficking": 6591,
      "ĠconnaÃ®tre": 6592,
      "Ġaccr": 6593,
      "Ġbeyond": 6594,
      "Ġdisarmament": 6595,
      "Ġcontient": 6596,
      "69": 6597,
      "ll": 6598,
      "Ġconcep": 6599,
      "Ġappendix": 6600,
      "ĠdÃ©sarmement": 6601,
      "isp": 6602,
      "andis": 6603,
      "ĠdÃ©liv": 6604,
      "Ġindicateurs": 6605,
      "Ġaccessible": 6606,
      "Ġrendu": 6607,
      "Ã§ant": 6608,
      "Ġgradu": 6609,
      "ĠclÃ©s": 6610,
      "Ġcultures": 6611,
      "Ġinterpret": 6612,
      "Ġlien": 6613,
      "fi": 6614,
      "Ġabsol": 6615,
      "Ġrecettes": 6616,
      "âĢĳ": 6617,
      "tur": 6618,
      "quie": 6619,
      "innovation": 6620,
      "________________________________": 6621,
      "Ġdelegations": 6622,
      "espace": 6623,
      "Ġvulner": 6624,
      "Ġbosn": 6625,
      "Ġcommissions": 6626,
      "ĠenquÃªte": 6627,
      "Ġgain": 6628,
      "Ġsensibilisation": 6629,
      "Ġdespite": 6630,
      "Ġjuste": 6631,
      "quarters": 6632,
      "Ġfaite": 6633,
      "Ġdiscussed": 6634,
      "Ġaccommod": 6635,
      "Ã¶": 6636,
      "Ġchos": 6637,
      "Ġstri": 6638,
      "akistan": 6639,
      "Ġcontracting": 6640,
      "Ġ85": 6641,
      "ĠadÃ©qu": 6642,
      "ĠapprouvÃ©": 6643,
      "quently": 6644,
      "Ġpresence": 6645,
      "ots": 6646,
      "Ġmuse": 6647,
      "ĠrÃ©guliÃ¨re": 6648,
      "water": 6649,
      "ĠprÃ©vue": 6650,
      "Ġcomponent": 6651,
      "auv": 6652,
      "oks": 6653,
      "Ġsupports": 6654,
      "78": 6655,
      "Ġtiss": 6656,
      "head": 6657,
      "bon": 6658,
      "Ġadvant": 6659,
      "Ġhaute": 6660,
      "Ġ54": 6661,
      "Ġclean": 6662,
      "Ġcontraire": 6663,
      "ki": 6664,
      "Ġurb": 6665,
      "ights": 6666,
      "uding": 6667,
      "Ġmedic": 6668,
      "impact": 6669,
      "ĠdÃ©cide": 6670,
      "Ġaccounts": 6671,
      "ĠsÃ©par": 6672,
      "ĠfÃ©dÃ©ration": 6673,
      "Ġasia": 6674,
      "Ġvoudrais": 6675,
      "ĠmodÃ¨les": 6676,
      "Ġfactor": 6677,
      "Ġdossiers": 6678,
      "Ġresol": 6679,
      "ulaires": 6680,
      "Ġhol": 6681,
      "vÃ©e": 6682,
      "Ġcategory": 6683,
      "Ġrig": 6684,
      "ĠrÃ©vis": 6685,
      "Ġcirculation": 6686,
      "Ġjean": 6687,
      "Ġexplain": 6688,
      "ĠtÃ©lÃ©phone": 6689,
      "Ġgeograph": 6690,
      "Ã¨se": 6691,
      "Ġbrought": 6692,
      "Ġaven": 6693,
      "del": 6694,
      "Ġindian": 6695,
      "ived": 6696,
      "Ġcontinues": 6697,
      "Ġadministratives": 6698,
      "yst": 6699,
      "Ġemployer": 6700,
      "hist": 6701,
      "ĠdÃ©crit": 6702,
      "Ġunits": 6703,
      "Ġstatistique": 6704,
      "Ġtaille": 6705,
      "Ġaccus": 6706,
      "Ġduty": 6707,
      "Ġlisted": 6708,
      "utÃ©s": 6709,
      "istics": 6710,
      "onie": 6711,
      "Ġimprovement": 6712,
      "mont": 6713,
      "hood": 6714,
      "existence": 6715,
      "environ": 6716,
      "bal": 6717,
      "Ġdiversity": 6718,
      "etary": 6719,
      "Ġmigrants": 6720,
      "ĠstabilitÃ©": 6721,
      "Ġagricoles": 6722,
      "leur": 6723,
      "Ġhors": 6724,
      "Ġjudicial": 6725,
      "tÃ©m": 6726,
      "Ġoc": 6727,
      "Ġcore": 6728,
      "ĠrÃ©munÃ©ration": 6729,
      "ĠÃ©tudiants": 6730,
      "Ġstability": 6731,
      "gi": 6732,
      "Ġjeu": 6733,
      "ĠgÃ©nÃ©raux": 6734,
      "Ġcess": 6735,
      "Ġvide": 6736,
      "Ġdimension": 6737,
      "Ġvuln": 6738,
      "Ġphysique": 6739,
      "Ġentreprene": 6740,
      "Ġleading": 6741,
      "Ġperspectives": 6742,
      "Ġparagraphs": 6743,
      "Ġwal": 6744,
      "Ġindicate": 6745,
      "auc": 6746,
      "ĠdÃ©chets": 6747,
      "angl": 6748,
      "ape": 6749,
      "Ġnomination": 6750,
      "70": 6751,
      "Ġpp": 6752,
      "ĠforÃª": 6753,
      "Ġacid": 6754,
      "erait": 6755,
      "Ġpacifique": 6756,
      "Ġ300": 6757,
      "Ġspending": 6758,
      "Ġrur": 6759,
      "Ġ`": 6760,
      "Ġreflect": 6761,
      "Ġdevelopments": 6762,
      "Ġcourts": 6763,
      "Ġbackground": 6764,
      "Ġfurthermore": 6765,
      "ands": 6766,
      "Ġdeven": 6767,
      "Ġseen": 6768,
      "Ġsouhaite": 6769,
      "lang": 6770,
      "Ġconsiste": 6771,
      "Ġformulaire": 6772,
      "cie": 6773,
      "dle": 6774,
      "ĠadoptÃ©e": 6775,
      "tentes": 6776,
      "Ġwild": 6777,
      "appu": 6778,
      "Ġnig": 6779,
      "Ã¼": 6780,
      "http": 6781,
      "ĠvulnÃ©ra": 6782,
      "ivalent": 6783,
      "load": 6784,
      "Ġmedium": 6785,
      "lier": 6786,
      "ĠempÃª": 6787,
      "Ġjurisdiction": 6788,
      "Ġduties": 6789,
      "ciliation": 6790,
      "Ġrecommande": 6791,
      "Ġfilm": 6792,
      "astroph": 6793,
      "Ġapplicables": 6794,
      "Ġdestination": 6795,
      "Ġratification": 6796,
      "Ġcondam": 6797,
      "Ġmentioned": 6798,
      "Ġheadquarters": 6799,
      "ĠgÃ©ograph": 6800,
      "Ġexige": 6801,
      "rÃ©es": 6802,
      "Ġstocks": 6803,
      "Ġimmigration": 6804,
      "Ġprefer": 6805,
      "Ġrecon": 6806,
      "Ġpartage": 6807,
      "tructures": 6808,
      "Ġsauf": 6809,
      "rice": 6810,
      "ĠsoulignÃ©": 6811,
      "Ġaffirm": 6812,
      "bc": 6813,
      "appliquer": 6814,
      "Ġcirconstances": 6815,
      "Ġspecifically": 6816,
      "Ġofficiel": 6817,
      "commission": 6818,
      "Ġdangere": 6819,
      "ourable": 6820,
      "Ġexpect": 6821,
      "Ġpartner": 6822,
      "Ġreten": 6823,
      "Ġpourcentage": 6824,
      "Ġabsence": 6825,
      "Ġexhib": 6826,
      "Ġcontacts": 6827,
      "Ġabuse": 6828,
      "Ġti": 6829,
      "Ġpractical": 6830,
      "Ġdomm": 6831,
      "prÃ©sid": 6832,
      "fond": 6833,
      "Ġinspection": 6834,
      "ns": 6835,
      "Ġpeine": 6836,
      "Ġcommerciaux": 6837,
      "ĠmodalitÃ©s": 6838,
      "Ġgouvernance": 6839,
      "Ġpresse": 6840,
      "Ġcarte": 6841,
      "tiers": 6842,
      "Ġagree": 6843,
      "Ġfax": 6844,
      "ĠdÃ©n": 6845,
      "Ġmener": 6846,
      "Ġspati": 6847,
      "Ġkeep": 6848,
      "enfants": 6849,
      "Ġpow": 6850,
      "Ġselected": 6851,
      "ĠrÃ©partition": 6852,
      "ĠthÃ©": 6853,
      "Ġconstruc": 6854,
      "Ġgranted": 6855,
      "Ġchambres": 6856,
      "Ġtransformation": 6857,
      "Ġpetits": 6858,
      "Ġconcours": 6859,
      "Ġapproaches": 6860,
      "Ġchron": 6861,
      "Ġonline": 6862,
      "Ġeth": 6863,
      "Ġmilliards": 6864,
      "Ġ53": 6865,
      "Ġtreas": 6866,
      "Ġfourni": 6867,
      "once": 6868,
      "Ġpet": 6869,
      "ĠmalgrÃ©": 6870,
      "intervention": 6871,
      "ĠrÃ£": 6872,
      "Ġfournisseurs": 6873,
      "Ġpacte": 6874,
      "accent": 6875,
      "Ã©tudes": 6876,
      "ĠÃ©laborer": 6877,
      "Ġglobale": 6878,
      "augmentation": 6879,
      "Ġtraiter": 6880,
      "Ġoutcomes": 6881,
      "dec": 6882,
      "Ġ02": 6883,
      "Ġalmost": 6884,
      "Ġcomporte": 6885,
      "Ġcatastroph": 6886,
      "cession": 6887,
      "Ġlou": 6888,
      "ĠconsÃ©quence": 6889,
      "Ġmuseum": 6890,
      "irme": 6891,
      "Ġchimiques": 6892,
      "Ġauteurs": 6893,
      "Ġrefugees": 6894,
      "ĠprÃ©venir": 6895,
      "94": 6896,
      "Ġreconnaissance": 6897,
      "Ġgrowing": 6898,
      "rador": 6899,
      "expl": 6900,
      "Ġtool": 6901,
      "Ġsignif": 6902,
      "anche": 6903,
      "Ġadoles": 6904,
      "Ġsubventions": 6905,
      "Ġfacility": 6906,
      "Ġprofessionnelle": 6907,
      "Â«": 6908,
      "Ġ01": 6909,
      "Ġflo": 6910,
      "Ġmusic": 6911,
      "Ġmine": 6912,
      "Ġutile": 6913,
      "Ġrecip": 6914,
      "Ġtesting": 6915,
      "ĠparticipÃ©": 6916,
      "son": 6917,
      "Ġobserver": 6918,
      "Ġ1989": 6919,
      "ola": 6920,
      "Ġorganisme": 6921,
      "Ġattem": 6922,
      "Ġ46": 6923,
      "Ġseparate": 6924,
      "Ġchau": 6925,
      "Ġcomponents": 6926,
      "Ġprocurement": 6927,
      "Ġdesignated": 6928,
      "Ġfindings": 6929,
      "ression": 6930,
      "ĠutilisÃ©es": 6931,
      "Ġcorps": 6932,
      "Ġvariety": 6933,
      "Ġdegree": 6934,
      "Ġstimul": 6935,
      "Ġexploitation": 6936,
      "gov": 6937,
      "ĠintitulÃ©": 6938,
      "ĠcomplÃ¨te": 6939,
      "54": 6940,
      "Ġatel": 6941,
      "500": 6942,
      "ĠdÃ©montr": 6943,
      "Ġtitle": 6944,
      "Ġside": 6945,
      "Ġ1987": 6946,
      "Ġreasonable": 6947,
      "rastructures": 6948,
      "Ġrecognition": 6949,
      "ĠcÃ´te": 6950,
      "Ġpath": 6951,
      "ĠprocÃ©der": 6952,
      "Ġoppos": 6953,
      "Ġbois": 6954,
      "Ã©t": 6955,
      "inet": 6956,
      "Ġgarde": 6957,
      "Ġpakistan": 6958,
      "Ġotherwise": 6959,
      "Ġbroadcas": 6960,
      "bor": 6961,
      "Ġexpliqu": 6962,
      "Ġpdf": 6963,
      "Ġtranspor": 6964,
      "Ġextend": 6965,
      "Ġpertinentes": 6966,
      "duit": 6967,
      "unitÃ©": 6968,
      "Ġsymb": 6969,
      "Ġsettlement": 6970,
      "anim": 6971,
      "Ġcodes": 6972,
      "Ġhaz": 6973,
      "tein": 6974,
      "Ġhapp": 6975,
      "Ġamounts": 6976,
      "Ġ88": 6977,
      "Ġbeginning": 6978,
      "Ġfuel": 6979,
      "avait": 6980,
      "ĠprÃ©occupations": 6981,
      "ered": 6982,
      "ians": 6983,
      "ĠrÃ©serv": 6984,
      "Ġjouer": 6985,
      "Ġsoftware": 6986,
      "Ġadvance": 6987,
      "Ġexpenditures": 6988,
      "Ġtas": 6989,
      "Ġraised": 6990,
      "Ġinvolving": 6991,
      "Ġfondamentaux": 6992,
      "Ġcertification": 6993,
      "Ġtandis": 6994,
      "Ġagricole": 6995,
      "Ġpuissent": 6996,
      "arity": 6997,
      "Ġeur": 6998,
      "Ġresulting": 6999,
      "aged": 7000,
      "51": 7001,
      "Ġtob": 7002,
      "Ġtrafic": 7003,
      "Ġfigurant": 7004,
      "ata": 7005,
      "Ġprovisional": 7006,
      "tel": 7007,
      "ĠexpÃ©ri": 7008,
      "Ġtelephone": 7009,
      "pul": 7010,
      "Ġvoluntary": 7011,
      "Ġpeuple": 7012,
      "Ġcontains": 7013,
      "Ġexpenditure": 7014,
      "Ġconcluded": 7015,
      "ompi": 7016,
      "Ġcinquante": 7017,
      "tified": 7018,
      "Ġcorrection": 7019,
      "Ġleft": 7020,
      "Ġvirtu": 7021,
      "Ġprincipale": 7022,
      "mping": 7023,
      "ĠconfÃ©rences": 7024,
      "net": 7025,
      "Ġcompor": 7026,
      "habitat": 7027,
      "Ġgeneva": 7028,
      "Ġcampagne": 7029,
      "road": 7030,
      "Ã¨ves": 7031,
      "Ġox": 7032,
      "Ġib": 7033,
      "Ġmoun": 7034,
      "pi": 7035,
      "Ġderniers": 7036,
      "organisme": 7037,
      "Ġcandidate": 7038,
      "Ġmanufacturing": 7039,
      "mor": 7040,
      "'t": 7041,
      "itter": 7042,
      "Ġassur": 7043,
      "Ġpressure": 7044,
      "Ġinvited": 7045,
      "Ġnetworks": 7046,
      "Ġlogici": 7047,
      "Ġsubmission": 7048,
      "ĠenquÃªtes": 7049,
      "Ġsoon": 7050,
      "estre": 7051,
      "med": 7052,
      "Ġforte": 7053,
      "emic": 7054,
      "itness": 7055,
      "Ġsuggested": 7056,
      "antee": 7057,
      "armes": 7058,
      "Ġinvolvement": 7059,
      "Ġprec": 7060,
      "Ġ51": 7061,
      "Ġposts": 7062,
      "Ġnomin": 7063,
      "inspec": 7064,
      "Ġrecevoir": 7065,
      "Ã´m": 7066,
      "Ġ52": 7067,
      "Ġproducteurs": 7068,
      "occu": 7069,
      "Ġhost": 7070,
      "ery": 7071,
      "Ġparticipant": 7072,
      "Ġlieux": 7073,
      "Ġhoriz": 7074,
      "Ġordre": 7075,
      "Ġunless": 7076,
      "ĠarrÃª": 7077,
      "aria": 7078,
      "conf": 7079,
      "Ã©der": 7080,
      "ĠtÃ©lÃ©v": 7081,
      "Ġsouligne": 7082,
      "Ġlot": 7083,
      "Ġcompati": 7084,
      "Ġappoin": 7085,
      "Ġsouff": 7086,
      "sibilitÃ©": 7087,
      "Ġ1988": 7088,
      "Ġfees": 7089,
      "mÃ©diaire": 7090,
      "Ġfournit": 7091,
      "Ġdifferences": 7092,
      "Ġfollowed": 7093,
      "eci": 7094,
      "ened": 7095,
      "ystem": 7096,
      "exportation": 7097,
      "Ġbehavi": 7098,
      "Ġram": 7099,
      "dessous": 7100,
      "Ġappl": 7101,
      "expression": 7102,
      "Ġcircul": 7103,
      "rich": 7104,
      "Ġdisabilities": 7105,
      "alement": 7106,
      "ĠprÃ©sidence": 7107,
      "1998": 7108,
      "Ġproduire": 7109,
      "Ġlec": 7110,
      "Ġgenre": 7111,
      "ĠÃ©lec": 7112,
      "Ã©tiques": 7113,
      "oqu": 7114,
      "Ã©nie": 7115,
      "Ġliaison": 7116,
      "Ġcontinuing": 7117,
      "aily": 7118,
      "iting": 7119,
      "Ġcivils": 7120,
      "Ġimplications": 7121,
      "Ġincidence": 7122,
      "Ġgraves": 7123,
      "Ġsujets": 7124,
      "cussions": 7125,
      "ancy": 7126,
      "yp": 7127,
      "ĠdonnÃ©e": 7128,
      "Ġconsulter": 7129,
      "Ġreserve": 7130,
      "Ġintention": 7131,
      "Ġpuisque": 7132,
      "ĠrÃ©sumÃ©": 7133,
      "Ġdepartmental": 7134,
      "Ġfifty": 7135,
      "ĠrÃ©alisÃ©s": 7136,
      "Ġconcre": 7137,
      "Ġmaison": 7138,
      "Ġchefs": 7139,
      "ĠprÃ©sentÃ©e": 7140,
      "obligation": 7141,
      "ij": 7142,
      "Ġguarantee": 7143,
      "Ġmanagers": 7144,
      "Ġpacific": 7145,
      "Ġdav": 7146,
      "Ġbir": 7147,
      "Ġshared": 7148,
      "utÃ©": 7149,
      "Ġcontenant": 7150,
      "Ġindemn": 7151,
      "Ġving": 7152,
      "Ġ61": 7153,
      "Ġhumaine": 7154,
      "ague": 7155,
      "ously": 7156,
      "agu": 7157,
      "ĠdÃ©part": 7158,
      "cf": 7159,
      "ko": 7160,
      "aur": 7161,
      "Ġwelcome": 7162,
      "Ġdeploy": 7163,
      "Ġtraitements": 7164,
      "atte": 7165,
      "Ġreached": 7166,
      "ĠprÃªts": 7167,
      "Ġintergouvernement": 7168,
      "Ġfoot": 7169,
      "Ġprofess": 7170,
      "Ġnun": 7171,
      "Ġmultilateral": 7172,
      "Ġcuba": 7173,
      "Ġrejec": 7174,
      "ĠpÃªches": 7175,
      "drait": 7176,
      "otechn": 7177,
      "Ġappointment": 7178,
      "Ġrooms": 7179,
      "Ġactuel": 7180,
      "get": 7181,
      "Ġrue": 7182,
      "ĠsystÃ©m": 7183,
      "))": 7184,
      "Ġcheck": 7185,
      "Ġextraordin": 7186,
      "Ġspons": 7187,
      "Ġcompagnie": 7188,
      "Ġlogement": 7189,
      "ĠdestinÃ©s": 7190,
      "utiliser": 7191,
      "Ġproduce": 7192,
      "Ġapporter": 7193,
      "new": 7194,
      "ĠallÃ©g": 7195,
      "Ġvar": 7196,
      "Ġeastern": 7197,
      "ĠpÃ©riodi": 7198,
      "Ġmiddle": 7199,
      "Ġassure": 7200,
      "Ġmiss": 7201,
      "Ġrent": 7202,
      "Ġdar": 7203,
      "Ġhoc": 7204,
      "ĠfÃ©dÃ©raux": 7205,
      "Ġwhite": 7206,
      "Ġcontents": 7207,
      "Ġyes": 7208,
      "Ġmanager": 7209,
      "Ġdissem": 7210,
      "Ġspirit": 7211,
      "Ġoffered": 7212,
      "Ġpense": 7213,
      "Ġmeaning": 7214,
      "Ġallowed": 7215,
      "Ġsept": 7216,
      "ĠsupplÃ©mentaire": 7217,
      "Ġpremiers": 7218,
      "Ġconserv": 7219,
      "Ġtotale": 7220,
      "sa": 7221,
      "ĠdÃ©pass": 7222,
      "accueil": 7223,
      "iche": 7224,
      "Ġparticipating": 7225,
      "ĠtÃ¢ches": 7226,
      "Ġacknow": 7227,
      "erse": 7228,
      "ĠÃ©coles": 7229,
      "tÃ©l": 7230,
      "Ġcoup": 7231,
      "ulf": 7232,
      "Ġreligion": 7233,
      "habil": 7234,
      "Ġcontrats": 7235,
      "Ġearlier": 7236,
      "Ġseek": 7237,
      "legal": 7238,
      "ĠrÃ©serves": 7239,
      "Ġappliquer": 7240,
      "Ġparent": 7241,
      "Ġethnic": 7242,
      "Ġcommunes": 7243,
      "immigr": 7244,
      "Ġwelcom": 7245,
      "âĤ¬âĦ¢": 7246,
      "Ã©cole": 7247,
      "Ġthank": 7248,
      "Ġrepe": 7249,
      "back": 7250,
      "duire": 7251,
      "ĠvolontÃ©": 7252,
      "Ġimprim": 7253,
      "Ġplaces": 7254,
      "Ġdiam": 7255,
      "ĠÃ©larg": 7256,
      "Ġkil": 7257,
      "Ġbook": 7258,
      "Ġflow": 7259,
      "Ġmi": 7260,
      "Ġfeel": 7261,
      "mpt": 7262,
      "Ġutilisateurs": 7263,
      "Ġacceptable": 7264,
      "Ġtransmit": 7265,
      "ĠcollÃ¨g": 7266,
      "life": 7267,
      "moins": 7268,
      "Ġrien": 7269,
      "ĠmenÃ©es": 7270,
      "Ġplas": 7271,
      "Ġcorrec": 7272,
      "ĠbÃ¢ti": 7273,
      "Ġinterested": 7274,
      "Ġdevait": 7275,
      "Ġcommerciale": 7276,
      "Ġencourager": 7277,
      "ints": 7278,
      "Ġsexe": 7279,
      "ĠorganisÃ©": 7280,
      "Ġpresid": 7281,
      "Ġowners": 7282,
      "lines": 7283,
      "ĠdÃ©finir": 7284,
      "ama": 7285,
      "Ġanalyses": 7286,
      "truct": 7287,
      "ĠintÃ©rÃªt": 7288,
      "Ġrencontr": 7289,
      "ĠspÃ©ciales": 7290,
      "Ġautant": 7291,
      "ĠpÃ©tro": 7292,
      "ottawa": 7293,
      "Ġdiffus": 7294,
      "Ġbox": 7295,
      "Ġaware": 7296,
      "Ġouts": 7297,
      "Ġsusceptibles": 7298,
      "ĠpÃ©r": 7299,
      "titudes": 7300,
      "Ġhighly": 7301,
      "Ġhearing": 7302,
      "iable": 7303,
      "oon": 7304,
      "Ġprolong": 7305,
      "ĠgenÃ¨ve": 7306,
      "where": 7307,
      "Ġmental": 7308,
      "Ġpourra": 7309,
      "Ġtaxe": 7310,
      "Ġtransparence": 7311,
      "Ġcontracts": 7312,
      "tail": 7313,
      "cd": 7314,
      "Ġdaily": 7315,
      "Ġnumbers": 7316,
      "Ġfournis": 7317,
      "Ġdemocracy": 7318,
      "Ġadopt": 7319,
      "Ġmap": 7320,
      "Ġelement": 7321,
      "ĠrecommandÃ©": 7322,
      "Ġtreasury": 7323,
      "Ġlongue": 7324,
      "Ġworkshop": 7325,
      "Ġpermanente": 7326,
      "Ġmots": 7327,
      "Ġbusinesses": 7328,
      "Ġscoti": 7329,
      "Ġaccepted": 7330,
      "Ġcollecte": 7331,
      "Ġmoreover": 7332,
      "Ġexter": 7333,
      "sie": 7334,
      "Ġoly": 7335,
      "ifications": 7336,
      "ĠpiÃ¨ces": 7337,
      "ainc": 7338,
      "Ġquo": 7339,
      "dre": 7340,
      "plement": 7341,
      "Ġconsolidation": 7342,
      "Ġperte": 7343,
      "Ġquick": 7344,
      "amend": 7345,
      "essai": 7346,
      "Ġtyp": 7347,
      "Ġcommittees": 7348,
      "Ġexamination": 7349,
      "Ġparvenir": 7350,
      "Ġswit": 7351,
      "Ġillustr": 7352,
      "ĠaccroÃ®tre": 7353,
      "ĠsÃ»re": 7354,
      "ĠcollectivitÃ©": 7355,
      "ĠdÃ©mocratie": 7356,
      "Ġuser": 7357,
      "Ġstabil": 7358,
      "Ġcomplaint": 7359,
      "Ġindisp": 7360,
      "Ġpresentation": 7361,
      "Ġtribunaux": 7362,
      "Ġmari": 7363,
      "Ġvid": 7364,
      "ardi": 7365,
      "Ġhong": 7366,
      "Ġmessages": 7367,
      "eline": 7368,
      "west": 7369,
      "Ġconduite": 7370,
      "Ġnorme": 7371,
      "ennium": 7372,
      "ĠassociÃ©s": 7373,
      "Ġtemporary": 7374,
      "Ġolymp": 7375,
      "Ġflu": 7376,
      "Ġtemper": 7377,
      "Ġcombus": 7378,
      "Ġvess": 7379,
      "hÃ´tel": 7380,
      "Ġpouvant": 7381,
      "Ġtient": 7382,
      "Ġsignificantly": 7383,
      "Ġcrucial": 7384,
      "index": 7385,
      "Ã¤": 7386,
      "ĠmillÃ©n": 7387,
      "iennes": 7388,
      "person": 7389,
      "diff": 7390,
      "Ġquestionnaire": 7391,
      "Ġparliamentary": 7392,
      "Ġreconstruction": 7393,
      "Ġdatabase": 7394,
      "Ġsynth": 7395,
      "imb": 7396,
      "Ġelimin": 7397,
      "Ġchin": 7398,
      "fl": 7399,
      "Ġreviewed": 7400,
      "Ġsale": 7401,
      "Ġspr": 7402,
      "Ġpassage": 7403,
      "ilipp": 7404,
      "Ġunemploy": 7405,
      "Ġelectoral": 7406,
      "Ġcroati": 7407,
      "Ġendro": 7408,
      "Ġstor": 7409,
      "house": 7410,
      "cadre": 7411,
      "riting": 7412,
      "ĠtÃ©mo": 7413,
      "Ġcontaining": 7414,
      "Ġfacul": 7415,
      "Ġliter": 7416,
      "Ġfiled": 7417,
      "ports": 7418,
      "ĠexpÃ©rience": 7419,
      "Ġsoix": 7420,
      "paragraph": 7421,
      "with": 7422,
      "Ġimporte": 7423,
      "econom": 7424,
      "Ġchemin": 7425,
      "Ġconforme": 7426,
      "effet": 7427,
      "53": 7428,
      "Ġjobs": 7429,
      "Ġvillage": 7430,
      "Ġordonn": 7431,
      "ĠÃ©vÃ©nements": 7432,
      "Ġï": 7433,
      "Ġfos": 7434,
      "Ġportugal": 7435,
      "otidi": 7436,
      "ined": 7437,
      "oul": 7438,
      "Ã©rance": 7439,
      "Ġmauv": 7440,
      "Ġproven": 7441,
      "tÃ©rieures": 7442,
      "ĠprÃ©sentÃ©s": 7443,
      "Ġfishing": 7444,
      "Ġobserved": 7445,
      "Ġoffrir": 7446,
      "aider": 7447,
      "Ġnunav": 7448,
      "Ġpossibility": 7449,
      "Ġannounced": 7450,
      "Ġtimor": 7451,
      "ker": 7452,
      "Ġ($": 7453,
      "Ġbases": 7454,
      "ĠmillÃ©naire": 7455,
      "Ġexcept": 7456,
      "ĠÃ©limin": 7457,
      "Ġing": 7458,
      "Ġthings": 7459,
      "93": 7460,
      "enty": 7461,
      "Ġatteint": 7462,
      "Ġindispens": 7463,
      "Ġmillennium": 7464,
      "Ġcomprennent": 7465,
      "Ġstay": 7466,
      "Ġnova": 7467,
      "Ġappellant": 7468,
      "ĠreprÃ©sentent": 7469,
      "Ġpublish": 7470,
      "chement": 7471,
      "infrastructure": 7472,
      "Ġpercentage": 7473,
      "52": 7474,
      "ĠquantitÃ©": 7475,
      "excl": 7476,
      "Ġplaced": 7477,
      "Ġtrends": 7478,
      "Ġmeilleur": 7479,
      "Ġlu": 7480,
      "Ġplainte": 7481,
      "itec": 7482,
      "Ġexcellent": 7483,
      "Ġsemin": 7484,
      "asie": 7485,
      "Ġstanding": 7486,
      "Ġcorrect": 7487,
      "Ġengage": 7488,
      "Ġachieving": 7489,
      "aceu": 7490,
      "Ġanswer": 7491,
      "ieuses": 7492,
      "Ġvital": 7493,
      "Ġcoal": 7494,
      "Ġsemaines": 7495,
      "zone": 7496,
      "ĠaugmentÃ©": 7497,
      "Ġstable": 7498,
      "oke": 7499,
      "Ġimage": 7500,
      "orientation": 7501,
      "Ġ98": 7502,
      "Ġtourism": 7503,
      "Ġparole": 7504,
      "ĠnuclÃ©aire": 7505,
      "iring": 7506,
      "Ġsole": 7507,
      "Ġgoverning": 7508,
      "Ġconting": 7509,
      "oh": 7510,
      "Ġquotidi": 7511,
      "agers": 7512,
      "Ġuniversal": 7513,
      "ĠeuropÃ©ennes": 7514,
      "Ġclarif": 7515,
      "Ġauthorized": 7516,
      "92": 7517,
      "Ġtextes": 7518,
      "Ġobtenu": 7519,
      "Ġvenir": 7520,
      "Ġky": 7521,
      "Ġdiseases": 7522,
      "Ġinterpretation": 7523,
      "ierra": 7524,
      "Ġmexico": 7525,
      "levision": 7526,
      "aties": 7527,
      "Ġconsumers": 7528,
      "ĠsituÃ©": 7529,
      "octo": 7530,
      "Ġiran": 7531,
      "Ġresearchers": 7532,
      "Ġprotected": 7533,
      "ĠintÃ©rie": 7534,
      "Ġarc": 7535,
      "Ġkore": 7536,
      "Ġrequis": 7537,
      "Ġusage": 7538,
      "Ġstatistical": 7539,
      "ĠÃ®": 7540,
      "Ġparcs": 7541,
      "Ġdoing": 7542,
      "ĠprocÃ¨s": 7543,
      "Ġ1985": 7544,
      "Ġmind": 7545,
      "ĠlumiÃ¨re": 7546,
      "Ġcari": 7547,
      "certain": 7548,
      "Ġbarri": 7549,
      "Ġath": 7550,
      "Ġrub": 7551,
      "atlan": 7552,
      "Ġtom": 7553,
      "liminary": 7554,
      "Ġpreven": 7555,
      "Ġintell": 7556,
      "Ġintergovernmental": 7557,
      "ĠrÃ©percussions": 7558,
      "Ġscotia": 7559,
      "Ġsierra": 7560,
      "ĠcÃ´tÃ©": 7561,
      "visionnement": 7562,
      "Ġreducing": 7563,
      "Ġauxquels": 7564,
      "Ġlines": 7565,
      "Ġlicences": 7566,
      "ĠvÃ©hicule": 7567,
      "rog": 7568,
      "Ġconvic": 7569,
      "Ġbound": 7570,
      "note": 7571,
      "Ġfilles": 7572,
      "Ġsouther": 7573,
      "Ġcopies": 7574,
      "Ġsun": 7575,
      "Ġhu": 7576,
      "Ġmargin": 7577,
      "Ġappuyer": 7578,
      "itim": 7579,
      "adaptation": 7580,
      "Ġmagn": 7581,
      "Ġstations": 7582,
      "poth": 7583,
      "ĠminoritÃ©s": 7584,
      "cks": 7585,
      "Ġexamples": 7586,
      "Ġdign": 7587,
      "Ġprepare": 7588,
      "Ġexposure": 7589,
      "ington": 7590,
      "mal": 7591,
      "Ġ08": 7592,
      "Ġremed": 7593,
      "Ġsenti": 7594,
      "Ġshows": 7595,
      "Ġindeed": 7596,
      "Ġbiais": 7597,
      "oudre": 7598,
      "Ġheure": 7599,
      "Ġregrou": 7600,
      "Ġaccur": 7601,
      "Ġimmediately": 7602,
      "cp": 7603,
      "Ġprogramming": 7604,
      "acquis": 7605,
      "Ġmotifs": 7606,
      "Ã¡Ã¡": 7607,
      "Ġapplies": 7608,
      "itant": 7609,
      "Ġcomplaints": 7610,
      "ĠocÃ©": 7611,
      "Ġdamage": 7612,
      "Ġretraite": 7613,
      "ĠtempÃ©r": 7614,
      "Ġanimaux": 7615,
      "Ġfailure": 7616,
      "affaire": 7617,
      "Ġsatellite": 7618,
      "Ġrelief": 7619,
      "Ġrw": 7620,
      "tream": 7621,
      "Ġacting": 7622,
      "ĠconsidÃ©ration": 7623,
      "Ġgoing": 7624,
      "Ġtransparency": 7625,
      "anmoins": 7626,
      "Ġfourth": 7627,
      "Ġnegative": 7628,
      "Ġcut": 7629,
      "Ġbiblioth": 7630,
      "ional": 7631,
      "Ġhighest": 7632,
      "Ġgouvernementaux": 7633,
      "Ġsuffisamment": 7634,
      "Ġpatient": 7635,
      "Ġmembership": 7636,
      "ĠdÃ©rou": 7637,
      "Ġenterprises": 7638,
      "etherlands": 7639,
      "Ġslov": 7640,
      "Ã©riques": 7641,
      "Ġip": 7642,
      "Ġgrave": 7643,
      "ĠutilisÃ©e": 7644,
      "Ġwriting": 7645,
      "ĠdÃ©lais": 7646,
      "Ġpreliminary": 7647,
      "Ġinuit": 7648,
      "Ġregime": 7649,
      "iries": 7650,
      "Ġbis": 7651,
      "Ġbio": 7652,
      "Ġchoice": 7653,
      "Ġlond": 7654,
      "tiennent": 7655,
      "Ġexempl": 7656,
      "ige": 7657,
      "taux": 7658,
      "Ġnavigation": 7659,
      "ert": 7660,
      "ĠÃ©changes": 7661,
      "Ġmot": 7662,
      "ĠconsidÃ©rÃ©": 7663,
      "Ġdevra": 7664,
      "found": 7665,
      "Ġseven": 7666,
      "Ġcreating": 7667,
      "ĠsiÃ¨": 7668,
      "ĠÃ©chÃ©ant": 7669,
      "Ġblack": 7670,
      "Ġscale": 7671,
      "ĠnÃ©anmoins": 7672,
      "].": 7673,
      "Ġspor": 7674,
      "ĠeffectuÃ©": 7675,
      "unies": 7676,
      "enez": 7677,
      "Ġinvestments": 7678,
      "Ġswed": 7679,
      "Ġcomportement": 7680,
      "Ġcategories": 7681,
      "mises": 7682,
      "Ġconsequences": 7683,
      "Ġsoc": 7684,
      "Ġinternes": 7685,
      "icite": 7686,
      "Ġinfrastructures": 7687,
      "ams": 7688,
      "Ġinnovative": 7689,
      "Ġdisting": 7690,
      "Ġcaused": 7691,
      "Ġsports": 7692,
      "Ġculturels": 7693,
      "human": 7694,
      "Ġenhanced": 7695,
      "Ġadopter": 7696,
      "Ġgrat": 7697,
      "Ġwithdra": 7698,
      "ĠcompÃ©ti": 7699,
      "Ġdevices": 7700,
      "ĠprÃ©vus": 7701,
      "ĠjournÃ©e": 7702,
      "ĠadoptÃ©es": 7703,
      "ĠÃ©tablissement": 7704,
      "gne": 7705,
      "Ġhistorique": 7706,
      "Ġuses": 7707,
      "ĠÎ": 7708,
      "ĠÃ©valuations": 7709,
      "Ã©cos": 7710,
      "Ġbless": 7711,
      "autorisation": 7712,
      "Ġaddressing": 7713,
      "Ġgrounds": 7714,
      "Ġpct": 7715,
      "Ġbudgets": 7716,
      "Ġperfection": 7717,
      "Ġpaul": 7718,
      "Ġsupervis": 7719,
      "onia": 7720,
      "91": 7721,
      "cidents": 7722,
      "Ġvaste": 7723,
      "ĠdegrÃ©": 7724,
      "ĠÂ·": 7725,
      "achat": 7726,
      "spec": 7727,
      "exem": 7728,
      "Ġconstant": 7729,
      "Ġprochaine": 7730,
      "andum": 7731,
      "Ġgirls": 7732,
      "Ġray": 7733,
      "Ġproducers": 7734,
      "Ġimmobil": 7735,
      "Ġchose": 7736,
      "Ġwhereas": 7737,
      "Ġvois": 7738,
      "Ġ68": 7739,
      "Ġpoids": 7740,
      "Ġbrevets": 7741,
      "Ġgal": 7742,
      "Ġadvoc": 7743,
      "innipe": 7744,
      "Ġrecommends": 7745,
      "Ġadver": 7746,
      "pour": 7747,
      "cor": 7748,
      "Ġdoute": 7749,
      "pay": 7750,
      "Ġken": 7751,
      "212": 7752,
      "interprÃ©tation": 7753,
      "Ġcard": 7754,
      "Ġsubsequent": 7755,
      "Ġtreaties": 7756,
      "Ġitaly": 7757,
      "Ġukraine": 7758,
      "Ġphotograph": 7759,
      "acco": 7760,
      "arily": 7761,
      "Ġ1980": 7762,
      "Ġclosely": 7763,
      "Ġessais": 7764,
      "Ġdetermination": 7765,
      "itiÃ©": 7766,
      "lined": 7767,
      "agissant": 7768,
      "ierre": 7769,
      "Ġindia": 7770,
      "Ġmur": 7771,
      "Ġsubvention": 7772,
      "Ġplaintes": 7773,
      "innipeg": 7774,
      "Ġfes": 7775,
      "Ġminority": 7776,
      "Ġdirectorate": 7777,
      "ĠdÃ©tention": 7778,
      "Ġpattern": 7779,
      "ena": 7780,
      "Ġparfois": 7781,
      "ĠthÃ¨me": 7782,
      "argent": 7783,
      "Ġappointed": 7784,
      "Ġmenace": 7785,
      "ĠexÃ©cutif": 7786,
      "Ġconseill": 7787,
      "Ġparks": 7788,
      "Ġutilisant": 7789,
      "extÃ©rieur": 7790,
      "inv": 7791,
      "Ġsauv": 7792,
      "Ġvictor": 7793,
      "Ġ67": 7794,
      "Ġgraph": 7795,
      "Ġillegal": 7796,
      "Ġlength": 7797,
      "ĠconsidÃ¨re": 7798,
      "Ġcovenant": 7799,
      "iry": 7800,
      "ify": 7801,
      "nous": 7802,
      "grou": 7803,
      "Ġphilipp": 7804,
      "mc": 7805,
      "Ġchacune": 7806,
      "ĠâĢ¦": 7807,
      "ĠconsidÃ©rÃ©e": 7808,
      "Ġassistant": 7809,
      "Ġincom": 7810,
      "Ġluxem": 7811,
      "ĠmÃ©r": 7812,
      "Ġatt": 7813,
      "ĠrÃ©tabl": 7814,
      "play": 7815,
      "ush": 7816,
      "ĠdÃ©finiti": 7817,
      "Ġgains": 7818,
      "Ġdemeure": 7819,
      "ift": 7820,
      "idence": 7821,
      "ĠgÃ©rer": 7822,
      "Ġexportations": 7823,
      "Ġsyndic": 7824,
      "Ġremboursement": 7825,
      "Ġ62": 7826,
      "Ġclosed": 7827,
      "Ġguarante": 7828,
      "outes": 7829,
      "Ġtps": 7830,
      "atrice": 7831,
      "ireland": 7832,
      "ĠplÃ©n": 7833,
      "histoire": 7834,
      "Ġlate": 7835,
      "Ġelimination": 7836,
      "ĠcomitÃ©s": 7837,
      "Ġlibrary": 7838,
      "Ġclub": 7839,
      "sim": 7840,
      "Ġpetite": 7841,
      "gs": 7842,
      "Ġsomal": 7843,
      "Ġplants": 7844,
      "ĠapprÃ©": 7845,
      "Ġcompetent": 7846,
      "Ġconsumption": 7847,
      "Ġlimits": 7848,
      "inary": 7849,
      "Ġcentury": 7850,
      "Ã©lÃ©": 7851,
      "Ġaccueill": 7852,
      "Ġallocation": 7853,
      "intro": 7854,
      "zil": 7855,
      "Ġcourriel": 7856,
      "Ġrailway": 7857,
      "Ġacte": 7858,
      "Ġanimal": 7859,
      "ĠchargÃ©e": 7860,
      "ĠmÃ©n": 7861,
      "Ġsyri": 7862,
      "Ġfas": 7863,
      "hst": 7864,
      "1997": 7865,
      "bile": 7866,
      "ĠdÃ©plac": 7867,
      "Ġtendances": 7868,
      "ĠbudgÃ©taires": 7869,
      "ilt": 7870,
      "Ġdigital": 7871,
      "Ġqualifications": 7872,
      "Ġcarib": 7873,
      "ĠfÃ©licite": 7874,
      "Ġreconnu": 7875,
      "Ġmotiv": 7876,
      "Ġaffich": 7877,
      "ĠdÃ©tail": 7878,
      "ĠÃ©lectroniques": 7879,
      "ĠvÃ©ritable": 7880,
      "Ġsuspend": 7881,
      "Ġtenant": 7882,
      "ĠdÃ©g": 7883,
      "Ġpotentiel": 7884,
      "Ġmouvement": 7885,
      "Ġconcr": 7886,
      "Ġchlor": 7887,
      "ĠÃ©chantill": 7888,
      "ĠsÃ©min": 7889,
      "usage": 7890,
      "ĠintÃ©grÃ©e": 7891,
      "Ġretr": 7892,
      "ky": 7893,
      "ĠimmÃ©diatement": 7894,
      "economic": 7895,
      "Ġsort": 7896,
      "Ġextended": 7897,
      "Ġprovinciaux": 7898,
      "Ġaway": 7899,
      "Ġaient": 7900,
      "ĠtÃ©m": 7901,
      "Ġtendance": 7902,
      "Ġlutter": 7903,
      "oper": 7904,
      "Ġrecipient": 7905,
      "Ġbilateral": 7906,
      "Ġcash": 7907,
      "Ġnumer": 7908,
      "ĠcomprÃ©": 7909,
      "Ġsample": 7910,
      "ĠcomprÃ©hen": 7911,
      "Ġprofessionnel": 7912,
      "ĠprÃ©limin": 7913,
      "four": 7914,
      "Ġbudgetary": 7915,
      "Ġweeks": 7916,
      "Ġliquid": 7917,
      "Ġsouthern": 7918,
      "Ġlaiss": 7919,
      "trice": 7920,
      "Ġtwenty": 7921,
      "Ġdealing": 7922,
      "exposition": 7923,
      "Ġbru": 7924,
      "Ġindiquer": 7925,
      "inking": 7926,
      "law": 7927,
      "pect": 7928,
      "Ġimpr": 7929,
      "ĠphÃ©n": 7930,
      "ĠquatriÃ¨me": 7931,
      "marily": 7932,
      "ĠprÃ©jud": 7933,
      "Ġpowers": 7934,
      "Ġtelevision": 7935,
      "Ġpreviously": 7936,
      "approbation": 7937,
      "Ġoperate": 7938,
      "ĠÃ©viter": 7939,
      "Ġpression": 7940,
      "Ġambass": 7941,
      "Ġcabinet": 7942,
      "Ġinscr": 7943,
      "Ġcadres": 7944,
      "fp": 7945,
      "ĠbÃ©nÃ©ficier": 7946,
      "ĠsÃ©ances": 7947,
      "Ġ400": 7948,
      "ĠconcernÃ©s": 7949,
      "dem": 7950,
      "bus": 7951,
      "Ġgros": 7952,
      "Ã©rÃ©e": 7953,
      "ĠvisÃ©es": 7954,
      "Ġdette": 7955,
      "Ġanticip": 7956,
      "Ġfight": 7957,
      "Ġmd": 7958,
      "Ġsummer": 7959,
      "ĠÃ©vid": 7960,
      "ĠÃ©lÃ¨ves": 7961,
      "Ġcopyright": 7962,
      "Ġrecruit": 7963,
      "ĠrÃ©gimes": 7964,
      "iction": 7965,
      "eneur": 7966,
      "Ġnetherlands": 7967,
      "Ġpilot": 7968,
      "Ġbehaviour": 7969,
      "ĠchaÃ®": 7970,
      "Ġabord": 7971,
      "Ġalco": 7972,
      "ĠdÃ©fic": 7973,
      "immigration": 7974,
      "Ġidentity": 7975,
      "Ġouvert": 7976,
      "ĠdiffÃ©rences": 7977,
      "ration": 7978,
      "Ġcontem": 7979,
      "Ġmaur": 7980,
      "ĠhÃ´": 7981,
      "Ġrepresented": 7982,
      "Ġpic": 7983,
      "ĠhÃ´tel": 7984,
      "Ġracial": 7985,
      "ĠdÃ©termination": 7986,
      "Ġwash": 7987,
      "Ġfloor": 7988,
      "Ġdevenir": 7989,
      "Ġcompetitive": 7990,
      "terror": 7991,
      "Ġgarantie": 7992,
      "Ġprince": 7993,
      "Ġrecens": 7994,
      "ĠinvitÃ©": 7995,
      "Ġvingt": 7996,
      "ba": 7997,
      "cents": 7998,
      "Ġrecrutement": 7999,
      "Ġtrial": 8000,
      "point": 8001,
      "Ġneigh": 8002,
      "Ġsac": 8003,
      "ĠdÃ©tails": 8004,
      "Ġauquel": 8005,
      "ettes": 8006,
      "Ġmodes": 8007,
      "ev": 8008,
      "Ġoccu": 8009,
      "Ġbass": 8010,
      "Ġexercice": 8011,
      "dan": 8012,
      "ori": 8013,
      "Ġadvertis": 8014,
      "Ġfourniture": 8015,
      "Ġtobacco": 8016,
      "Ġtirer": 8017,
      "Ġavailability": 8018,
      "Ġsupprim": 8019,
      "Ġcotis": 8020,
      "Ġpresque": 8021,
      "Ġask": 8022,
      "md": 8023,
      "Ġessentiellement": 8024,
      "ests": 8025,
      "Ġexces": 8026,
      "Ġentrepreneurs": 8027,
      "esprit": 8028,
      "Ġbrunswick": 8029,
      "Ġhousehold": 8030,
      "Ġundp": 8031,
      "Ġspain": 8032,
      "Ġireland": 8033,
      "Ġcapable": 8034,
      "hc": 8035,
      "Ġturkey": 8036,
      "Ġendors": 8037,
      "voi": 8038,
      "Ġpertinents": 8039,
      "instru": 8040,
      "orable": 8041,
      "ĠprÃ©sentÃ©es": 8042,
      "Ġbig": 8043,
      "Ġrepos": 8044,
      "ÂłÂł": 8045,
      "Ġworked": 8046,
      "adhÃ©sion": 8047,
      "endum": 8048,
      "ĠÃ©levÃ©s": 8049,
      "after": 8050,
      "Ġsupervision": 8051,
      "ĠÃ©quitable": 8052,
      "Ġsqu": 8053,
      "Ġlocale": 8054,
      "Ġreligious": 8055,
      "ĠdÃ©cenn": 8056,
      "gy": 8057,
      "Ġnar": 8058,
      "Ġcouver": 8059,
      "ni": 8060,
      "Ġprie": 8061,
      "ĠprÃ©sidente": 8062,
      "ĠprÃ©alable": 8063,
      "gÃ©e": 8064,
      "Ġsomme": 8065,
      "Ġ64": 8066,
      "Ġdavid": 8067,
      "Ġannuelle": 8068,
      "Ġpossibles": 8069,
      "Ġaccounting": 8070,
      "Ġaspect": 8071,
      "Ã³n": 8072,
      "ĠrÃ©clam": 8073,
      "pper": 8074,
      "Ġreflec": 8075,
      "Ġ63": 8076,
      "Ġgrants": 8077,
      "Ġdates": 8078,
      "elon": 8079,
      "%.": 8080,
      "ĠmaÃ®": 8081,
      "ĠrÃ©ception": 8082,
      "ĠlimitÃ©e": 8083,
      "Ġsharing": 8084,
      "approche": 8085,
      "Ġconfidence": 8086,
      "ĠintÃ©rim": 8087,
      "ros": 8088,
      "Ġnunavut": 8089,
      "Ġimmediate": 8090,
      "Ġcourses": 8091,
      "Ġfoster": 8092,
      "orge": 8093,
      "Ġhear": 8094,
      "Ã§ons": 8095,
      "Ġoui": 8096,
      "Ġresponses": 8097,
      "ĠsÃ»retÃ©": 8098,
      "Ġgol": 8099,
      "Ġwaters": 8100,
      "Ġutilise": 8101,
      "habilitation": 8102,
      "antive": 8103,
      "800": 8104,
      "ĠvisÃ©s": 8105,
      "Ġhausse": 8106,
      "Ġfaudrait": 8107,
      "ĠvidÃ©": 8108,
      "top": 8109,
      "Ġpouvait": 8110,
      "ĠspÃ©ciaux": 8111,
      "Ġrational": 8112,
      "Ġclimatiques": 8113,
      "Ġchann": 8114,
      "Ġ06": 8115,
      "Ġimpliqu": 8116,
      "Ġfields": 8117,
      "Ġelectric": 8118,
      "proli": 8119,
      "Ġportion": 8120,
      "Ġprimarily": 8121,
      "Ġallows": 8122,
      "Ġpunish": 8123,
      "cast": 8124,
      "Ġaccompagn": 8125,
      "Ġgard": 8126,
      "Ġpensions": 8127,
      "ĠrÃ©cent": 8128,
      "utor": 8129,
      "Ġupdated": 8130,
      "aborer": 8131,
      "Ġnaiss": 8132,
      "esses": 8133,
      "aging": 8134,
      "Ġsecondary": 8135,
      "Ġfeatures": 8136,
      "ĠprÃ©cise": 8137,
      "Ġquoi": 8138,
      "Ġleone": 8139,
      "estation": 8140,
      "Ġgestionnaires": 8141,
      "novem": 8142,
      "Ã©rÃ©es": 8143,
      "hal": 8144,
      "Ġmontants": 8145,
      "Ġradi": 8146,
      "Ġdead": 8147,
      "Ġspecialized": 8148,
      "Ġluxembourg": 8149,
      "Ġtargets": 8150,
      "ĠÃ©lector": 8151,
      "Ġdelay": 8152,
      "ĠpÃ©nal": 8153,
      "ĠprÃ©parer": 8154,
      "Ġcertificate": 8155,
      "contin": 8156,
      "ĠsÃ©n": 8157,
      "Ġimpossible": 8158,
      "oure": 8159,
      "Ġobligatoire": 8160,
      "Ġsubstantive": 8161,
      "ouss": 8162,
      "Ġeau": 8163,
      "Ġmobile": 8164,
      "Ġalimentaires": 8165,
      "han": 8166,
      "Ġcharacteristics": 8167,
      "Ġregards": 8168,
      "Ġadvantage": 8169,
      "Ġtch": 8170,
      "ouverne": 8171,
      "Ġheart": 8172,
      "Ġcomply": 8173,
      "87": 8174,
      "ĠmodifiÃ©": 8175,
      "Ġannivers": 8176,
      "uds": 8177,
      "installation": 8178,
      "Ġcarbon": 8179,
      "Ġenough": 8180,
      "eler": 8181,
      "alberta": 8182,
      "Ġdil": 8183,
      "Ġpharmaceu": 8184,
      "Ã©valuer": 8185,
      "Ġcommence": 8186,
      "rons": 8187,
      "Ġtransaction": 8188,
      "Ġbiotechn": 8189,
      "Ġsure": 8190,
      "ĠÃ©cl": 8191,
      "Ġfocused": 8192,
      "Ã´ts": 8193,
      "arri": 8194,
      "Ġmains": 8195,
      "prin": 8196,
      "ilibre": 8197,
      "Ã©quipement": 8198,
      "Ġkg": 8199,
      "ray": 8200,
      "Ġadminister": 8201,
      "Ġalign": 8202,
      "Ġdeem": 8203,
      "Ġplate": 8204,
      "Ġcau": 8205,
      "lying": 8206,
      "Ġfacteur": 8207,
      "Ġclasses": 8208,
      "Ġtitulaire": 8209,
      "alimentation": 8210,
      "Ġsense": 8211,
      "arus": 8212,
      "Ġaccrue": 8213,
      "foundland": 8214,
      "dam": 8215,
      "Ġopening": 8216,
      "Ġequity": 8217,
      "Ġreb": 8218,
      "Ġever": 8219,
      "Ġsimply": 8220,
      "redi": 8221,
      "mr": 8222,
      "Ġinstallation": 8223,
      "Ġlabrador": 8224,
      "arr": 8225,
      "Ġbed": 8226,
      "Ġextension": 8227,
      "Ġheav": 8228,
      "ĠfrontiÃ¨res": 8229,
      "Ġbirth": 8230,
      "Ġfee": 8231,
      "Ġusually": 8232,
      "Ġbenefic": 8233,
      "Ġmarques": 8234,
      "Ġpayer": 8235,
      "ĠillÃ©g": 8236,
      "Ġplat": 8237,
      "Ġleader": 8238,
      "Ġ87": 8239,
      "Ġtables": 8240,
      "incid": 8241,
      "Ġsuisse": 8242,
      "ĠforÃªts": 8243,
      "Ġimages": 8244,
      "Ġaccordingly": 8245,
      "fully": 8246,
      "Ġconseiller": 8247,
      "fait": 8248,
      "Ġincreasingly": 8249,
      "Ġreceiving": 8250,
      "Ġlives": 8251,
      "Ġcibl": 8252,
      "Ã¨lement": 8253,
      "ĠÃ©tablie": 8254,
      "Ġabst": 8255,
      "Ġsimplement": 8256,
      "Ġvendre": 8257,
      "gary": 8258,
      "tements": 8259,
      "Ġvirus": 8260,
      "Ġstorage": 8261,
      "Ġfixed": 8262,
      "uves": 8263,
      "ĠconÃ§": 8264,
      "Ġexplor": 8265,
      "Ġreviews": 8266,
      "Ġrecorded": 8267,
      "Ġtv": 8268,
      "Ġadjoint": 8269,
      "Ġclause": 8270,
      "Ã©laborer": 8271,
      "Ġpasseng": 8272,
      "Ġlaunched": 8273,
      "ĠÃ©tape": 8274,
      "85": 8275,
      "oncer": 8276,
      "Ġretain": 8277,
      "Ã®le": 8278,
      "pit": 8279,
      "Ġfirm": 8280,
      "Ġlarger": 8281,
      "Ġorganizational": 8282,
      "Ġreproduction": 8283,
      "Ġbiling": 8284,
      "Ġdraf": 8285,
      "Ġassessments": 8286,
      "ycl": 8287,
      "Ġmultiple": 8288,
      "Ġentities": 8289,
      "Ġmodels": 8290,
      "ĠtÃ©lÃ©vision": 8291,
      "Ġargen": 8292,
      "Ġcomplainant": 8293,
      "Ġdistinct": 8294,
      "rec": 8295,
      "Ġbol": 8296,
      "Ġaustralia": 8297,
      "elt": 8298,
      "juin": 8299,
      "Ġculturelles": 8300,
      "approvisionnement": 8301,
      "Ġexemples": 8302,
      "Ġtonnes": 8303,
      "Ġloin": 8304,
      "inspection": 8305,
      "Ġformulation": 8306,
      "Ġcounsel": 8307,
      "Ġtemporaire": 8308,
      "Ġofficielle": 8309,
      "Ġdivid": 8310,
      "ĠdÃ£": 8311,
      "Ġpnud": 8312,
      "Ġlargest": 8313,
      "Ġclinical": 8314,
      "Ġtimely": 8315,
      "Ġfestiv": 8316,
      "Ġconferences": 8317,
      "vÃ©": 8318,
      "Ġencouraged": 8319,
      "Ġinclusion": 8320,
      "Ġong": 8321,
      "Ġmotor": 8322,
      "Ġbours": 8323,
      "Ġfiles": 8324,
      "offre": 8325,
      "septem": 8326,
      "Ġdistinction": 8327,
      "ĠÃ©tablis": 8328,
      "ĠcommencÃ©": 8329,
      "Ġvilles": 8330,
      "amp": 8331,
      "ignant": 8332,
      "Ġcombined": 8333,
      "ffis": 8334,
      "Ġfit": 8335,
      "Ġaer": 8336,
      "Ġregistre": 8337,
      "Ġreserv": 8338,
      "Ġbag": 8339,
      "Ġwitness": 8340,
      "Ġdetention": 8341,
      "Ġache": 8342,
      "Ġemplois": 8343,
      "idential": 8344,
      "atri": 8345,
      "Ġdirigeants": 8346,
      "Ġaccept": 8347,
      "ald": 8348,
      "uled": 8349,
      "mm": 8350,
      "Ġcihr": 8351,
      "Ġrestruct": 8352,
      "ĠrÃ©guliÃ¨rement": 8353,
      "Ġwinnipeg": 8354,
      "contre": 8355,
      "Ġrepresentation": 8356,
      "Ġcollege": 8357,
      "Ġgamme": 8358,
      "Ġprati": 8359,
      "Ġmail": 8360,
      "Ġbc": 8361,
      "sification": 8362,
      "Ġelse": 8363,
      "Ġquelles": 8364,
      "Ġcontrols": 8365,
      "ĠprÃ©cÃ©dent": 8366,
      "Ġsubstantial": 8367,
      "ĠrÃ©ussi": 8368,
      "Ġbrazil": 8369,
      "Ġefficacement": 8370,
      "Ġobtenus": 8371,
      "Ġenl": 8372,
      "Ġcoming": 8373,
      "Ġbecame": 8374,
      "Ġrecouv": 8375,
      "Ġcoverage": 8376,
      "Ġstra": 8377,
      "gent": 8378,
      "tead": 8379,
      "plus": 8380,
      "Ġlatin": 8381,
      "illing": 8382,
      "Ġcomparative": 8383,
      "Ġbell": 8384,
      "Ġsignifie": 8385,
      "Ġrespectivement": 8386,
      "Ġrespectively": 8387,
      "Ġrc": 8388,
      "Ġimportations": 8389,
      "Ġnutrition": 8390,
      "Ġsafegu": 8391,
      "hydro": 8392,
      "Ġgran": 8393,
      "mem": 8394,
      "Ġ1986": 8395,
      "ĠmÃ©dicaux": 8396,
      "force": 8397,
      "Ġremplir": 8398,
      "Ġvoc": 8399,
      "internet": 8400,
      "ĠÃ©laborÃ©": 8401,
      "hon": 8402,
      "Ġradiodiff": 8403,
      "eront": 8404,
      "Ġmanage": 8405,
      "Ġsond": 8406,
      "operation": 8407,
      "Ġhun": 8408,
      "Ġblood": 8409,
      "ĠsiÃ¨cle": 8410,
      "Ġ150": 8411,
      "Ġlargement": 8412,
      "Ġmainly": 8413,
      "Ġmatern": 8414,
      "Ġchris": 8415,
      "fo": 8416,
      "Ġveut": 8417,
      "ĠunitÃ©s": 8418,
      "Ġrace": 8419,
      "Ġliti": 8420,
      "ĠbudgÃ©taire": 8421,
      "tist": 8422,
      "Ġmotion": 8423,
      "delÃł": 8424,
      "Ġnour": 8425,
      "Ġcivilian": 8426,
      "Ġcompletion": 8427,
      "Ġquarter": 8428,
      "pris": 8429,
      "Ġ97": 8430,
      "Ġvulnerable": 8431,
      "Ġfinanc": 8432,
      "ĠvÃ©rifier": 8433,
      "Ã©sil": 8434,
      "Ġecos": 8435,
      "Ġdisability": 8436,
      "Ã´mage": 8437,
      "Ã©tats": 8438,
      "Ġadolescents": 8439,
      "Ġinscrit": 8440,
      "Ġjeux": 8441,
      "Ġsoumettre": 8442,
      "Ġspeed": 8443,
      "Ġincreases": 8444,
      "ĠappropriÃ©es": 8445,
      "Â®": 8446,
      "Ġsuppli": 8447,
      "Ġvoix": 8448,
      "Ġconstitutional": 8449,
      "Ġparall": 8450,
      "Ġbande": 8451,
      "Ġchamber": 8452,
      "Ġupdate": 8453,
      "Ġraisonnable": 8454,
      "Ġexha": 8455,
      "Ġbroadcasting": 8456,
      "affect": 8457,
      "Ġtrue": 8458,
      "ĠcomprÃ©hension": 8459,
      "Ġsend": 8460,
      "Ġacknowled": 8461,
      "Ġopinions": 8462,
      "Ġpourront": 8463,
      "Ġcomplement": 8464,
      "Ġpul": 8465,
      "Ġpilo": 8466,
      "Ġexpansion": 8467,
      "Ġaffili": 8468,
      "Ġvent": 8469,
      "Ġweight": 8470,
      "Ġnic": 8471,
      "greg": 8472,
      "lent": 8473,
      "Ġnurs": 8474,
      "ĠlancÃ©": 8475,
      "istique": 8476,
      "Ġfigures": 8477,
      "Ġinvestigations": 8478,
      "Ġrare": 8479,
      "Ġvolunte": 8480,
      "Ġwhom": 8481,
      "Ġconstitutionn": 8482,
      "Ġscru": 8483,
      "ensions": 8484,
      "Ġlearn": 8485,
      "Ġcommis": 8486,
      "ested": 8487,
      "Ġnewfoundland": 8488,
      "Ġassez": 8489,
      "Ġhealthy": 8490,
      "Ġconvainc": 8491,
      "Ġapparten": 8492,
      "Ġbanks": 8493,
      "public": 8494,
      "Ġtourisme": 8495,
      "Ġceci": 8496,
      "Ġadvanced": 8497,
      "Ġbaisse": 8498,
      "ĠÃ©quipe": 8499,
      "Ġimmigrants": 8500,
      "Ġbrid": 8501,
      "Ġlinked": 8502,
      "Ġfemale": 8503,
      "Ġdispositifs": 8504,
      "Ġdivulgation": 8505,
      "Ġexprim": 8506,
      "Ġpouvons": 8507,
      "ym": 8508,
      "Ġjury": 8509,
      "Ġexports": 8510,
      "ataire": 8511,
      "Ġimprovements": 8512,
      "Ġdelivered": 8513,
      "Ġpertes": 8514,
      "Ġacteurs": 8515,
      "ĠrÃ©uss": 8516,
      "Ġurgent": 8517,
      "Ġcenter": 8518,
      "Ġ\\": 8519,
      "Ġpc": 8520,
      "times": 8521,
      "ĠnotÃ©": 8522,
      "unicef": 8523,
      "Ġnames": 8524,
      "Ġinterim": 8525,
      "Ġdifference": 8526,
      "Ġdifficulties": 8527,
      "Ġnoter": 8528,
      "Ġmeasurement": 8529,
      "observ": 8530,
      "Ġenfant": 8531,
      "igu": 8532,
      "itement": 8533,
      "observation": 8534,
      "Ġexpor": 8535,
      "ĠmoitiÃ©": 8536,
      "Ġoverview": 8537,
      "ael": 8538,
      "rapp": 8539,
      "Ġcertificat": 8540,
      "ford": 8541,
      "ifax": 8542,
      "Ġ05": 8543,
      "ĠinfÃ©ri": 8544,
      "auche": 8545,
      "Ġhonourable": 8546,
      "Ã©taient": 8547,
      "Ġauront": 8548,
      "Ġcp": 8549,
      "umes": 8550,
      "Ġentendu": 8551,
      "ettre": 8552,
      "Ġfifth": 8553,
      "Ġgeorg": 8554,
      "Ġmutual": 8555,
      "ĠcontribuÃ©": 8556,
      "Ġirsc": 8557,
      "istent": 8558,
      "ormais": 8559,
      "Ġrelatively": 8560,
      "Ġintegrity": 8561,
      "Ġprochain": 8562,
      "Ġdonateurs": 8563,
      "Ġemerging": 8564,
      "Ġmexique": 8565,
      "Ġentered": 8566,
      "Ġadmissibles": 8567,
      "ĠrelÃ¨ve": 8568,
      "Ġesc": 8569,
      "Ġtrouvent": 8570,
      "Ġfigurent": 8571,
      "ĠÃ©tapes": 8572,
      "tically": 8573,
      "Ġbanc": 8574,
      "appliquent": 8575,
      "Ġhorizont": 8576,
      "Ġaccompan": 8577,
      "Ġprint": 8578,
      "acture": 8579,
      "Ġbiological": 8580,
      "Ġsuspension": 8581,
      "Ġappuy": 8582,
      "anger": 8583,
      "Ġpren": 8584,
      "tone": 8585,
      "entente": 8586,
      "Ġindependence": 8587,
      "gue": 8588,
      "Ġrh": 8589,
      "ĠspÃ©cifique": 8590,
      "Ġbegan": 8591,
      "Ġcourant": 8592,
      "pal": 8593,
      "Ġbiennal": 8594,
      "Ã©rone": 8595,
      "ĠdÃ©bats": 8596,
      "Ġharm": 8597,
      "ĠreprÃ©sentation": 8598,
      "Ġrurales": 8599,
      "prÃ©sident": 8600,
      "Ġassessed": 8601,
      "Ġphil": 8602,
      "Ġmontreal": 8603,
      "Ġopposition": 8604,
      "ĠsignÃ©": 8605,
      "Ġgouverne": 8606,
      "Ġfro": 8607,
      "ighting": 8608,
      "ĠtÃ¢che": 8609,
      "Ġhuit": 8610,
      "Ġneuf": 8611,
      "Ġgaranties": 8612,
      "Ġsuggestions": 8613,
      "Ġessentiels": 8614,
      "Ġbrevet": 8615,
      "Ġarabe": 8616,
      "acquisition": 8617,
      "Ġturquie": 8618,
      "Ġbanques": 8619,
      "Ġben": 8620,
      "Ġmeilleures": 8621,
      "Ġphotos": 8622,
      "resh": 8623,
      "Ġextrem": 8624,
      "Ġprivil": 8625,
      "Ġreleased": 8626,
      "Ġnotif": 8627,
      "harmon": 8628,
      "Ġservi": 8629,
      "Ġimports": 8630,
      "sities": 8631,
      "ĠcinquiÃ¨me": 8632,
      "Ġcame": 8633,
      "Ġterrorist": 8634,
      "rop": 8635,
      "Ġaband": 8636,
      "commit": 8637,
      "tabilitÃ©": 8638,
      "Ġ78": 8639,
      "Ġnov": 8640,
      "Ġrob": 8641,
      "Ġeconomies": 8642,
      "Ġconsiderable": 8643,
      "entiel": 8644,
      "Ġcoast": 8645,
      "Ġinput": 8646,
      "including": 8647,
      "ĠdÃ©cret": 8648,
      "ordonn": 8649,
      "Ġconsiders": 8650,
      "Ġresidence": 8651,
      "Ġmarqu": 8652,
      "ĠdÃ©sormais": 8653,
      "Ġsoixante": 8654,
      "Ġvideo": 8655,
      "Ġdistribu": 8656,
      "Ġdomic": 8657,
      "enary": 8658,
      "Ġwall": 8659,
      "utation": 8660,
      "Ġrevend": 8661,
      "loi": 8662,
      "1996": 8663,
      "omc": 8664,
      "affectation": 8665,
      "Ġcontinent": 8666,
      "zerland": 8667,
      "Ġexplan": 8668,
      "Ġnavires": 8669,
      "Ġkorea": 8670,
      "Ġweak": 8671,
      "Ġregret": 8672,
      "Ġretard": 8673,
      "opin": 8674,
      "Ġtourn": 8675,
      "Ġnit": 8676,
      "Ġclimat": 8677,
      "Ġfirms": 8678,
      "six": 8679,
      "Ġsurr": 8680,
      "Ġreceip": 8681,
      "ĠrÃ©gler": 8682,
      "Ġchiffres": 8683,
      "tiÃ¨me": 8684,
      "Ġrefl": 8685,
      "Ġrestaurant": 8686,
      "Ġexistence": 8687,
      "rist": 8688,
      "Ġfunded": 8689,
      "Ġscreening": 8690,
      "ĠcriminalitÃ©": 8691,
      "room": 8692,
      "Ġwelcomes": 8693,
      "Ġministerial": 8694,
      "Ġgiving": 8695,
      "bly": 8696,
      "Ġadultes": 8697,
      "nu": 8698,
      "enders": 8699,
      "Ġresulted": 8700,
      "ecd": 8701,
      "emp": 8702,
      "Ġpm": 8703,
      "Ġpayable": 8704,
      "ĠlibertÃ©s": 8705,
      "Ġincorporated": 8706,
      "Ġtaxation": 8707,
      "audi": 8708,
      "ĠÂłÂł": 8709,
      "Ġtransnational": 8710,
      "Ġadministrations": 8711,
      "Ġhazard": 8712,
      "Ġcarrying": 8713,
      "Ġremise": 8714,
      "Ġpackage": 8715,
      "Ġbonnes": 8716,
      "Ġhall": 8717,
      "Ġbiennium": 8718,
      "Ġprofessionals": 8719,
      "Ġpartis": 8720,
      "Ġ963": 8721,
      "rance": 8722,
      "ĠorganisÃ©e": 8723,
      "Ġign": 8724,
      "ĠdÃ©ployÃ©s": 8725,
      "Ġconcrete": 8726,
      "Ġlicense": 8727,
      "Ġmarri": 8728,
      "identification": 8729,
      "Ġacquisition": 8730,
      "ĠmultilatÃ©r": 8731,
      "Ġran": 8732,
      "Ġ%)": 8733,
      "prof": 8734,
      "non": 8735,
      "ching": 8736,
      "Ġmold": 8737,
      "asions": 8738,
      "ĠrÃ©soudre": 8739,
      "entretien": 8740,
      "ault": 8741,
      "Ġluc": 8742,
      "Ġmanufacture": 8743,
      "Ġtunis": 8744,
      "Ġadh": 8745,
      "ĠtÃ©moign": 8746,
      "ĠrÃ©formes": 8747,
      "ĠcommuniquÃ©": 8748,
      "ĠentitÃ©s": 8749,
      "kh": 8750,
      "Ġrelever": 8751,
      "Ġressor": 8752,
      "Ġincidences": 8753,
      "Ġtravaille": 8754,
      "Ġ03": 8755,
      "itecture": 8756,
      "Ġremaining": 8757,
      "Ġpoursuite": 8758,
      "rev": 8759,
      "uv": 8760,
      "Ġdeposit": 8761,
      "wood": 8762,
      "ĠcorÃ©e": 8763,
      "intermÃ©diaire": 8764,
      "pendance": 8765,
      "Ġrepresents": 8766,
      "Ġamendements": 8767,
      "Ġculturelle": 8768,
      "Ġeight": 8769,
      "=\"": 8770,
      "Ġengineering": 8771,
      "ĠvisÃ©e": 8772,
      "Ġdevront": 8773,
      "ĠuniversitÃ©": 8774,
      "Ġofferts": 8775,
      "Ġfondation": 8776,
      "Ġtasks": 8777,
      "Ġachievement": 8778,
      "Ġventes": 8779,
      "Ġpose": 8780,
      "Ġdiminution": 8781,
      "Ġsalari": 8782,
      "Ġmachines": 8783,
      "lib": 8784,
      "Ġalia": 8785,
      "Ġmaintained": 8786,
      "Ġtabac": 8787,
      "Ġcommuns": 8788,
      "ĠisraÃ«l": 8789,
      "ĠdÃ©cÃ¨s": 8790,
      "Ġcollected": 8791,
      "ĠhandicapÃ©es": 8792,
      "Ġpip": 8793,
      "ĠadressÃ©e": 8794,
      "fied": 8795,
      "Ġseason": 8796,
      "Ġmaintaining": 8797,
      "Ġhistoric": 8798,
      "Ġwildlife": 8799,
      "Ġpossession": 8800,
      "Ġindispensable": 8801,
      "Ġinjury": 8802,
      "Ġtouchant": 8803,
      "Ġinterpre": 8804,
      "Ġislands": 8805,
      "Ġenvironnementales": 8806,
      "Ġhumain": 8807,
      "ĠsupÃ©rieure": 8808,
      "Ġcrois": 8809,
      "Ġcorporations": 8810,
      "Ġchoses": 8811,
      "Ġproxim": 8812,
      "free": 8813,
      "tina": 8814,
      "Ġstructural": 8815,
      "Ġmanufactur": 8816,
      "sight": 8817,
      "identitÃ©": 8818,
      "Ġdispute": 8819,
      "Ġcalendrier": 8820,
      "Ġquite": 8821,
      "Ġ07": 8822,
      "unesse": 8823,
      "Ġdouanes": 8824,
      "ĠdestinÃ©es": 8825,
      "âĢ¦âĢ¦âĢ¦âĢ¦âĢ¦âĢ¦âĢ¦âĢ¦": 8826,
      "Ġaccomplis": 8827,
      "Ġundertaking": 8828,
      "ĠÃ©tablies": 8829,
      "ĠdÃ©terminÃ©": 8830,
      "Ġenvers": 8831,
      "oa": 8832,
      "anish": 8833,
      "ĠÃ©duc": 8834,
      "Ġunemployment": 8835,
      "monton": 8836,
      "Ġdirecteurs": 8837,
      "Ġexcellence": 8838,
      "Ġwhe": 8839,
      "Ġbiom": 8840,
      "Ġconsidering": 8841,
      "Ġerre": 8842,
      "Ġcalgary": 8843,
      "Ġrise": 8844,
      "ĠestimÃ©": 8845,
      "trique": 8846,
      "etage": 8847,
      "Ġmountain": 8848,
      "Ġrobert": 8849,
      "Ġcareer": 8850,
      "Ġaustri": 8851,
      "Ġprobablement": 8852,
      "Ġchances": 8853,
      "don": 8854,
      "Ġaccession": 8855,
      "Ġactuelles": 8856,
      "ĠocÃ©ans": 8857,
      "Ġecosystem": 8858,
      "ophob": 8859,
      "ĠinformÃ©": 8860,
      "mÃªmes": 8861,
      "Ġstudent": 8862,
      "Ġaper": 8863,
      "Ġcartes": 8864,
      "Ġassurance": 8865,
      "ĠprÃªt": 8866,
      "care": 8867,
      "Ġminorities": 8868,
      "Ġconjoint": 8869,
      "stand": 8870,
      "acces": 8871,
      "Ġairport": 8872,
      "ĠprÃ©sentes": 8873,
      "ĠbrÃ©sil": 8874,
      "sen": 8875,
      "rane": 8876,
      "Ġfutures": 8877,
      "Ġfle": 8878,
      "ĠentiÃ¨rement": 8879,
      "Ġfell": 8880,
      "Ġnumerous": 8881,
      "Ġinstances": 8882,
      "dule": 8883,
      "Ġfinancer": 8884,
      "Ġterroristes": 8885,
      "Ġfurn": 8886,
      "Ġpurchase": 8887,
      "entreprises": 8888,
      "Ġpauvres": 8889,
      "Ġemphasis": 8890,
      "Ġactivement": 8891,
      "Ġquels": 8892,
      "agir": 8893,
      "Ġforth": 8894,
      "octobre": 8895,
      "Ġhistorical": 8896,
      "Ġliability": 8897,
      "Ġadministratif": 8898,
      "employeur": 8899,
      "Ã©nagement": 8900,
      "hors": 8901,
      "bean": 8902,
      "Ġrevenues": 8903,
      "Ġinstead": 8904,
      "Ġthir": 8905,
      "Ġsoil": 8906,
      "ilib": 8907,
      "Ġsexuelle": 8908,
      "Ġlicens": 8909,
      "Ġanimals": 8910,
      "ĠprocÃ©dÃ©": 8911,
      "itations": 8912,
      "ĠrÃ©sidence": 8913,
      "Ġrecruitment": 8914,
      "ĠlÃ©gislatives": 8915,
      "Ġwelcomed": 8916,
      "Ġextensive": 8917,
      "berg": 8918,
      "Ġchanging": 8919,
      "ĠrÃ©alitÃ©": 8920,
      "Ġpredic": 8921,
      "ano": 8922,
      "Ġconnu": 8923,
      "iling": 8924,
      "Ġmusi": 8925,
      "ething": 8926,
      "Ġeffectuer": 8927,
      "Ġze": 8928,
      "tte": 8929,
      "Ġcz": 8930,
      "ĠprÃ©cÃ©dente": 8931,
      "Ġappears": 8932,
      "juillet": 8933,
      "Ġalleged": 8934,
      "udence": 8935,
      "ential": 8936,
      "chent": 8937,
      "ĠdÃ©coulant": 8938,
      "ĠphÃ©nom": 8939,
      "Ġleban": 8940,
      "parle": 8941,
      "Ġbuilt": 8942,
      "ĠindÃ©pendant": 8943,
      "Ġconvenu": 8944,
      "atÃ©raux": 8945,
      "Ġunicef": 8946,
      "fÃ©ration": 8947,
      "Ġpopulaire": 8948,
      "Ġtherap": 8949,
      "Ġchur": 8950,
      "Ġindirect": 8951,
      "Ġratio": 8952,
      "ĠdiffÃ©rence": 8953,
      "Ġpreced": 8954,
      "Ġenterprise": 8955,
      "Ġoceans": 8956,
      "Ġabroad": 8957,
      "Ã¨tre": 8958,
      "Ġelected": 8959,
      "ĠassemblÃ©e": 8960,
      "Ġsouligner": 8961,
      "chÃ©s": 8962,
      "estim": 8963,
      "Ġindication": 8964,
      "ĠspÃ©cialistes": 8965,
      "Ġcommencer": 8966,
      "Ġcu": 8967,
      "Ġtechnological": 8968,
      "Ġaims": 8969,
      "brunswick": 8970,
      "Ġentrepris": 8971,
      "Ã©cosse": 8972,
[...]
